{"version":"1.0","truncation":null,"padding":null,"added_tokens":[{"id":0,"content":"<|endoftext|>","single_word":false,"lstrip":false,"rstrip":false,"normalized":false,"special":true},{"id":1,"content":"<|pad|>","single_word":false,"lstrip":false,"rstrip":false,"normalized":false,"special":true},{"id":2,"content":"<|bos|>","single_word":false,"lstrip":false,"rstrip":false,"normalized":false,"special":true},{"id":3,"content":"<|system|>","single_word":false,"lstrip":false,"rstrip":false,"normalized":false,"special":true},{"id":4,"content":"<|user|>","single_word":false,"lstrip":false,"rstrip":false,"normalized":false,"special":true},{"id":5,"content":"<|assistant|>","single_word":false,"lstrip":false,"rstrip":false,"normalized":false,"special":true},{"id":6,"content":"<|think|>","single_word":false,"lstrip":false,"rstrip":false,"normalized":false,"special":true},{"id":7,"content":"<|/think|>","single_word":false,"lstrip":false,"rstrip":false,"normalized":false,"special":true},{"id":8,"content":"<|response|>","single_word":false,"lstrip":false,"rstrip":false,"normalized":false,"special":true},{"id":9,"content":"<|/response|>","single_word":false,"lstrip":false,"rstrip":false,"normalized":false,"special":true},{"id":10,"content":"<|tool|>","single_word":false,"lstrip":false,"rstrip":false,"normalized":false,"special":true},{"id":11,"content":"<|/tool|>","single_word":false,"lstrip":false,"rstrip":false,"normalized":false,"special":true},{"id":12,"content":"<|end_of_msg|>","single_word":false,"lstrip":false,"rstrip":false,"normalized":false,"special":true},{"id":13,"content":"<|reserved_0|>","single_word":false,"lstrip":false,"rstrip":false,"normalized":false,"special":true},{"id":14,"content":"<|reserved_1|>","single_word":false,"lstrip":false,"rstrip":false,"normalized":false,"special":true},{"id":15,"content":"<|reserved_2|>","single_word":false,"lstrip":false,"rstrip":false,"normalized":false,"special":true},{"id":16,"content":"<|reserved_3|>","single_word":false,"lstrip":false,"rstrip":false,"normalized":false,"special":true},{"id":17,"content":"<|reserved_4|>","single_word":false,"lstrip":false,"rstrip":false,"normalized":false,"special":true},{"id":18,"content":"<|reserved_5|>","single_word":false,"lstrip":false,"rstrip":false,"normalized":false,"special":true},{"id":19,"content":"<|reserved_6|>","single_word":false,"lstrip":false,"rstrip":false,"normalized":false,"special":true},{"id":20,"content":"<|reserved_7|>","single_word":false,"lstrip":false,"rstrip":false,"normalized":false,"special":true},{"id":21,"content":"<|reserved_8|>","single_word":false,"lstrip":false,"rstrip":false,"normalized":false,"special":true},{"id":22,"content":"<|reserved_9|>","single_word":false,"lstrip":false,"rstrip":false,"normalized":false,"special":true},{"id":23,"content":"<|reserved_10|>","single_word":false,"lstrip":false,"rstrip":false,"normalized":false,"special":true},{"id":24,"content":"<|reserved_11|>","single_word":false,"lstrip":false,"rstrip":false,"normalized":false,"special":true},{"id":25,"content":"<|reserved_12|>","single_word":false,"lstrip":false,"rstrip":false,"normalized":false,"special":true},{"id":26,"content":"<|reserved_13|>","single_word":false,"lstrip":false,"rstrip":false,"normalized":false,"special":true},{"id":27,"content":"<|reserved_14|>","single_word":false,"lstrip":false,"rstrip":false,"normalized":false,"special":true},{"id":28,"content":"<|reserved_15|>","single_word":false,"lstrip":false,"rstrip":false,"normalized":false,"special":true},{"id":29,"content":"<|reserved_16|>","single_word":false,"lstrip":false,"rstrip":false,"normalized":false,"special":true},{"id":30,"content":"<|reserved_17|>","single_word":false,"lstrip":false,"rstrip":false,"normalized":false,"special":true},{"id":31,"content":"<|reserved_18|>","single_word":false,"lstrip":false,"rstrip":false,"normalized":false,"special":true}],"normalizer":null,"pre_tokenizer":{"type":"Sequence","pretokenizers":[{"type":"Split","pattern":{"Regex":"(?i:'s|'t|'re|'ve|'m|'ll|'d)|[^\\r\\n\\p{L}\\p{N}]?\\p{L}+|\\p{N}| ?[^\\s\\p{L}\\p{N}]+[\\r\\n]*|\\s*[\\r\\n]+|\\s+(?!\\S)|\\s+"},"behavior":"Isolated","invert":false},{"type":"ByteLevel","add_prefix_space":false,"trim_offsets":true,"use_regex":false}]},"post_processor":{"type":"ByteLevel","add_prefix_space":true,"trim_offsets":true,"use_regex":true},"decoder":{"type":"ByteLevel","add_prefix_space":true,"trim_offsets":true,"use_regex":true},"model":{"type":"BPE","dropout":null,"unk_token":null,"continuing_subword_prefix":null,"end_of_word_suffix":null,"fuse_unk":false,"byte_fallback":false,"ignore_merges":false,"vocab":{"<|endoftext|>":0,"<|pad|>":1,"<|bos|>":2,"<|system|>":3,"<|user|>":4,"<|assistant|>":5,"<|think|>":6,"<|/think|>":7,"<|response|>":8,"<|/response|>":9,"<|tool|>":10,"<|/tool|>":11,"<|end_of_msg|>":12,"<|reserved_0|>":13,"<|reserved_1|>":14,"<|reserved_2|>":15,"<|reserved_3|>":16,"<|reserved_4|>":17,"<|reserved_5|>":18,"<|reserved_6|>":19,"<|reserved_7|>":20,"<|reserved_8|>":21,"<|reserved_9|>":22,"<|reserved_10|>":23,"<|reserved_11|>":24,"<|reserved_12|>":25,"<|reserved_13|>":26,"<|reserved_14|>":27,"<|reserved_15|>":28,"<|reserved_16|>":29,"<|reserved_17|>":30,"<|reserved_18|>":31,"!":32,"\"":33,"#":34,"$":35,"%":36,"&":37,"'":38,"(":39,")":40,"*":41,"+":42,",":43,"-":44,".":45,"/":46,"0":47,"1":48,"2":49,"3":50,"4":51,"5":52,"6":53,"7":54,"8":55,"9":56,":":57,";":58,"<":59,"=":60,">":61,"?":62,"@":63,"A":64,"B":65,"C":66,"D":67,"E":68,"F":69,"G":70,"H":71,"I":72,"J":73,"K":74,"L":75,"M":76,"N":77,"O":78,"P":79,"Q":80,"R":81,"S":82,"T":83,"U":84,"V":85,"W":86,"X":87,"Y":88,"Z":89,"[":90,"\\":91,"]":92,"^":93,"_":94,"`":95,"a":96,"b":97,"c":98,"d":99,"e":100,"f":101,"g":102,"h":103,"i":104,"j":105,"k":106,"l":107,"m":108,"n":109,"o":110,"p":111,"q":112,"r":113,"s":114,"t":115,"u":116,"v":117,"w":118,"x":119,"y":120,"z":121,"{":122,"|":123,"}":124,"~":125,"¡":126,"¢":127,"£":128,"¤":129,"¥":130,"¦":131,"§":132,"¨":133,"©":134,"ª":135,"«":136,"¬":137,"®":138,"¯":139,"°":140,"±":141,"²":142,"³":143,"´":144,"µ":145,"¶":146,"·":147,"¸":148,"¹":149,"º":150,"»":151,"¼":152,"½":153,"¾":154,"¿":155,"À":156,"Á":157,"Â":158,"Ã":159,"Ä":160,"Å":161,"Æ":162,"Ç":163,"È":164,"É":165,"Ê":166,"Ë":167,"Ì":168,"Í":169,"Î":170,"Ï":171,"Ð":172,"Ñ":173,"Ò":174,"Ó":175,"Ô":176,"Õ":177,"Ö":178,"×":179,"Ø":180,"Ù":181,"Ú":182,"Û":183,"Ü":184,"Ý":185,"Þ":186,"ß":187,"à":188,"á":189,"â":190,"ã":191,"ä":192,"å":193,"æ":194,"ç":195,"è":196,"é":197,"ê":198,"ë":199,"ì":200,"í":201,"î":202,"ï":203,"ð":204,"ñ":205,"ò":206,"ó":207,"ô":208,"õ":209,"ö":210,"÷":211,"ø":212,"ù":213,"ú":214,"û":215,"ü":216,"ý":217,"þ":218,"ÿ":219,"Ā":220,"ā":221,"Ă":222,"ă":223,"Ą":224,"ą":225,"Ć":226,"ć":227,"Ĉ":228,"ĉ":229,"Ċ":230,"ċ":231,"Č":232,"č":233,"Ď":234,"ď":235,"Đ":236,"đ":237,"Ē":238,"ē":239,"Ĕ":240,"ĕ":241,"Ė":242,"ė":243,"Ę":244,"ę":245,"Ě":246,"ě":247,"Ĝ":248,"ĝ":249,"Ğ":250,"ğ":251,"Ġ":252,"ġ":253,"Ģ":254,"ģ":255,"Ĥ":256,"ĥ":257,"Ħ":258,"ħ":259,"Ĩ":260,"ĩ":261,"Ī":262,"ī":263,"Ĭ":264,"ĭ":265,"Į":266,"į":267,"İ":268,"ı":269,"Ĳ":270,"ĳ":271,"Ĵ":272,"ĵ":273,"Ķ":274,"ķ":275,"ĸ":276,"Ĺ":277,"ĺ":278,"Ļ":279,"ļ":280,"Ľ":281,"ľ":282,"Ŀ":283,"ŀ":284,"Ł":285,"ł":286,"Ń":287,"ĠĠ":288,"ĠĠĠĠ":289,"Ġt":290,"in":291,"Ġa":292,"he":293,"on":294,"re":295,"at":296,"er":297,"or":298,"Ġs":299,"Ġthe":300,"Ġ=":301,"en":302,"ĠĠĠ":303,"al":304,"es":305,"Ġc":306,"is":307,"it":308,"Ġf":309,"ion":310,"ĊĊ":311,"Ġ\\":312,"Ġp":313,"an":314,"Ġo":315,"le":316,"Ġw":317,"ar":318,"ĠĠĠĠĠĠĠĠ":319,"ing":320,"Ġd":321,"Ġm":322,"Ġ$":323,"Ġb":324,"Ġin":325,"ed":326,"Ġan":327,"ro":328,"Ġof":329,"ac":330,"ic":331,"ut":332,"Ġto":333,"**":334,"ent":335,"im":336,"Ġand":337,"Ġ(":338,"el":339,"Ġn":340,"st":341,"--":342,"ex":343,"et":344,"Ġre":345,"ou":346,"ĠĠĊ":347,"ĠĠĠĠĠĠĠ":348,"as":349,"om":350,"ot":351,")Ċ":352,"ation":353,"ct":354,"Ġl":355,"ul":356,"Ġis":357,"Ġh":358,"ol":359,":Ċ":360,"ur":361,"am":362,"il":363,"Ġfor":364,"ig":365,"Ġth":366,"Ġ-":367,"um":368,"iv":369,"de":370,"Ġ+":371,"if":372,"$$":373,"Ġ#":374,"ĠT":375,"ĠC":376,"us":377,"int":378,"ĠI":379,"Ġg":380,"rac":381,"ext":382,"Ġv":383,"ce":384,"Ġe":385,".ĊĊ":386,"qu":387,"ĠA":388,"un":389,"``":390,"ĠS":391,"ate":392,"id":393,"ad":394,"\"\"":395,"ow":396,"Ġst":397,"}{":398,"frac":399,"text":400,"Ġy":401,"----":402,"se":403,"th":404,"ge":405,"est":406,"ir":407,"ay":408,"ly":409,"Ġr":410,"Ġ|":411,"ist":412,"ment":413,"##":414,"Ġbe":415,"ers":416,"res":417,"Ġcon":418,"ith":419,"..":420,"pl":421,"ple":422,"ĠP":423,"**:":424,"ap":425,"ab":426,"ch":427,"ve":428,"Ġde":429,"igh":430,"rint":431,"Ġon":432,"Ġas":433,"ĠĠĠĠĠĠĠĠĠĠĠ":434,"put":435,"od":436,"Ġwith":437,"Ġpro":438,"os":439,"Ġthat":440,"ver":441,"ri":442,"nt":443,"âĢ":444,"ĠR":445,"ight":446,"urn":447,"ity":448,"ĠM":449,"ue":450,"pe":451,"ort":452,"ĠF":453,".Ċ":454,"Ġ\"":455,"ĠE":456,"and":457,"ĠD":458,"Ġare":459,"Ġal":460,"Ġit":461,"$$Ċ":462,"Ġcom":463,"elf":464,"ain":465,")ĊĊ":466,"rom":467,"Ġex":468,"Ġ{":469,"ĠO":470,"Ġor":471,"ĠB":472,"Ġus":473,"čĊ":474,"Ġwh":475,"ult":476,"Ġ*":477,"Ġint":478,"her":479,"__":480,"```":481,"ĠN":482,"ĠThe":483,"up":484,"\"\"\"":485,"Ġx":486,"em":487,"tim":488,"ess":489,"ies":490,"lo":491,"Ġ'":492,"turn":493,"Ġk":494,"ive":495,"print":496,"):Ċ":497,"==":498,"our":499,"ath":500,"end":501,"ore":502,"Ġreturn":503,"age":504,"ect":505,"(f":506,"Ġat":507,"ĠL":508,"Ġif":509,"art":510,"ial":511,"ft":512,"Ġwe":513,"port":514,"pt":515,"Ġby":516,"ame":517,"ĠH":518,"ine":519,"ns":520,"py":521,"ĠW":522,"ode":523,"iz":524,"pro":525,"ant":526,"Ġhe":527,"The":528,"cul":529,"ill":530,"Ġfrom":531,"per":532,"--------":533,"ĠG":534,"Ġse":535,"Ġ[":536,"Ġnot":537,"ass":538,"####":539,"red":540,"ak":541,"alcul":542,"ction":543,"Ġ\"\"\"":544,"act":545,"ld":546,"Ġval":547,"ub":548,"times":549,"eg":550,"oc":551,"estion":552,"wer":553,"Ġch":554,"),":555,"ag":556,"val":557,"ure":558,"Qu":559,"Ġnum":560,"ical":561,"ew":562,"orm":563,"ds":564,"Ġres":565,"Ġsh":566,"Ġun":567,"utput":568,"Ġle":569,"Ġtr":570,"ance":571,"ave":572,"Ġim":573,"ff":574,"_s":575,"dot":576,"{\\":577,"_c":578,"nswer":579,"Question":580,"ber":581,"Ġ$\\":582,"Ġself":583,"\",":584,"Ġyou":585,"nd":586,"def":587,"'s":588,"....":589,"ust":590,"plement":591,"Ġ/":592,"rt":593,"op":594,"Ġthis":595,"ile":596,"thon":597,"all":598,"ĠĠĠĠĠĠĠĠĠĠĠĠĠĠĠ":599,"\")Ċ":600,"ĠV":601,"_t":602,"cdot":603,"Answer":604,"are":605,"ang":606,"one":607,"ĠIm":608,"ta":609,"ition":610,"ost":611,"alculate":612,"ount":613,"ime":614,"ud":615,"ard":616,"ind":617,"Ġpl":618,"out":619,"Ġwhe":620,"og":621,"Ġcan":622,"ast":623,"ip":624,"plementation":625,"ata":626,"Ġper":627,"_d":628,"ep":629,"(\"":630,"ax":631,"',":632,"python":633,"ould":634,"Ġ\"\"\"Ċ":635,"cl":636,"able":637,"ans":638,"ated":639,"}$":640,"ase":641,"Code":642,"ĠImplementation":643,"_p":644,"ĠOutput":645,"Ġall":646,"}Ċ":647,"ens":648,"^{":649,"con":650,"Ġwas":651,"ide":652,"ear":653,"ere":654,"Ġro":655,"Ġhave":656,"Ġdef":657,"ord":658,"ations":659,"str":660,"erm":661,"qrt":662,"ĠU":663,"self":664,"):":665,"du":666,"_m":667,"Ġme":668,"Ġab":669,"Ġform":670,"âĢĻ":671,"av":672,"(x":673,"cc":674,"iven":675,"Ġprint":676,"ues":677,"sqrt":678,"oint":679,"ric":680,"ary":681,"right":682,"ach":683,"ib":684,"}}":685,"_n":686,"Ġen":687,"ich":688,"Ġstr":689,"ress":690,"Ġusing":691,"ents":692,"Ġap":693,"his":694,"_f":695,"====":696,"ange":697,"ace":698,"Ġcont":699,"ell":700,"ug":701,"ution":702,"Âł":703,"ual":704,"Ġad":705,"pon":706,"]Ċ":707,"der":708,"ack":709,"Ġequ":710,"ck":711,"$,":712,").":713,"ther":714,"ome":715,"ter":716,"ror":717,"ĠJ":718,"Ġj":719,"Ġsp":720,",Ċ":721,"Ġwor":722,"Ġnp":723,"ire":724,"ign":725,"Ġhas":726,"ence":727,"Ġdo":728,"Ġ**":729,"left":730,"ĠâĢ":731,"Ġcl":732,"prox":733,"Ġqu":734,"tal":735,"iff":736,"ok":737,"\")":738,"Ġ&":739,":.":740,"ph":741,"ĠIn":742,"Ġsc":743,"Ġ\\,":744,"enc":745,"Ġwill":746,"ample":747,".s":748,"ize":749,"form":750,"########":751,"arg":752,"Ġne":753,"ke":754,"Ġfun":755,"ict":756,"irst":757,"ĠEx":758,"inal":759,"Ġ$$":760,"ject":761,"$$ĊĊ":762,"ator":763,"ates":764,"_{":765,"Ġwhich":766,"Ġtime":767,"Ġ<":768,"Ġsy":769,"ong":770,"ions":771,"Ġel":772,"pi":773,"Ġar":774,"ari":775,"ous":776,"ĠSt":777,"Ġ>":778,"ra":779,"low":780,"math":781,"ite":782,"(n":783,"Ġmat":784,"Ð¾":785,"the":786,"Ġco":787,"Ġso":788,"Ġtheir":789,"ify":790,"Ġdis":791,"Ġthey":792,"ific":793,"Ġvalue":794,"_l":795,"Ġbut":796,"Ġtotal":797,"pute":798,"('":799,"ree":800,"ice":801,"we":802,"ma":803,"Ġyour":804,"Ġresult":805,"eng":806,"Ġnumber":807,"Ð°":808,"ry":809,"ert":810,"Ġone":811,"und":812,"Ġ==":813,"vel":814,"ĠK":815,"ake":816,"ĠĠĊĊ":817,"Ġcol":818,"ound":819,"ild":820,"Ġup":821,"**:Ċ":822,"Ġout":823,"irc":824,"ative":825,"ract":826,"ays":827,"cent":828,"its":829,"____":830,"Ġ|Ċ":831,"otal":832,"(\\":833,"Ġspe":834,"Ġgo":835,"ĠCom":836,"Ðµ":837,"ia":838,"Ġsol":839,"ility":840,"Ġmod":841,"ĠCalculate":842,"ise":843,"row":844,"com":845,"erv":846,"cre":847,"impl":848,"approx":849,"ĠĠĠĠĠĠĠĠĠĠĠĠ":850,"rix":851,"hat":852,"Ġi":853,"cept":854,"........":855,"aram":856,"wo":857,"mat":858,"```ĊĊ":859,")^":860,"Ġvalues":861,"ĠÐ":862,"Ġpart":863,"ely":864,"Ġman":865,"Ġpos":866,"_b":867,"Ġother":868,"Ġ$,":869,"ĠY":870,"_val":871,"Ġinto":872,"rue":873,"ĠĠĠĠĊ":874,"Ġâ":875,"ie":876,"import":877,"Ġfunction":878,"io":879,"Ġ:":880,"Ġdata":881,"Ġmore":882,"Ġdiff":883,"Ġbet":884,"ype":885,"))Ċ":886,"Ġdist":887,"ors":888,"ray":889,"Ġprob":890,"Ġmin":891,"result":892,"}\\":893,"ĠCon":894,"Ġind":895,"ength":896,"Ġpoint":897,"ient":898,"ula":899,"Ġsu":900,"urre":901,"Ġpre":902,"_{\\":903,"ings":904,"(self":905,"rib":906,"Ġmet":907,"ks":908,"ose":909,"âĢĻs":910,"ail":911,"Ġwhen":912,"sum":913,"ool":914,"{m":915,"ener":916,"ater":917,"ied":918,"ä¸":919,"hes":920,"aus":921,"ory":922,"les":923,"so":924,"iel":925,"))":926,"vert":927,"Ġimport":928,"ating":929,"gr":930,"Ġz":931,"Ġmath":932,"ute":933,"pect":934,"Ġcomm":935,"Ġcomp":936,"Ġsum":937,"Ġyear":938,"app":939,"own":940,"dition":941,"Ġwhere":942,"mathb":943,"Ġnew":944,"Ġob":945,"Ġlo":946,"Ġinter":947,"Ġrequ":948,"}\")Ċ":949,"ces":950,"ments":951,"ys":952,"Ġgr":953,"Ġver":954,"led":955,"Ġformula":956,"ĠThis":957,"Ġli":958,"Ġtwo":959,"Ġfirst":960,"],":961,"ef":962,"_r":963,"Ġwhat":964,"Ġev":965,"Ġrel":966,"cess":967,"ency":968,"ugh":969,"urrent":970,"theta":971,"()Ċ":972,"Ġabout":973,"ince":974,"Ġlist":975,"oth":976,"ĊĊĊ":977,"Ġeach":978,"Ġwere":979,"Ġacc":980,"^{-":981,"(t":982,"Ġcor":983,"Ġthere":984,"requ":985,"Ġset":986,"Ġget":987,"Ġwho":988,"Ġthan":989,"Ġcalculate":990,"Ġdiffere":991,"lect":992,"te":993,"rit":994,")$":995,"Ġover":996,"Ð¸":997,"ities":998,"\\text":999,"Ġsub":1000,"ll":1001,"ps":1002,"Ġno":1003,"Ġstud":1004,"}{\\":1005,"Ġfe":1006,"nce":1007,"':":1008,"angle":1009,"Ġthem":1010,"Ġany":1011,"Ġte":1012,"ĠNone":1013,"Ġop":1014,".g":1015,"ian":1016,"ec":1017,"Ġhow":1018,"Ġwork":1019,"ÑĤ":1020,"ning":1021,"ower":1022,"Ġhis":1023,"ix":1024,"()":1025,"Ġwould":1026,"ob":1027,"ÑĢ":1028,"Ġpe":1029,"els":1030,"ption":1031,"Ġrange":1032,"Ġexp":1033,"ove":1034,"Ġfact":1035,"error":1036,"Ġcount":1037,"Ġgiven":1038,"ability":1039,"Ġits":1040,"Ġelse":1041,"fter":1042,"For":1043,"Ġ\\\\":1044,"stit":1045,"hus":1046,"ĠCh":1047,"ï¼":1048,"Ð¾Ð":1049,"^\\":1050,"Ġkn":1051,"Ġneed":1052,"aw":1053,"(s":1054,"Ġvari":1055,"In":1056,"Ġterm":1057,"Ġag":1058,"========":1059,"quad":1060,"aramet":1061,"circ":1062,"stem":1063,"ey":1064,"eturn":1065,"elta":1066,"')Ċ":1067,"à¤":1068,"duct":1069,"rror":1070,"heck":1071,"Ġact":1072,".,":1073,"ink":1074,"ween":1075,"ss":1076,"ov":1077,"?ĊĊ":1078,"ĠIf":1079,"ish":1080,"Ġalso":1081,"ick":1082,"ren":1083,"ular":1084,"},":1085,"tt":1086,"Ġdes":1087,"cos":1088,"ause":1089,"loat":1090,"Ġbec":1091,"âĢĿ":1092,"Ð½":1093,"ĠFor":1094,"Ġuse":1095,"ible":1096,"ins":1097,"This":1098,"Ġrem":1099,"Ġsup":1100,"sing":1101,"olum":1102,"ĠIt":1103,"Ġline":1104,"itial":1105,"pos":1106,"ark":1107,"Ġsome":1108,"log":1109,"als":1110,"roup":1111,"ople":1112,"atio":1113,"Ġinteg":1114,"ield":1115,"Ġbetween":1116,"rough":1117,"Ġonly":1118,"ures":1119,"ffic":1120,"Ġbo":1121,"Ġam":1122,"Ġdec":1123,"Error":1124,"'t":1125,"ational":1126,"}^":1127,"Ġem":1128,"ĠĊ":1129,"Ġmax":1130,"\"\"\"Ċ":1131,"Ġreg":1132,"ãģ":1133,"Ġprov":1134,":ĊĊ":1135,"Ġtrans":1136,"Ñģ":1137,"adi":1138,"ĠReturn":1139,"rect":1140,"ons":1141,"Ġdet":1142,"ĠĠĠĠĠ":1143,"/s":1144,"Ġ->":1145,"lem":1146,"amb":1147,"Ġmy":1148,"Ġpr":1149,"Ġshould":1150,"Ġour":1151,"from":1152,"Ġspec":1153,"gh":1154,"ood":1155,"(d":1156,"to":1157,"old":1158,"ern":1159,"Ġcons":1160,"yp":1161,"matrix":1162,"alse":1163,"round":1164,"_i":1165,"vi":1166,"erg":1167,"Ġ\\(":1168,"Ġcalcul":1169,"ude":1170,"Ġbeen":1171,"ident":1172,"''":1173,"Ġhad":1174,"\":":1175,"čĊčĊ":1176,"_in":1177,"ased":1178,"Ġthese":1179,"hod":1180,"ices":1181,"ĠPro":1182,"imum":1183,"Ġma":1184,"Ġconf":1185,"Ġdiv":1186,"resent":1187,"sin":1188,"Ġunder":1189,"Ġcre":1190,"ollow":1191,"Ġph":1192,"da":1193,"fore":1194,"vers":1195,"pha":1196,"Ġequation":1197,"aining":1198,"Ġincl":1199,"irect":1200,"Ġpeople":1201,"Ġlike":1202,"Ġrec":1203,"plic":1204,"ars":1205,"Ġsecon":1206,"ired":1207,"}(":1208,"mathbf":1209,"Ġclass":1210,"Ġthen":1211,"ape":1212,"ified":1213,"ĠâĢľ":1214,"Ġmay":1215,"})":1216,"Ġsystem":1217,"Ġright":1218,"Ġchild":1219,"Ġass":1220,"$.":1221,"ough":1222,",\\":1223,"{b":1224,"ally":1225,"Ġtest":1226,"ches":1227,"Ġarea":1228,"Ġpol":1229,"(a":1230,"Thus":1231,"ĠReturns":1232,"St":1233,"Ġcurrent":1234,"ĠX":1235,"bers":1236,"ĠAr":1237,"Ġoff":1238,"chool":1239,"Ġ$.":1240,"Ġthrough":1241,"Ġang":1242,"}\")":1243,"Ġele":1244,"Ġsolution":1245,"ature":1246,"arameters":1247,"\")ĊĊ":1248,"Ġboth":1249,"Ġatt":1250,"air":1251,"Ġfrequ":1252,"Ġinput":1253,"Ġrep":1254,"ases":1255,"Ġlength":1256,"hed":1257,"ĠCompute":1258,"Ġì":1259,"Ġ($":1260,"ffect":1261,"ĠTrue":1262,"ng":1263,"iginal":1264,"ĠRe":1265,"Ġgener":1266,"very":1267,"Ġfollow":1268,"ne":1269,"çļ":1270,"min":1271,"Ġfind":1272,"iss":1273,"time":1274,"çļĦ":1275,"co":1276,"Ġsm":1277,"Ġmust":1278,"ines":1279,"olog":1280,"igma":1281,"cal":1282,"ĠĠĠĠĠĠĠĠĠ":1283,"Ġdoes":1284,"imal":1285,"here":1286,"Ġused":1287,"Ġstart":1288,"(-":1289,"Ġsame":1290,"ambda":1291,"ification":1292,"Ġend":1293,"Ġlog":1294,"ĠExample":1295,"array":1296,"Ġed":1297,"ision":1298,"hip":1299,"Ġafter":1300,"Ġsa":1301,"omet":1302,"\"Ċ":1303,"gram":1304,"Ġyears":1305,"eta":1306,"uc":1307,"name":1308,"ply":1309,"ull":1310,"uct":1311,"read":1312,"respon":1313,"Ġ`":1314,"Ġsym":1315,"ined":1316,"Ġadd":1317,"\",Ċ":1318,"reat":1319,"_w":1320,"plt":1321,"line":1322,"for":1323,"Ġsign":1324,"Ġsuch":1325,"stant":1326,"ting":1327,".p":1328,"gs":1329,"Ġmany":1330,"Ġac":1331,"_st":1332,"Ġerror":1333,"ets":1334,"ically":1335,"ics":1336,"ork":1337,"Ġbecause":1338,"Ġproblem":1339,"ci":1340,"Ġent":1341,".d":1342,"ives":1343,"ega":1344,"ages":1345,"________":1346,"velop":1347,"Ġext":1348,"implies":1349,"Ġwhile":1350,"Ġ%":1351,"pend":1352,"ubstit":1353,"ĠHe":1354,"ours":1355,"Ġstep":1356,"']":1357,"abel":1358,"Ġhel":1359,"Ġbu":1360,"Ġstand":1361,"Ġher":1362,"equ":1363,"([":1364,"itive":1365,"bo":1366,"olution":1367,"_per":1368,"(m":1369,"Ġincre":1370,"}_":1371,"[i":1372,"Ġmult":1373,"Ġmost":1374,"Ġjust":1375,"ER":1376,"rice":1377,"ral":1378,"Ġstate":1379,"Ġrate":1380,"Ġcompute":1381,"uring":1382,"Ġfrequency":1383,"Ġder":1384,"Ġ$:":1385,"Ġmodel":1386,"olume":1387,"pr":1388,"Ġinv":1389,"Ġname":1390,"Ġcondition":1391,"ression":1392,"pected":1393,"arch":1394,"Ġcost":1395,"Ġdifferent":1396,"ced":1397,"ĠUn":1398,"Ġknow":1399,"ĠGiven":1400,"Ġmon":1401,"//":1402,"ides":1403,"Ġtry":1404,"}}{":1405,"class":1406,"egin":1407,"Â²":1408,"Ġcent":1409,"idth":1410,"Ð»":1411,"Ġfl":1412,"Ġ$$Ċ":1413,"ization":1414,"ples":1415,"oss":1416,"Ġfile":1417,"ality":1418,"Ġfactor":1419,"Ġcomple":1420,"ont":1421,"part":1422,"Ð¼":1423,"ĠAn":1424,".f":1425,".c":1426,"Ġmethod":1427,"alth":1428,"]ĊĊ":1429,"ĠQ":1430,"ful":1431,"mer":1432,"hen":1433,"Ġlen":1434,"add":1435,"Ġmake":1436,"ots":1437,"ank":1438,"mon":1439,"istance":1440,"Ġtri":1441,"aph":1442,"Ġ__":1443,"Ġloc":1444,"ho":1445,"ized":1446,"Ġsim":1447,"ness":1448,"$:":1449,"._":1450,"Ġdr":1451,"['":1452,"erson":1453,",}":1454,"Ġra":1455,"begin":1456,"ross":1457,"Ġorder":1458,"ĠWe":1459,"Ġchar":1460,"(l":1461,"ON":1462,"ward":1463,"Ġ\\\\Ċ":1464,"bol":1465,"Ġsur":1466,"Ġgroup":1467,"Ġback":1468,"Ġref":1469,"arget":1470,"umber":1471,".m":1472,"ĠĠĠĠĠĠĠĠĠĠ":1473,"{,}":1474,"imes":1475,"Ġshe":1476,"Ġmean":1477,"(c":1478,"verage":1479,"ubl":1480,"='":1481,").ĊĊ":1482,"_value":1483,"get":1484,"ï¼Į":1485,"ormal":1486,"uch":1487,"other":1488,"utes":1489,"pert":1490,".t":1491,"IN":1492,"{bmatrix":1493,"Ġdistance":1494,"alpha":1495,"-b":1496,"ĠSh":1497,"Ġcar":1498,"ule":1499,"Ġ(-":1500,"Ġshow":1501,"Ġoper":1502,"ĠÎ":1503,"Ġser":1504,"Ġtext":1505,"Ġprocess":1506,"ĊĠĠĠĠĊ":1507,"oy":1508,"andom":1509,"ains":1510,"=\"":1511,"formation":1512,"$$\\":1513,"])Ċ":1514,"ier":1515,"AT":1516,"ential":1517,"_h":1518,"{c":1519,"ife":1520,"wn":1521,"_x":1522,">>":1523,"Ġinf":1524,"ually":1525,"ergy":1526,"omin":1527,"ale":1528,"att":1529,"Ġread":1530,"ĠVal":1531,"Ġsqu":1532,"Ġeven":1533,"$.ĊĊ":1534,")(":1535,"ĠVer":1536,"Ġu":1537,"Ġevery":1538,"Ġfil":1539,"Ġpass":1540,"...":1541,"---":1542,"(b":1543,"Given":1544,"Ġpoints":1545,"_to":1546,"aking":1547,"ym":1548,"Ġproduct":1549,"(p":1550,"True":1551,"Ġobject":1552,"atch":1553,"Â°":1554,"Ġcould":1555,"\\pi":1556,"-s":1557,"Ġdevelop":1558,"Ġsee":1559,"Ġpercent":1560,"ault":1561,"mu":1562,"not":1563,"ural":1564,"_g":1565,"Ġlong":1566,"met":1567,"ven":1568,"Ġwater":1569,"olve":1570,"Ġsecond":1571,"Ġdeterm":1572,"Ġdi":1573,"ero":1574,"Ġhand":1575,"{k":1576,"ames":1577,"_y":1578,"åı":1579,"append":1580,"Ġwell":1581,"ateg":1582,"So":1583,"ĠĠĠĠĠĠ":1584,"Ġschool":1585,"Ġradi":1586,"Ġhelp":1587,"arn":1588,"Ġ_":1589,"_o":1590,"day":1591,"Com":1592,"lock":1593,"ists":1594,"word":1595,"ash":1596,"Ġmass":1597,"),Ċ":1598,"ock":1599,"ily":1600,"Ġkey":1601,"Ġoutput":1602,"Ġhigh":1603,"Ġexcept":1604,"ms":1605,")čĊ":1606,"Ġfr":1607,"ĠAd":1608,"lambda":1609,"ask":1610,"total":1611,"Ġtem":1612,"åĪ":1613,"Ġpar":1614,"_name":1615,"Ġplay":1616,")}":1617,"_k":1618,"Ġnon":1619,"version":1620,"Ġratio":1621,".ex":1622,"æķ":1623,"Substit":1624,"Ġ+=":1625,"Ġbel":1626,"Ex":1627,"()ĊĊ":1628,"ĠAl":1629,"effic":1630,"raction":1631,"rain":1632,"ĠList":1633,"\\frac":1634,"ES":1635,"ared":1636,"Ġident":1637,"bin":1638,"arent":1639,"Ġderiv":1640,"Ġpower":1641,"que":1642,"sigma":1643,"Ġcheck":1644,"Ġbl":1645,"Ġcap":1646,"plot":1647,"Ġlevel":1648,"ãĢ":1649,".append":1650,"Ġcm":1651,"itt":1652,"Ġfound":1653,"Ġinclud":1654,"ĠSe":1655,"itude":1656,"Ġ$(":1657,"Ġrequired":1658,"Ġposition":1659,"Con":1660,"Ġcomput":1661,"ection":1662,"ner":1663,"uting":1664,"ĠĠĠĠĠĠĠĠĠĠĠĠĠ":1665,"ĠAs":1666,"_re":1667,"ĠFalse":1668,"ĨĴ":1669,"Ġsmall":1670,"Ġav":1671,"uth":1672,"Ġleft":1673,"Ġins":1674,"par":1675,"{x":1676,"Ġangle":1677,"atter":1678,"Ġway":1679,"ĠCor":1680,"ote":1681,"Ġrow":1682,"Ġprogram":1683,"Ġthink":1684,"Ġside":1685,"Ġstudents":1686,"Ġappro":1687,"ector":1688,"Ġans":1689,"Ġq":1690,"][":1691,"atic":1692,"agn":1693,"Ġstandard":1694,"_v":1695,"Ġraise":1696,"Ġweight":1697,"ided":1698,"{d":1699,"Ġdat":1700,"Ġfloat":1701,"Ġmulti":1702,"ider":1703,".n":1704,"iod":1705,"Ġvalid":1706,"vent":1707,"Ġcorrect":1708,"ever":1709,"Ġvery":1710,"Ġwant":1711,"Ġinst":1712,"ulation":1713,"ited":1714,"Ġden":1715,"ĠâĢĵ":1716,"Ġest":1717,"Ġenergy":1718,"Ġpartic":1719,"Ġ$.ĊĊ":1720,"AR":1721,"ĠDef":1722,"Ġrespon":1723,"Ġinitial":1724,"_id":1725,"Ġreal":1726,"Ðº":1727,"ton":1728,"Ġsize":1729,"Ġcontin":1730,"Ġdirect":1731,"Ġbeing":1732,"anc":1733,"Ġday":1734,"_de":1735,"ards":1736,"ean":1737,"\\%":1738,"Ġexample":1739,"proxim":1740,"erest":1741,"urs":1742,"Delta":1743,"ten":1744,"Ġsk":1745,"Using":1746,"Ġdown":1747,"Ġsat":1748,"phi":1749,"}$,":1750,"Ġeffect":1751,"bs":1752,"Ġgu":1753,"Ġtyp":1754,"Ġthree":1755,"Ġbefore":1756,"olv":1757,"ĠConvert":1758,"erence":1759,"])":1760,"Ġchildren":1761,"eter":1762,"Ġë":1763,"Ñĭ":1764,"gan":1765,"Ġmem":1766,"://":1767,"ĠPl":1768,"ats":1769,"Ġdig":1770,"Ġmatrix":1771,"Ġposs":1772,"Ġoriginal":1773,"ann":1774,"Ġheight":1775,"gre":1776,"Ġlook":1777,"index":1778,"ĠArgs":1779,"Ġconstant":1780,"Ġprobability":1781,"What":1782,"valu":1783,"Ġdisc":1784,"ĠInt":1785,"Ġsupport":1786,"ĠâĨĴ":1787,"Ġstring":1788,"Ġgood":1789,"mod":1790,"\\left":1791,"ĠHow":1792,"ĠZ":1793,"Ġserv":1794,"oun":1795,"ems":1796,"ately":1797,"\\,\\":1798,"ocity":1799,"OR":1800,"Ġnumbers":1801,".get":1802,"Ġexpl":1803,"pre":1804,"_A":1805,"Ġhim":1806,"EN":1807,"Ñĥ":1808,"Ġnumpy":1809,"land":1810,"Ġocc":1811,"Ġchange":1812,"ts":1813,"Ġindex":1814,"Ġagain":1815,"set":1816,"Ġthose":1817,"place":1818,"Ġrun":1819,"ãĤ":1820,"Ġâī":1821,"iron":1822,"æķ°":1823,"Ġperson":1824,"Ġtype":1825,"oci":1826,"|--------":1827,"Ġ}":1828,"aces":1829,"isf":1830,"Ġrepresent":1831,"/m":1832,"ouse":1833,"_pro":1834,"ĠWhat":1835,"ribution":1836,"Ġmed":1837,".r":1838,"ource":1839,"ior":1840,"any":1841,"Ġprodu":1842,"Ġdid":1843,"mathbb":1844,"redict":1845,"Ġcal":1846,"akes":1847,"ordin":1848,"__(":1849,".com":1850,"ublic":1851,"quence":1852,"yn":1853,"Ġcommun":1854,"ants":1855,"Ġsaid":1856,"Ġ(\"":1857,"value":1858,"ST":1859,"ctions":1860,"Ġabs":1861,"ather":1862,"Ġlast":1863,"responds":1864,"ional":1865,"'Ċ":1866,"_e":1867,"ration":1868,"ival":1869,"partial":1870,"Ġnow":1871,"Ġke":1872,"ĠAp":1873,"Ġquestion":1874,"ominator":1875,"ĠDe":1876,"aint":1877,".l":1878,"Ġbase":1879,"cri":1880,"Ġresults":1881,"amp":1882,"Ġ>>>":1883,"Ġmuch":1884,"ĠTh":1885,"ĠÃ":1886,"_data":1887,"****":1888,"play":1889,"Ġcirc":1890,"ety":1891,"\"ĊĊ":1892,"Ġterms":1893,"num":1894,"ccess":1895,"ables":1896,"Ġdon":1897,"ww":1898,"ìĿ":1899,"Ġown":1900,"Ġpop":1901,"chn":1902,"lass":1903,"Ġax":1904,"ane":1905,"hing":1906,"Ġspeed":1907,"iver":1908,"rop":1909,"Ġredu":1910,"stand":1911,"Ġtake":1912,"iles":1913,"ody":1914,"Ġnumer":1915,"rol":1916,"raw":1917,"Ġpath":1918,"ĠVerify":1919,")ĊĊĊ":1920,"rite":1921,"Ġmonth":1922,"{N":1923,"To":1924,"Ġbre":1925,"leq":1926,"Ġplace":1927,"[\"":1928,"Ġarray":1929,"Ġhours":1930,"arge":1931,"âĢĻt":1932,"Ġapproxim":1933,"ä»":1934,"imens":1935,"(Ċ":1936,"idual":1937,"{C":1938,"ek":1939,"where":1940,"loor":1941,"Ġdays":1942,"Ġcase":1943,"point":1944,"ivers":1945,"uple":1946,"Ġexper":1947,"ĠNew":1948,"Ġmade":1949,"rans":1950,"pec":1951,"Ġcolum":1952,"{A":1953,"Ġbr":1954,"Ġduring":1955,"ĠValue":1956,"Ġverify":1957,"Ġelif":1958,"itle":1959,"Ġinformation":1960,"Ġcalculation":1961,"åħ":1962,"Ġlim":1963,"omega":1964,"_a":1965,"ĠYou":1966,"Ġproject":1967,"float":1968,"ade":1969,"ensity":1970,"Ġ\\$":1971,"Ġhealth":1972,"Ġmeas":1973,"ology":1974,"Ġuser":1975,"Ġinc":1976,"inter":1977,"ument":1978,"_size":1979,"ah":1980,"beta":1981,"Ġcur":1982,"Ġvi":1983,"Ġvis":1984,"Ġprof":1985,"Let":1986,"ĠĠĠĠĠĠĠĠĠĠĠĠĠĠ":1987,"over":1988,".sqrt":1989,"Ġcle":1990,"Ġconstr":1991,"Ġworld":1992,"Ġunits":1993,"Ġcharact":1994,"Total":1995,"ital":1996,"Ġ.":1997,"Ġconversion":1998,"Ġactiv":1999,"amma":2000,"ptional":2001,"arning":2002,"Ġsatisf":2003,"actor":2004,"Ġdifference":2005,"viron":2006,"Ġsimpl":2007,"ponent":2008,"resh":2009,"face":2010,"Ġgrow":2011,"Ġlead":2012,"Ġopen":2013,"ead":2014,"Ġless":2015,"Ġdecimal":2016,"Ġfam":2017,"æľ":2018,"Ġpositive":2019,"Pro":2020,"arm":2021,"way":2022,"{p":2023,"_B":2024,"Ġinterest":2025,"init":2026,"Ġrelations":2027,"Ġ-\\":2028,"Ġforce":2029,"Ġanal":2030,"_list":2031,"verse":2032,"egative":2033,"Ġvert":2034,"max":2035,"åĲ":2036,"Ġlife":2037,"Ġimage":2038,"ÂłÂł":2039,"ĠThere":2040,"Ġtop":2041,"Ġart":2042,"ĠRes":2043,"Ġparameters":2044,"Ġet":2045,"ism":2046,"ilities":2047,"Ġvolume":2048,"elocity":2049,"Since":2050,"ik":2051,"Ġsquare":2052,"AN":2053,"{(":2054,"Ġnext":2055,"Ġwithin":2056,"AL":2057,"(r":2058,"work":2059,"((":2060,"Ñı":2061,"ience":2062,"amples":2063,".\"\"\"Ċ":2064,"(y":2065,"Ġvol":2066,"Ġcommon":2067,"ĠThey":2068,"ĠParameters":2069,"():Ċ":2070,"key":2071,"Ġmain":2072,"Ġsl":2073,"ger":2074,"âĢĶ":2075,"ĠInd":2076,"Ġsing":2077,"Ġfinal":2078,"_path":2079,"Ġcoeffic":2080,"iter":2081,"Ġwhy":2082,"args":2083,"sh":2084,"{R":2085,"Ġallow":2086,"Ġexact":2087,"alk":2088,"Ġhead":2089,"Ġtarget":2090,"Ġ<=":2091,"Ġpropert":2092,"))ĊĊ":2093,"è¿":2094,"Ġequal":2095,"Ġconn":2096,"Ġroot":2097,"istic":2098,"Ġnormal":2099,"Ġaverage":2100,"Ġround":2101,"ilon":2102,"ained":2103,"=True":2104,"Ġcall":2105,"Ġprice":2106,"Ġmark":2107,"(A":2108,"atures":2109,"Ġsort":2110,"Ġanswer":2111,".sh":2112,"arrow":2113,"ĠBut":2114,"Ġmov":2115,"plit":2116,"ding":2117,"ĠAnd":2118,"SE":2119,"Ġhere":2120,"Ġear":2121,"plication":2122,"Ġ@":2123,"ason":2124,"rem":2125,"ole":2126,"Ġperiod":2127,"Ġwithout":2128,"bar":2129,"ĠDefine":2130,"Ġrelationship":2131,"Ġfield":2132,"Ġfollowing":2133,"ĠTotal":2134,"rel":2135,"LE":2136,"Ġgre":2137,"ĉĉ":2138,"Ġeduc":2139,"ln":2140,"meric":2141,"Ġinteger":2142,"ales":2143,"inary":2144,"Ġexpected":2145,".array":2146,"Ġcreate":2147,"ams":2148,"],Ċ":2149,"iving":2150,"Ġradius":2151,"iction":2152,"Substituting":2153,"Ġstill":2154,"Ġaddition":2155,"Ġcalculated":2156,"serv":2157,"\\)":2158,"ways":2159,"ense":2160,"Ġsolve":2161,"Ġdetermine":2162,"of":2163,"vironment":2164,"We":2165,"alf":2166,"{n":2167,"Ġarg":2168,"Ġvelocity":2169,"Ġtimes":2170,"{s":2171,"Ġhum":2172,"ott":2173,"bols":2174,"essage":2175,"ances":2176,"Ġplt":2177,"Ġbased":2178,"Ġelement":2179,"Ġvector":2180,"outh":2181,"Ġelect":2182,".st":2183,"Ð²":2184,"af":2185,":čĊ":2186,"Ġpossible":2187,"ling":2188,"ively":2189,"ients":2190,"ÑĢÐ°":2191,"Ġcho":2192,"ãĥ":2193,"_ex":2194,"ĠCorresponds":2195,"Ġbeh":2196,"Ġimp":2197,"}^{":2198,"erial":2199,"oid":2200,"Ġmaximum":2201,"çĶ":2202,"Ġpercentage":2203,"Ġsequence":2204,"If":2205,"Ġsince":2206,"idd":2207,"Ġrandom":2208,"Ġnet":2209,"-d":2210,"fty":2211,"Ġaround":2212,"ift":2213,"Ġlaw":2214,").Ċ":2215,"eration":2216,"IC":2217,"input":2218,"Ġå":2219,"odel":2220,"eps":2221,"Ġexpression":2222,"area":2223,"rame":2224,"infty":2225,"ception":2226,"irection":2227,"ron":2228,"Ġmeans":2229,"Ġdel":2230,"Ġthough":2231,"let":2232,"view":2233,"Ġelements":2234,"type":2235,"ividual":2236,"ee":2237,"Ġsomet":2238,"date":2239,"ields":2240,"less":2241,"idence":2242,"{V":2243,"Ġminutes":2244,"].":2245,"Ġgreat":2246,"order":2247,"ries":2248,"_rate":2249,"Ġtechn":2250,"\\theta":2251,"Ġpresent":2252,"ike":2253,"ritical":2254,"Ġsignific":2255,"yl":2256,"_se":2257,"use":2258,"arr":2259,"crib":2260,"Ġreport":2261,"umer":2262,"aving":2263,"Ġword":2264,"ves":2265,"Ġstat":2266,")/":2267,"uss":2268,"ious":2269,"Ġamount":2270,"Ġfin":2271,"Ġlet":2272,"Ġbest":2273,"ered":2274,"Ġwrit":2275,"Ġfood":2276,"Ġdenominator":2277,"\\sqrt":2278,"ãĢĤ":2279,"Ġold":2280,"man":2281,"Ġpract":2282,"grees":2283,"Ġmove":2284,"Ġlight":2285,"Ġbuild":2286,"Ġ!":2287,"bal":2288,"Ġcolor":2289,"aset":2290,"oh":2291,"ery":2292,"iled":2293,"Ġmill":2294,"ixed":2295,"aps":2296,"Ġimportant":2297,"ocial":2298,"ences":2299,"ploy":2300,"ogr":2301,"ĠâĢ¢":2302,"Ġchang":2303,"Ġcr":2304,"Ġunit":2305,"_length":2306,"ĠAmeric":2307,"Ġenc":2308,"fig":2309,"vec":2310,"np":2311,"orn":2312,"ĠOr":2313,"ond":2314,"Ġsay":2315,"ĠWh":2316,"tage":2317,"ming":2318,"Ġpot":2319,"Ġarr":2320,"Ġbas":2321,"ird":2322,"ands":2323,"Ġbook":2324,"Ġplan":2325,"Ġsample":2326,"Ġloss":2327,"Ġcare":2328,"valid":2329,"ĠValueError":2330,"hemat":2331,"core":2332,"Ġparent":2333,"Â·":2334,"Ġ(\\":2335,"Ġvariable":2336,"ailable":2337,"{P":2338,"Ġmeters":2339,"indow":2340,"íķ":2341,"Ġide":2342,"IT":2343,"lection":2344,"wise":2345,"ython":2346,"Ġmight":2347,"ĠNo":2348,"Ġdx":2349,"Ġpay":2350,"Ġsuccess":2351,"br":2352,"fo":2353,"ensor":2354,"Ġexist":2355,"pm":2356,"ĠCo":2357,"_count":2358,"tion":2359,"Ġusage":2360,"Ġann":2361,"uration":2362,"There":2363,"ugg":2364,"_time":2365,"Ġperform":2366,"Ġnode":2367,"oll":2368,"Ġconfir":2369,"RE":2370,"Ġleast":2371,"iness":2372,"son":2373,"Ġconvert":2374,"rad":2375,"An":2376,"lope":2377,"lose":2378,"Ġla":2379,"just":2380,"]:Ċ":2381,"geq":2382,"æĸ":2383,"_str":2384,"Ġcoordin":2385,"ission":2386,"ique":2387,"ä½":2388,"Ġdesign":2389,"Ġinterval":2390,"Ġwidth":2391,"orrect":2392,"',Ċ":2393,"ium":2394,"lim":2395,"Ġpur":2396,"inc":2397,"weight":2398,"ords":2399,"Ġbound":2400,")}{":2401,"Ver":2402,"$Ċ":2403,"Ġhist":2404,"Ġcour":2405,"åŃ":2406,"Ġiss":2407,"âĢĵ":2408,"Ġspecific":2409,"It":2410,"?Ċ":2411,"Ġfraction":2412,"Ġkg":2413,"Ġunderstand":2414,"Ch":2415,"ÑĮ":2416,"ories":2417,"ponents":2418,"Calculate":2419,"ved":2420,"Ġstruct":2421,"Ġtrue":2422,"Ġhig":2423,"ä¸ª":2424,"Ġseries":2425,"Ġlinear":2426,"Ġindividual":2427,"ring":2428,"ires":2429,"*x":2430,"Ġspace":2431,"Ġgeneral":2432,"_con":2433,")\\":2434,".S":2435,"Ġ//":2436,"[str":2437,"Ġfull":2438,"Ġcell":2439,"pace":2440,"ources":2441,"omen":2442,"omial":2443,"acy":2444,"ention":2445,"_ch":2446,"Ġrese":2447,"Ġpost":2448,"ounds":2449,"AC":2450,"ĠTo":2451,"oub":2452,"ĠâīĪ":2453,"acher":2454,"ived":2455,"ecute":2456,"Ġcode":2457,"Ġorgan":2458,"Ġlab":2459,"load":2460,"ustom":2461,"erc":2462,"pty":2463,"Ġimpro":2464,"Ġpres":2465,"Ġanother":2466,"Ġens":2467,"\",čĊ":2468,"ttps":2469,"}$$ĊĊ":2470,"-t":2471,"Ġsingle":2472,"None":2473,"mega":2474,"cont":2475,"_values":2476,"Ġcontrol":2477,"olds":2478,"ç»":2479,"Ġseconds":2480,"[:":2481,"Ġos":2482,"(X":2483,"Ġindic":2484,"_C":2485,"perature":2486,"):čĊ":2487,"imin":2488,"head":2489,"ises":2490,"Ġsteps":2491,"Ġmagn":2492,"}$.":2493,"angu":2494,"isk":2495,"ares":2496,"ured":2497,"ges":2498,"be":2499,"ptions":2500,"ä¸Ģ":2501,"oin":2502,"uction":2503,"ID":2504,"äº":2505,"Ġes":2506,"ends":2507,"{M":2508,"Ġzero":2509,"ĠÃĹ":2510,"Ġbus":2511,"ental":2512,"Ġclos":2513,"Ġload":2514,"-f":2515,"wh":2516,"Ġpress":2517,"Ġrequest":2518,"url":2519,"Ġturn":2520,"Ġdistribution":2521,"Ġprovided":2522,"First":2523,"Ġrece":2524,"_min":2525,"ering":2526,"rip":2527,"ĠWhen":2528,"')":2529,"Ġ!=":2530,".pi":2531,"ished":2532,"(result":2533,"conom":2534,"uthor":2535,"æĺ":2536,"az":2537,"Ġlarge":2538,"ĠCheck":2539,"df":2540,"Ð´":2541,"ĠIs":2542,"Ñĩ":2543,"à¥":2544,"Ġlocal":2545,"Ġpublic":2546,"ĠCre":2547,"Ġincluding":2548,"ilar":2549,"-c":2550,"Ġgover":2551,"ored":2552,"Ġcharacter":2553,"ĠCount":2554,"Ġdue":2555,"Ġdefined":2556,"Int":2557,"comes":2558,"$)":2559,"cond":2560,"Ġbreak":2561,"Ġfour":2562,"Ġminimum":2563,"_sum":2564,"unction":2565,"med":2566,"Ġlabel":2567,"ayer":2568,"Ġpredict":2569,"ĠSo":2570,"Ġage":2571,"Ġquad":2572,"Ġlearning":2573,"Ġdefin":2574,"Ġprot":2575,"Ġlow":2576,"oment":2577,"ilt":2578,"ills":2579,"ĠâĪ":2580,"Ġsides":2581,"cer":2582,"Ġtoo":2583,"Ġbetter":2584,"Ġdimens":2585,"nment":2586,"ene":2587,".add":2588,"cle":2589,"isc":2590,"atural":2591,"hem":2592,"Ġ--------":2593,"ĠAnswer":2594,"Ġstudy":2595,"ĠĠĠĠĠĠĠĠĊ":2596,"Ġadv":2597,"vious":2598,"Ġcolumn":2599,"uit":2600,"ither":2601,"Ġsit":2602,"asing":2603,"acc":2604,"insert":2605,"ĠStep":2606,"param":2607,"avel":2608,"orth":2609,"ieve":2610,".w":2611,"ised":2612,"Ġincrease":2613,"ending":2614,"ysis":2615,"abl":2616,"Ġdivis":2617,"Ġkm":2618,"Ġthings":2619,"Ġlarg":2620,"Ġsignificant":2621,"imate":2622,"ĠQuestion":2623,"agon":2624,"Ġdevelopment":2625,"Ġenvironment":2626,"Ġbody":2627,"ĠSince":2628,"Ġà¤":2629,"odes":2630,"è¡":2631,"ĠAt":2632,"ittle":2633,"}\")ĊĊ":2634,"{cm":2635,"Ġappe":2636,"Ġgoing":2637,"rime":2638,"etic":2639,"dd":2640,"height":2641,"til":2642,"Ġdefault":2643,"\\end":2644,"ttp":2645,"ION":2646,"Ġavailable":2647,"Ġsaf":2648,"Ġmatch":2649,"ware":2650,"Ġevalu":2651,"implify":2652,"Ġpair":2653,"Ġalways":2654,"å®":2655,"Compute":2656,"Ġ$-":2657,"igure":2658,"ango":2659,"Ġshape":2660,"Ġfeet":2661,"ĠUse":2662,".âĢĿ":2663,",\"":2664,"Ġcalled":2665,"å¤":2666,"Ġ?":2667,"DE":2668,"Ġdf":2669,"Ġtable":2670,"\"{":2671,"lease":2672,"ĠPer":2673,"-st":2674,"ording":2675,"uck":2676,"jor":2677,"Ġconditions":2678,"False":2679,"Ġhome":2680,"Ġphys":2681,"peed":2682,"Ġflow":2683,"agement":2684,"stance":2685,"Ġmodels":2686,"action":2687,"Ġassum":2688,"ÐµÐ½":2689,"{v":2690,"delta":2691,"ĠCl":2692,"Ġobserv":2693,"Ġ[]Ċ":2694,"ĠBo":2695,"Ġoften":2696,"Ġge":2697,"Ġ``":2698,"ÏĢ":2699,"Ġkeep":2700,"Ġnegative":2701,"Ġcomplex":2702,"è¯":2703,"={":2704,"Ġgame":2705,"ser":2706,"Ġprovide":2707,"ĠEn":2708,"Ġlower":2709,"div":2710,"ators":2711,".b":2712,"ivalent":2713,"ĠSolve":2714,"pose":2715,"List":2716,"ags":2717,"âĤ":2718,"values":2719,"Ġabove":2720,"_type":2721,"Ġ>=":2722,"Ġwords":2723,"oles":2724,"org":2725,"Ġlearn":2726,"unc":2727,"uture":2728,"Ġwhether":2729,"_num":2730,"Ġask":2731,"Ġeng":2732,"floor":2733,"Ġrest":2734,"alle":2735,"ended":2736,"rack":2737,"Ġinclude":2738,"ĠÑģ":2739,".e":2740,"_test":2741,".h":2742,")$,":2743,"with":2744,"-l":2745,"Ġtriangle":2746,"Ġfeel":2747,"tical":2748,"Ġmaterial":2749,"ones":2750,"rho":2751,"}$.ĊĊ":2752,"yg":2753,"\":Ċ":2754,"ml":2755,"Ġblock":2756,"_max":2757,"Ġpopulation":2758,"ĠLe":2759,"\"]":2760,"ivity":2761,"iversity":2762,"Ġsomething":2763,"Ġ{Ċ":2764,"olor":2765,"thing":2766,"Ġexpress":2767,"çĶ¨":2768,"Ġlik":2769,"AM":2770,"oriz":2771,"depend":2772,"\"S":2773,"|Ċ":2774,"ĠComm":2775,"orem":2776,"As":2777,"Ġinches":2778,"ait":2779,"tract":2780,"{F":2781,"AS":2782,"ected":2783,"(k":2784,"Ġhuman":2785,"ĠEng":2786,"oney":2787,"ison":2788,"Ġmathemat":2789,"Ġshort":2790,"jango":2791,"Ġê":2792,"Ġlimit":2793,"Ġbeg":2794,"by":2795,"eleration":2796,"Ġmar":2797,"Ġret":2798,"ember":2799,"Ġrot":2800,"Ġfew":2801,"Ġagainst":2802,"user":2803,"fer":2804,"Wh":2805,"integ":2806,"Ġoptim":2807,"lu":2808,"Ġpotential":2809,"oot":2810,"Ġview":2811,"eterm":2812,"oad":2813,"ids":2814,"Ġput":2815,"Ġaut":2816,"aster":2817,"------------":2818,"ĠÐ¿":2819,"ĠTe":2820,"Ġstudent":2821,"Ġdegrees":2822,"Ġknown":2823,"Ġaccess":2824,"list":2825,"ler":2826,"Ġsw":2827,"(v":2828,"ped":2829,"bability":2830,"Ġtraining":2831,"Ġrequire":2832,")**":2833,"Ġdirection":2834,"Ġquadr":2835,"åĩ":2836,"ĠLet":2837,"ĠPh":2838,"Ġcy":2839,"ĠOptional":2840,"Ġpo":2841,"_j":2842,"Ġgrad":2843,"rist":2844,"Ġmot":2845,"Ġproperty":2846,":\",":2847,"\"A":2848,"Ġleg":2849,"icle":2850,"press":2851,"ĠThus":2852,"anguage":2853,"Ġalpha":2854,"Ġsocial":2855,"Ġmen":2856,"ession":2857,"ĠAll":2858,"lobal":2859,"my":2860,"(num":2861,"usion":2862,"_ratio":2863,"Ġinvest":2864,".set":2865,"ready":2866,"AB":2867,"Ġresponse":2868,"ĠGener":2869,"Ġneeded":2870,".execute":2871,"au":2872,"Ġdepend":2873,"Ġcontinu":2874,"Ġland":2875,"Ġreally":2876,"'re":2877,"Ġmis":2878,"RO":2879,"_result":2880,"Ġaccount":2881,"().":2882,"Ġtemperature":2883,"Ġalong":2884,"race":2885,"oms":2886,"centage":2887,"tan":2888,"comm":2889,"iply":2890,"Ġbro":2891,"Ġhouse":2892,"Ġ--":2893,"Ġsurface":2894,"file":2895,"Ġconsider":2896,"abilities":2897,"uff":2898,"Ġair":2899,"_com":2900,"Ġmaking":2901,"ĠTest":2902,"Ġcoefficient":2903,"Ġhalf":2904,"Ð¿":2905,"Ġæ":2906,"âĢ¦":2907,"Ġ'''":2908,"Ġdone":2909,"Ġ$[":2910,"Ġeas":2911,"rate":2912,".\"":2913,"orizon":2914,"olving":2915,"ĠThese":2916,"uments":2917,"}}{\\":2918,"Ġdem":2919,"Ġfamily":2920,"sec":2921,"Ġevent":2922,"ores":2923,"axis":2924,"iding":2925,"abs":2926,"ĠUS":2927,"How":2928,"Ġvoltage":2929,"ocus":2930,"Ġcome":2931,"Ġcontext":2932,"Ġlittle":2933,"Ġmeet":2934,"aring":2935,"\"M":2936,"format":2937,"icy":2938,"-h":2939,"Ġbehav":2940,"ĠHowever":2941,"monstr":2942,".\")Ċ":2943,"Ġhapp":2944,"Ġred":2945,"back":2946,"ted":2947,"Ġstates":2948,"ream":2949,"tern":2950,"Ġacross":2951,"Ð¾Ð²":2952,"ĠÐ²":2953,"Ġcannot":2954,"Field":2955,"aper":2956,"ibility":2957,"plied":2958,"year":2959,"ĠCO":2960,"ertain":2961,"_file":2962,"Ġscore":2963,"Ġgraph":2964,"position":2965,"ĠUsing":2966,"rade":2967,"ails":2968,"ury":2969,"lected":2970,"(i":2971,"_cost":2972,"Ġapproach":2973,"Ġareas":2974,"æĺ¯":2975,"Ġfore":2976,"len":2977,"Ġintegral":2978,"Ġconsist":2979,"Ġfollows":2980,"Ġnever":2981,"#Ċ":2982,"igen":2983,"{-":2984,"ules":2985,"Ġrespect":2986,"itor":2987,"Ġpatter":2988,"side":2989,"Ġcommunity":2990,"Ġrule":2991,"Ġbi":2992,"Ġdensity":2993,"\"R":2994,"Ġstop":2995,"Ġdoesn":2996,"ogn":2997,"Ġcenter":2998,"Ġben":2999,"Ġdemonstr":3000,"Ġequals":3001,"åº":3002,"Ġut":3003,"Verification":3004,"ename":3005,"Ġ['":3006,"ĠException":3007,"yle":3008,"object":3009,"Ġgives":3010,"Ġmoment":3011,"Ġderivative":3012,"Ã©":3013,"]:":3014,"Ġplaces":3015,"data":3016,"'m":3017,"ictionary":3018,"nces":3019,"Ġlines":3020,"Ġfree":3021,"ĠMan":3022,"arameter":3023,"UR":3024,"Ġuntil":3025,"pecial":3026,"Ġteacher":3027,"ceed":3028,"Ġ(?":3029,"_factor":3030,"Ġneeds":3031,"(z":3032,"Ġwhole":3033,")\",Ċ":3034,"Ġcross":3035,"ailed":3036,"Ġcub":3037,"rea":3038,"Ġintern":3039,"image":3040,"Ġalready":3041,"Ġuses":3042,"Ġable":3043,"hs":3044,"Al":3045,"ĠOn":3046,"Ġnear":3047,"Ġ...":3048,"arth":3049,"ils":3050,"Ð¹":3051,"ĠAss":3052,"\\n":3053,"Ġ&=":3054,"_point":3055,"Ġcircle":3056,"Ġparticular":3057,"{kg":3058,"grid":3059,"Ġfac":3060,"Ġvariables":3061,"alt":3062,"{S":3063,"Ġdefinition":3064,"Ġconfig":3065,"Ġperm":3066,",\\!":3067,"root":3068,"sp":3069,"_of":3070,"ze":3071,"dx":3072,"$:Ċ":3073,"{E":3074,"Ġque":3075,"Ġhigher":3076,"Ġaxis":3077,"pth":3078,"Ġtre":3079,"Ġresearch":3080,"ably":3081,"Ġscal":3082,".re":3083,"Ġweek":3084,"ping":3085,".x":3086,"yd":3087,"Ġscale":3088,"Ġvers":3089,"Ġgive":3090,"Ġdescrib":3091,".D":3092,"{L":3093,"por":3094,"Ġitem":3095,"Ġeducation":3096,"pri":3097,"eros":3098,"')ĊĊ":3099,"tes":3100,"Â³":3101,"duc":3102,"gamma":3103,"Ġcourse":3104,"Ġrad":3105,"ĠâĢĶ":3106,"etime":3107,"Ġnatural":3108,"Ġsympy":3109,"ox":3110,"Ġquant":3111,"lower":3112,"(input":3113,"ĠBe":3114,"Ġbelow":3115,"Ġcapac":3116,"OT":3117,"Ġdoc":3118,"\"\"\"ĊĊ":3119,"Ġdev":3120,"ithm":3121,"Ġ(?,":3122,"Ġhard":3123,"ĠGod":3124,"Ġpressure":3125,"olar":3126,"Omega":3127,"ĠFr":3128,"resents":3129,"ĠFirst":3130,"Ġapproximately":3131,"])ĊĊ":3132,"cript":3133,".org":3134,"Ġderived":3135,"å°":3136,"come":3137,"Ġ?)\",Ċ":3138,"olute":3139,"Ġequations":3140,"leg":3141,"dt":3142,"Ġdelta":3143,"ystem":3144,"Ġmultiple":3145,"ological":3146,"Ġcomb":3147,"_index":3148,"ĠShe":3149,"'(":3150,"Ġeconom":3151,"orizontal":3152,"Ġcult":3153,"Ġtrain":3154,"You":3155,"}:":3156,"Ġpri":3157,"Ġothers":3158,"Ġdataset":3159,"ëĭ":3160,"ai":3161,"Ġ\\)":3162,"Ġrequires":3163,"iddle":3164,"{a":3165,"{g":3166,".log":3167,"Ġmeasure":3168,"Ġremain":3169,"rightarrow":3170,"loc":3171,"inct":3172,"Ġaddress":3173,"æĪ":3174,"size":3175,"Ġformat":3176,"ĠNumber":3177,"ÑģÑĤ":3178,"Ġcontains":3179,"Ġwin":3180,"gree":3181,"{pmatrix":3182,"Ġnecess":3183,"Ġsimilar":3184,"Ġsepar":3185,"Ġgovernment":3186,"ING":3187,"ï¼ļ":3188,"Convert":3189,"$ĊĊ":3190,"Ġsays":3191,"Ġmus":3192,"Ġclear":3193,"Ġfri":3194,"Ġprom":3195,"Ġbal":3196,"\\begin":3197,"Ġquestions":3198,"Ġfar":3199,"Ġyoung":3200,"âĪ":3201,"ET":3202,"Ġtransform":3203,"Ġgroups":3204,"\"P":3205,"ging":3206,"Ð·":3207,"Ġach":3208,"aken":3209,"Ġapply":3210,".shape":3211,"(data":3212,"Ġcoordinates":3213,"box":3214,"No":3215,"_P":3216,"Ġfunctions":3217,"Ġ\\{":3218,"ĠThen":3219,"Ġrisk":3220,"Ġprec":3221,"ameter":3222,"Ġgrowth":3223,"Ġactual":3224,"Ġlot":3225,"ledge":3226,"orld":3227,"_sh":3228,"Ġsorted":3229,"Ġprime":3230,"allel":3231,"ĠCent":3232,"ED":3233,"ograph":3234,"Ġdoub":3235,"lood":3236,"ĠQu":3237,"Th":3238,"Ġ{'":3239,"åĽ":3240,"Ġbecome":3241,"fit":3242,"Ġaction":3243,"Ġsource":3244,"arc":3245,"align":3246,"IS":3247,"-m":3248,"UT":3249,"new":3250,"Ġmessage":3251,"ĠMin":3252,"return":3253,"{H":3254,"Ġsymbols":3255,"ĠInitial":3256,"Ġport":3257,"stitution":3258,"osition":3259,"Ġspecial":3260,"reshold":3261,"exp":3262,"Ġwomen":3263,"Ġfuture":3264,"ĠâĢĺ":3265,"-based":3266,"-p":3267,"Un":3268,"reen":3269,"Ġcountry":3270,"omain":3271,"veral":3272,"Ġcontinue":3273,"Ġmajor":3274,"/h":3275,"=None":3276,"Ġsure":3277,"gether":3278,"Ġtogether":3279,"plies":3280,"Ġdate":3281,"Ġid":3282,"Ġparticip":3283,"main":3284,"Ġcaus":3285,"uro":3286,"\".":3287,"Ġcustom":3288,"implified":3289,"********":3290,"Ġtax":3291,"Ġworking":3292,"è®":3293,".py":3294,"Ġmaint":3295,"Ġtor":3296,"www":3297,"Ġproblems":3298,"CT":3299,"ĠTr":3300,"Ġgot":3301,"ĠShow":3302,"cription":3303,"Ġtreat":3304,"cd":3305,"Ġmiles":3306,"Ġ\"\"\"ĊĊ":3307,"uary":3308,"epsilon":3309,"But":3310,"Ġcontent":3311,"Ġbusiness":3312,"ypot":3313,"Ġbit":3314,"ĠCreate":3315,"Ġpat":3316,"Ġchanges":3317,"aff":3318,"Ġrect":3319,"_T":3320,"urther":3321,"Ġtree":3322,"Ġcomputed":3323,"Ġcontain":3324,"Ġoption":3325,"Ġsent":3326,"Im":3327,"ĠAny":3328,")^{":3329,"Substitute":3330,"mail":3331,"ush":3332,"izes":3333,"_prime":3334,"off":3335,"}.Ċ":3336,"Ġcritical":3337,"tau":3338,"*(":3339,"Ġeither":3340,"Ġeffic":3341,"book":3342,"hel":3343,"ination":3344,"ĠFe":3345,"dependent":3346,"rict":3347,"Ġdraw":3348,"Ġcombin":3349,"Ġanalysis":3350,"AP":3351,";Ċ":3352,"Ġcorrespon":3353,".__":3354,"Ġconsum":3355,"Ġ,":3356,"\"C":3357,"\"D":3358,"width":3359,"Ġimpact":3360,"_total":3361,"aste":3362,"Ġbig":3363,"Ġinstr":3364,"ĠWith":3365,"Ġsimple":3366,"lement":3367,"Ġdevi":3368,"Ġaway":3369,"une":3370,"ĠApply":3371,"_S":3372,"Ġsugg":3373,"ina":3374,"ribute":3375,"Re":3376,"(st":3377,"Ġbool":3378,"Ġstrateg":3379,"no":3380,"Ġfocus":3381,"ometric":3382,"tml":3383,"empt":3384,"Ġrespons":3385,"Ġfactors":3386,"ope":3387,"test":3388,"izer":3389,"Ġaffect":3390,"(e":3391,"Ġcateg":3392,"icro":3393,"Ġannual":3394,"Ġnumerator":3395,"II":3396,"Ġstructure":3397,",âĢĿ":3398,"aut":3399,"Ġð":3400,"_z":3401,"_area":3402,"Ġemploy":3403,"Ġjob":3404,"section":3405,"Ġbenef":3406,"ĠThat":3407,"hi":3408,"Ġmillion":3409,"HE":3410,"ifies":3411,"Ġmarket":3412,"bit":3413,"Ġdigits":3414,"Ġreason":3415,"Ap":3416,"gor":3417,"Ġdisplay":3418,"{B":3419,"Ġvia":3420,"Ġcases":3421,"'ll":3422,"ohn":3423,"etermine":3424,"Ġequivalent":3425,"ĠStud":3426,"Ġreturns":3427,"ilit":3428,"ram":3429,"ĠSchool":3430,"Ġdigit":3431,"ighb":3432,"ĠChrist":3433,"Res":3434,"ĠSp":3435,"Ġassoci":3436,"instance":3437,"oding":3438,"Ġframe":3439,"Val":3440,"(\"\\":3441,"ĠÂ":3442,"ynomial":3443,"Ġant":3444,".\"ĊĊ":3445,"Ġrepresents":3446,"lib":3447,"Ġmatches":3448,"ĠAct":3449,"Ġexactly":3450,"join":3451,"Ġmoney":3452,"Ġhaving":3453,"ĠNot":3454,"elling":3455,"ley":3456,"Ġmm":3457,"Ġmembers":3458,"Ġseveral":3459,"Ġproport":3460,"Ġamong":3461,"{r":3462,"Ġfall":3463,".ĊĊĊ":3464,"Ġsolutions":3465,"ĠCont":3466,"aily":3467,"CO":3468,"Ġworks":3469,"most":3470,"atrix":3471,"ians":3472,"aim":3473,"åĬ":3474,"Ġbox":3475,"ND":3476,"âĢľ":3477,"Ġexperience":3478,"ĠAmerican":3479,"now":3480,"Ġpie":3481,"Ġmonths":3482,"iency":3483,"Ġcomponents":3484,"den":3485,"Ġcertain":3486,"Ġbegin":3487,"Ġempty":3488,"aries":3489,"ĠDo":3490,"Ġslope":3491,"ĠBy":3492,"Ġparts":3493,"ising":3494,"ĠCan":3495,"original":3496,"ĠState":3497,"ENT":3498,"ols":3499,"ĠTime":3500,"ĠSet":3501,"path":3502,"Ġsearch":3503,"Ġcomplete":3504,"portun":3505,"Ġconstraint":3506,"Ġplayer":3507,"icult":3508,"(g":3509,"adius":3510,"mathcal":3511,"Ġteam":3512,"Ġetc":3513,"clud":3514,"atives":3515,"ä¸º":3516,"Ġprim":3517,"Ġoperations":3518,"_D":3519,"Ġtheta":3520,"ĠSc":3521,"(h":3522,"Ġinstance":3523,".sin":3524,"Ġdecre":3525,"/(":3526,"gress":3527,"Ġtw":3528,"Ġmethods":3529,"Ġmakes":3530,"]]":3531,"ĠData":3532,"Ġdivision":3533,"https":3534,"Ġlater":3535,"(theta":3536,"Ġ)Ċ":3537,"Ġgrid":3538,"éĩ":3539,"eff":3540,"_train":3541,"psilon":3542,"Ġproper":3543,"label":3544,"Ġhom":3545,"placement":3546,"ref":3547,"ctor":3548,"Ġunique":3549,"board":3550,"Ġwon":3551,"ips":3552,"apt":3553,"[-":3554,"Ġsubject":3555,"ĠForm":3556,"ĠGr":3557,".nd":3558,"Ġpage":3559,"Ġresistance":3560,"Ġways":3561,"!ĊĊ":3562,"lev":3563,"}(\\":3564,"sv":3565,"Ġiter":3566,"å¼":3567,"AD":3568,"Ġsec":3569,"Ġenough":3570,"ĠMay":3571,"wards":3572,"ication":3573,"æī":3574,"Ġparameter":3575,"ĠSum":3576,"aves":3577,"=(":3578,"ĠOne":3579,"Ġlikely":3580,"Ġmap":3581,"Ġprevious":3582,"Ġoccur":3583,"fect":3584,"eries":3585,"aged":3586,"Ġremaining":3587,"_price":3588,"rices":3589,"IM":3590,"osp":3591,"æł":3592,"ottom":3593,"_un":3594,"$-":3595,"bl":3596,"apping":3597,"rimin":3598,"ĠFind":3599,"default":3600,".plot":3601,"izing":3602,"nder":3603,"Ġsin":3604,"Ġwindow":3605,"Ġtypes":3606,"neq":3607,"(len":3608,"since":3609,"Ġgen":3610,"ulti":3611,"urity":3612,"%Ċ":3613,"Ġpast":3614,"roll":3615,"irl":3616,"rap":3617,"Ġlanguage":3618,"åĢ":3619,"ĠUniversity":3620,"rm":3621,"astic":3622,"Ġnames":3623,"Step":3624,"Ġshows":3625,"Ġseg":3626,"Ġsatisfies":3627,"ĠPython":3628,"ister":3629,"Ġonce":3630,"Ġfeatures":3631,"Ġyield":3632,".T":3633,"=False":3634,"Ġimprove":3635,"_co":3636,"':Ċ":3637,"Ð³":3638,"ĠBl":3639,"Ġbinary":3640,"Ġheat":3641,"{D":3642,"Ġtf":3643,"Therefore":3644,"Ġface":3645,"encies":3646,"When":3647,"[int":3648,"_L":3649,"po":3650,"Ġcos":3651,"Ġboard":3652,"uel":3653,"uted":3654,"Ġ${":3655,"urt":3656,"Ġthing":3657,"ibr":3658,"Ġservice":3659,"enn":3660,"wargs":3661,"Ġtuple":3662,"ĠEarth":3663,"Ġconc":3664,"PI":3665,"rs":3666,"{align":3667,"Ġstatement":3668,"Ġshare":3669,"Ġregular":3670,"|\\":3671,"inci":3672,"gy":3673,"\\right":3674,"ĠAfter":3675,"ried":3676,"Ġidentity":3677,"'ve":3678,"aching":3679,"mid":3680,"posed":3681,"Ġplot":3682,"Ġearly":3683,"Ġbar":3684,"{cases":3685,"Ġacceleration":3686,"ĠDis":3687,"Ġcommand":3688,"Ġstrong":3689,"Ġactivities":3690,"Frame":3691,"Ġrelative":3692,"Ġphysical":3693,"olumn":3694,"_new":3695,"Ġquadratic":3696,"ump":3697,"Ġ..":3698,"sel":3699,"Ġsqrt":3700,"Time":3701,"Ġclean":3702,"Ġloop":3703,"item":3704,"Ġ|ĊĊ":3705,"Ġaccept":3706,",y":3707,"leep":3708,"ĠEm":3709,"Ġintegers":3710,"ĠAdd":3711,"hood":3712,"(np":3713,"$),":3714,"Ġprofit":3715,"Ġadjust":3716,"Ġproduction":3717,"venue":3718,"Ġoptions":3719,"Ġhistory":3720,"åľ":3721,"fully":3722,"','":3723,"Ã£":3724,".is":3725,"Ġsystems":3726,"aced":3727,"oper":3728,"ä¸Ń":3729,"ĠCol":3730,"Ġí":3731,"Ġsuper":3732,"Ġcity":3733,"ĠAB":3734,"Ġwrite":3735,"Or":3736,"argin":3737,"Ġmid":3738,"Ġmathematical":3739,"Ġmode":3740,"items":3741,"ache":3742,"Ġdiscuss":3743,"level":3744,"irt":3745,"Ġdistinct":3746,"Ġcoll":3747,"UL":3748,"Ġhour":3749,"imeter":3750,"ĠSup":3751,"Ġcut":3752,"Ġlevels":3753,"Ġey":3754,"Ġentire":3755,"cale":3756,"Ġkind":3757,"Ã¡":3758,"hest":3759,"Ġsuggest":3760,"Ġdict":3761,"_rad":3762,"ĠPart":3763,"_for":3764,"Ġtrad":3765,"Ġ$)":3766,"åŃĹ":3767,"ariance":3768,"Ġmodule":3769,"itch":3770,"Ġitems":3771,"Ġpd":3772,"Ġnorm":3773,"Ġopportun":3774,"olved":3775,"Cl":3776,"AG":3777,"Ġblack":3778,".con":3779,"{y":3780,":`":3781,"ÑĢÐ°Ð¼":3782,")\")Ċ":3783,"Ġvariance":3784,"\"),Ċ":3785,"_error":3786,".M":3787,"ving":3788,"urch":3789,"ĠPre":3790,"_dict":3791,"Ġvarious":3792,"plain":3793,"binom":3794,"ension":3795,"selves":3796,"Ġtyping":3797,"request":3798,"Ġdise":3799,"ook":3800,"iate":3801,"though":3802,"Ġensure":3803,"Ġtalk":3804,"ĠÐº":3805,".path":3806,"Ġglobal":3807,"ourn":3808,"\"F":3809,"itted":3810,"Ġinstead":3811,"mber":3812,"Ġapp":3813,"ĠReg":3814,"IL":3815,"(w":3816,"Ġball":3817,"Ġmagnitude":3818,"Ġbecomes":3819,"Ġ('":3820,"Ġappropri":3821,"He":3822,"Ġindust":3823,"ipal":3824,"\\r":3825,"Ġsatisfy":3826,"iew":3827,"oretical":3828,"cm":3829,"lor":3830,"ening":3831,"bed":3832,"Ġestim":3833,"ĠDes":3834,"'.":3835,"aches":3836,"eh":3837,"Ġservices":3838,"ĠSubstit":3839,"igns":3840,"reg":3841,"Ġadditional":3842,"ĠDr":3843,"Ġft":3844,".exp":3845,"Ġexplain":3846,"Ġlat":3847,"]$":3848,"Ġparents":3849,"Ġcreated":3850,"Ġthird":3851,"li":3852,"Ġpolit":3853,".ndarray":3854,"ender":3855,"Ġupper":3856,"Ġpack":3857,"augh":3858,"æĹ":3859,"Ġground":3860,"initial":3861,"Ġaccur":3862,"light":3863,"Ġedge":3864,"Ġdirectly":3865,"Ġoperation":3866,"lish":3867,"agonal":3868,"ĠCounty":3869,"Ġ[\"":3870,"utive":3871,"Ġcompany":3872,"Ġmu":3873,"ief":3874,"Ġnums":3875,"è¾":3876,"Ġsigma":3877,"Ġbin":3878,"^n":3879,"ĠEduc":3880,"Ġactually":3881,"**ĊĊ":3882,"Ġfre":3883,"ymbols":3884,"iform":3885,"Ġregion":3886,"CD":3887,"Ġcontaining":3888,"cap":3889,"ĠEqu":3890,"Ġprovides":3891,"{f":3892,"}%":3893,"Ġrecord":3894,"Ġrecent":3895,"Ġrather":3896,"Ġisinstance":3897,"Ġholds":3898,"Ġpattern":3899,"(B":3900,"anced":3901,"pret":3902,"ulate":3903,"ĠDep":3904,"Ġbir":3905,"Ġprevent":3906,"Ġgreater":3907,"ĠÏ":3908,"ĊĊĊĊ":3909,"ĠMon":3910,"bra":3911,"ken":3912,"Ġbeta":3913,"nc":3914,"Ġhold":3915,"reng":3916,"quare":3917,"Ġresources":3918,"Ġcou":3919,"avor":3920,"ç¬":3921,"Ġfixed":3922,"ĠType":3923,"Ġlin":3924,"Ġcomponent":3925,"Ġupon":3926,"Ġanaly":3927,"}_{\\":3928,"uation":3929,"Ġclose":3930,"ÑĢÐ°Ð¼Ð¼":3931,"Ġdifficult":3932,"Ġess":3933,"Ð½Ñĭ":3934,"ĠIN":3935,"ĠUnited":3936,"Ġimplement":3937,"Ġauthor":3938,"Ġtheorem":3939,")čĊčĊ":3940,"Ġseen":3941,"}$$":3942,"cles":3943,"Ġexc":3944,"Ġspecies":3945,"plicit":3946,"-in":3947,".cos":3948,"Ġfive":3949,".čĊ":3950,"count":3951,"ä¸Ģä¸ª":3952,"ĠFrom":3953,"ethod":3954,"ĠGe":3955,"ently":3956,"Ġ{}":3957,")]":3958,"Ġestabl":3959,"Ġkil":3960,"Ġdrop":3961,"å¯":3962,"Ġplant":3963,"Ġstory":3964,"dec":3965,"Ġcolle":3966,"sc":3967,"ĠCar":3968,"Ġtell":3969,"sub":3970,"())Ċ":3971,"Ġknowledge":3972,"Ġforward":3973,"Ġdeviation":3974,"Ġcoefficients":3975,"ĠSim":3976,"Ġcompar":3977,"ened":3978,"Ġpers":3979,"rodu":3980,"Ġtoday":3981,"Ġdictionary":3982,"Ġexec":3983,"ideo":3984,"Ġtakes":3985,"Act":3986,"oice":3987,"Ġtaken":3988,"Ġbehavior":3989,"ĠAg":3990,"psi":3991,"me":3992,"Ġreading":3993,"ada":3994,"Solve":3995,"atus":3996,"Ġcolumns":3997,"na":3998,"Ġdest":3999,"Ġpolynomial":4000,"conds":4001,"earch":4002,"æľī":4003,"ĠPr":4004,"ners":4005,"Ġphot":4006,"Ġcorresponding":4007,"_term":4008,"Ġbuilding":4009,"Ġtim":4010,"ĠDict":4011,"_deg":4012,"abase":4013,"Ġnecessary":4014,"US":4015,"Ġcause":4016,"Ġcup":4017,"éĢ":4018,"Ġill":4019,"metic":4020,"vey":4021,"Ġapplication":4022,"(N":4023,"eth":4024,"Ġskills":4025,"Ġlink":4026,"Ġeffective":4027,"otes":4028,"emp":4029,"{T":4030,"ÐµÑĤ":4031,"ifference":4032,"Ġfurther":4033,"ĠComp":4034,"Ġhorizontal":4035,"cular":4036,"lation":4037,"Ġcard":4038,"Ġproducts":4039,"Ġprior":4040,"ectors":4041,"Ġsys":4042,"Ġincreases":4043,"|---":4044,"oman":4045,"ado":4046,"ha":4047,"Ġmanagement":4048,"Ġangles":4049,"Ġavoid":4050,"istics":4051,"ĠÐ½":4052,"ìĹ":4053,"Ġcame":4054,"aging":4055,"Ġwhite":4056,"Ġquality":4057,"Ġdeb":4058,"iment":4059,"ĠMed":4060,"Ġflu":4061,"Ġfiles":4062,"urb":4063,"ĠSolution":4064,"Ġrelated":4065,"ĠTuple":4066,"Ġgas":4067,"-to":4068,"OL":4069,"Ġeff":4070,"By":4071,"ä¹":4072,"err":4073,"ference":4074,"Ġradians":4075,"Ġsett":4076,"(str":4077,"iqu":4078,".symbols":4079,"Ð°Ð½":4080,"æ³":4081,"Ġindependent":4082,"ĠNational":4083,"Ð¾Ð»":4084,"EL":4085,"ĠPlan":4086,"ĠRa":4087,"_\\":4088,"Node":4089,"Ġapproximation":4090,".in":4091,"Ġfund":4092,"Ġviol":4093,"Ġissues":4094,"ager":4095,"-n":4096,"atory":4097,"}$:":4098,"Ġprinci":4099,"OD":4100,"ithmetic":4101,"eq":4102,"Ġsignal":4103,"Ġrows":4104,"ully":4105,"Ġobjects":4106,"andid":4107,"uly":4108,"ĠLaw":4109,"ĠJan":4110,"Ġhypot":4111,"Ġlove":4112,"lete":4113,"Ġassert":4114,"_input":4115,"Ġnetwork":4116,"Ġalgor":4117,"ĠInput":4118,".sub":4119,"Ġthought":4120,"dered":4121,"col":4122,"ĠAm":4123,"Ġdepth":4124,"pecially":4125,"ifier":4126,"ario":4127,")]Ċ":4128,"ÑĪ":4129,"Ġwar":4130,"istor":4131,"({":4132,"ĠTrans":4133,"Ġchall":4134,"Ġcapacity":4135,"ĠMy":4136,"ìĿ´":4137,"Sh":4138,"Ġcosts":4139,"orted":4140,"_dir":4141,"ocal":4142,"Ġrecogn":4143,"_number":4144,"Ġsem":4145,"imals":4146,"Ġlayer":4147,"Ð±":4148,"Ġdoing":4149,"Ġrepresentation":4150,"ube":4151,"Ġcharge":4152,"Ġdam":4153,"åĮ":4154,"Ġexists":4155,"-------":4156,".random":4157,"Ġsci":4158,"Ġversion":4159,"Ĥ¹":4160,"At":4161,"Name":4162,"oring":4163,"Ġlarger":4164,"ĠNe":4165,"Ġspecified":4166,"uild":4167,"^{\\":4168,"Ð¾Ð´":4169,"andard":4170,".title":4171,"Ġassign":4172,"aximum":4173,"Ġconnect":4174,"nown":4175,"Ġconcept":4176,"Ġlive":4177,"Ġpractice":4178,"ervation":4179,"ãģ®":4180,"Ġassess":4181,"ociety":4182,"IV":4183,"Ġps":4184,"Ġrole":4185,"chan":4186,"Ġproperties":4187,"Ġmor":4188,"rown":4189,"osed":4190,"rie":4191,"Ġgrav":4192,"âĢ¢":4193,"raft":4194,"ĠJohn":4195,"arts":4196,"Ġitself":4197,"grad":4198,"ĠStates":4199,"Ġ((":4200,"Ġappropriate":4201,"æį":4202,"Ġroots":4203,"Ġfeed":4204,"Ġsave":4205,"-\\":4206,"ript":4207,"Ġfig":4208,"riter":4209,"Ġclaim":4210,"ĠClass":4211,".C":4212,"Ã³":4213,"Ġaccording":4214,"eral":4215,"-w":4216,"ober":4217,"Ġreduce":4218,"ĠDirect":4219,"Ġdimensions":4220,"Ġ({":4221,"Ġminim":4222,"ĠUp":4223,"ĠUs":4224,"Ġscript":4225,"Ġcir":4226,"Ġstarting":4227,"Ġmeaning":4228,")*":4229,"Ġobt":4230,"Ġdoll":4231,"**.ĊĊ":4232,"incipal":4233,"Ġscient":4234,"Ġrev":4235,"Ġsix":4236,"_score":4237,"ites":4238,"{t":4239,"Ġdiameter":4240,"expected":4241,"Ġrecomm":4242,"Ġpriv":4243,"Ġregard":4244,"Ġevents":4245,"struct":4246,"bre":4247,"Ġincludes":4248,"Out":4249,"ii":4250,"ĠAf":4251,"Ġstre":4252,"ê°":4253,"And":4254,"Ñħ":4255,"_by":4256,"Ġreview":4257,"Ġeffort":4258,"_th":4259,"minist":4260,"Solving":4261,"Ġ\"\"":4262,"Ġever":4263,"Ġincreasing":4264,"rand":4265,"Ġstatus":4266,"{J":4267,"ÂłÂłÂłÂł":4268,"Ġsal":4269,"oph":4270,"ĠMe":4271,")}Ċ":4272,"ÐµÑĢ":4273,"Ġlay":4274,"Now":4275,"'ĊĊ":4276,"_form":4277,"ops":4278,"_fe":4279,"Not":4280,"æŀ":4281,"ung":4282,"Ġadded":4283,"Ġinequ":4284,".show":4285,"Ġdidn":4286,"è¡¨":4287,"]:ĊĊĊ":4288,"igit":4289,"Ġabsolute":4290,"ĠAcc":4291,"ĠOp":4292,"Ġsimplified":4293,"aid":4294,"ĠPar":4295,"Ġcontact":4296,"Ġhar":4297,"aly":4298,"ĠSub":4299,"Ġfeature":4300,"EM":4301,"Ġweights":4302,"ĠPol":4303,"_M":4304,"Ġneighb":4305,"à¤¾":4306,"IR":4307,".\\":4308,"ä¸į":4309,"(S":4310,"room":4311,")':":4312,"}}Ċ":4313,"Ġconduct":4314,"Ġmind":4315,"Ġparallel":4316,"Ġç":4317,"Ġfamil":4318,"Ġ)ĊĊ":4319,"Ġwr":4320,"Ġexpect":4321,"Ġ'''Ċ":4322,"Ġsection":4323,"å½":4324,"(P":4325,"Ġinside":4326,"Ġidentify":4327,"Ġ[-":4328,"Ġyet":4329,"Ġconcent":4330,"_text":4331,"åį":4332,"plotlib":4333,"Ġoccurs":4334,"Ġfail":4335,"mp":4336,"Ġperformance":4337,"Ġchoice":4338,"Ġoptimal":4339,"Ġdeath":4340,"urope":4341,">Ċ":4342,"atively":4343,"sup":4344,"Ġconv":4345,"ĠGet":4346,"Ġdegree":4347,"Ġissue":4348,"Ġlabels":4349,"Ad":4350,"Ġstress":4351,"Ġpaper":4352,"eks":4353,"ĠRem":4354,"lex":4355,"Ġmissing":4356,"uler":4357,"{Total":4358,"Ġrules":4359,"_F":4360,"Ġvertical":4361,"_weight":4362,"With":4363,"Ġsymbol":4364,"output":4365,"Ġir":4366,"Ġoutside":4367,"Ġactivity":4368,"Ġodd":4369,"Ġroom":4370,"Ġtask":4371,"igin":4372,"\\}":4373,"ĠÐ¸":4374,"Ġtook":4375,"Ġverification":4376,"Ġclosed":4377,"Ġdt":4378,"Ġcharacters":4379,"mit":4380,"Ar":4381,"~~":4382,"Ġeigen":4383,"icial":4384,"ĠPoint":4385,"ble":4386,"_distance":4387,"Ġdocument":4388,"artment":4389,"era":4390,"ana":4391,"Ġlambda":4392,"è¡Į":4393,"_mass":4394,"posite":4395,"Ġ($\\":4396,".de":4397,"ĠCal":4398,"Ġexperi":4399,"Ġbill":4400,"Ġnote":4401,"Ġsense":4402,"Ġones":4403,"hol":4404,"Ġrepe":4405,"fraction":4406,"ĠEnglish":4407,"mic":4408,"ilter":4409,"Ġdy":4410,"_points":4411,"ĠGu":4412,"(T":4413,"kg":4414,"Ð°ÑĤ":4415,"Ġunderstanding":4416,"ãĢģ":4417,"undred":4418,"ĠServ":4419,"IG":4420,"Ġkin":4421,"start":4422,"Ð¾Ð³":4423,"eters":4424,"_height":4425,"bon":4426,"Ġdomain":4427,"ributes":4428,"ĠHealth":4429,"}{(":4430,"Ġderive":4431,"ynam":4432,"riminant":4433,"ĠÐ´":4434,"plate":4435,"Ġdemand":4436,"Ġperfect":4437,"Ġrunning":4438,"process":4439,"ĠComput":4440,"}/":4441,"Ġdaily":4442,"Ġsomeone":4443,"Ġargument":4444,"ground":4445,".name":4446,"Ġhowever":4447,"xt":4448,"force":4449,"adians":4450,"(u":4451,"img":4452,"ëĬ":4453,"Ġimages":4454,"Ġinverse":4455,"Ġsymmet":4456,"ĠSome":4457,"prob":4458,"flow":4459,"Ġfilter":4460,"anks":4461,"Ġmach":4462,"Ġimplementation":4463,"Ġ\"__":4464,"*}Ċ":4465,"Ġliter":4466,"Ġselect":4467,"Ġthemselves":4468,"ached":4469,"_the":4470,"PS":4471,"Ġelectric":4472,"ounded":4473,"Ġenumer":4474,"Ġespecially":4475,"Ġidea":4476,"Ð¾ÑĢ":4477,"Le":4478,"upper":4479,"ultiply":4480,"ernal":4481,"assert":4482,"asks":4483,"Ġscipy":4484,"Ġstaff":4485,"ĠInter":4486,"Ġce":4487,"ij":4488,"Ġpairs":4489,"**.":4490,"Ġstreng":4491,"ëĭ¤":4492,"mall":4493,"Ġtechnology":4494,"åĨ":4495,"Ġgetting":4496,"åĢ¼":4497,"Ġpersonal":4498,"Ġupdate":4499,"ama":4500,"ĠRep":4501,"Ġremov":4502,"_line":4503,"Ġbags":4504,"cret":4505,"åħ¥":4506,"åĪĹ":4507,"oes":4508,"idered":4509,"uf":4510,"{O":4511,"_inter":4512,"ancy":4513,"Ġseem":4514,"ildren":4515,"cel":4516,"Ġnational":4517,"Ġcells":4518,"ellow":4519,"Ġcv":4520,"{W":4521,"arams":4522,"Ġschools":4523,"Key":4524,"'''Ċ":4525,"Ġwritten":4526,"Ġsens":4527,"ĠST":4528,"Ġconsidered":4529,"Ġreference":4530,"Ġphase":4531,"udget":4532,"Ġcopy":4533,"Ġthreshold":4534,"\\l":4535,"abor":4536,"using":4537,"Ġconfidence":4538,"ÐµÐ»":4539,"Ġvertex":4540,"Ġgreen":4541,"Ġnight":4542,"Is":4543,"oo":4544,"Note":4545,"ìŀ":4546,"Ġsite":4547,"Ġarithmetic":4548,"Ġfit":4549,"Ġdimension":4550,"solution":4551,")):Ċ":4552,"cast":4553,"Simplify":4554,"Ġengine":4555,"{l":4556,"amed":4557,"Se":4558,"Ġconstruct":4559,"Ġgl":4560,"Ġtorch":4561,"åľ¨":4562,"uk":4563,"Ġwalk":4564,"Ġsets":4565,"Ġcountries":4566,"riangle":4567,"Ġusually":4568,"Ġinflu":4569,"CH":4570,"oud":4571,"Ġstack":4572,"Ã£o":4573,"xy":4574,".\")ĊĊ":4575,"Ġaltern":4576,"Ġ[[":4577,"(total":4578,"Ġcred":4579,"Ġcomes":4580,"rid":4581,"Ġè":4582,"Ġtaking":4583,"Ġwave":4584,"arest":4585,"eline":4586,"_N":4587,"gebra":4588,"plus":4589,"ĠAng":4590,"âĢĻre":4591,"Ġsav":4592,"Ġincome":4593,"Ġpolicy":4594,"Ġord":4595,"clusion":4596,"Ġvs":4597,"Ġbad":4598,"ran":4599,"{Z":4600,"ĠDetermine":4601,"ĠWorld":4602,"Ġbasis":4603,"Ġmetric":4604,"Ġachieve":4605,"åĩº":4606,"Ġbuilt":4607,"angular":4608,"oon":4609,"Ġroad":4610,"Ġ{\"":4611,"idden":4612,"Ġwent":4613,"Ġsales":4614,"Ġconver":4615,"Ġhttps":4616,"Ġbelieve":4617,"Ġsoft":4618,"Ġbatch":4619,"Ġcamp":4620,"å¾":4621,"_state":4622,"Ġemail":4623,"plications":4624,"-by":4625,"{h":4626,"Ġblood":4627,"ĠMar":4628,"Ġtitle":4629,"^*":4630,"Ġenumerate":4631,"\"Total":4632,"\"N":4633,"Pa":4634,"Ġeffects":4635,"ĠEach":4636,"Ġgirl":4637,"Ġincluded":4638,"erive":4639,"Ġcover":4640,"iting":4641,"Ġprograms":4642,".next":4643,"}[":4644,"valuate":4645,"Ġotherwise":4646,"Ġwall":4647,"Ġletter":4648,"}x":4649,"--Ċ":4650,"Ġquick":4651,"unk":4652,"angles":4653,"Ġforms":4654,"Ġadult":4655,"Ġinterv":4656,"-g":4657,"æĿ":4658,"_percent":4659,"rounded":4660,"Ġbalance":4661,"ĠEurope":4662,"rows":4663,"ios":4664,"ilib":4665,"Ġmatter":4666,"Ġplane":4667,"ĠRun":4668,"ĠCity":4669,"Ð¾ÑĤ":4670,"Ġsmaller":4671,"Ġlogger":4672,"ä»¥":4673,"rium":4674,".z":4675,"ĠID":4676,"UN":4677,"(),":4678,"tr":4679,"which":4680,"fficient":4681,"_date":4682,"Ġfront":4683,"ched":4684,"Ġdisease":4685,"ĠWest":4686,"cing":4687,"Ġshall":4688,"_equ":4689,"Pl":4690,"</":4691,"Ġanything":4692,"Ġpartial":4693,"Ġtra":4694,"Ġremains":4695,"Ġfields":4696,"Ġdeal":4697,"ilename":4698,"exact":4699,"Ġteachers":4700,"Ġexponent":4701,"ataset":4702,"ball":4703,"Ġevidence":4704,"unch":4705,"Set":4706,"Ġheart":4707,"Ġwriting":4708,"Ġassociated":4709,"Ġvertices":4710,"Ġapplied":4711,"ĠShould":4712,"ĠNote":4713,"Ġ[Ċ":4714,"[:,":4715,"Ġattack":4716,"ancial":4717,"Data":4718,"Ã§":4719,"Ġremainder":4720,"{in":4721,"ĠPath":4722,"åı¯":4723,"On":4724,"Ind":4725,"ports":4726,"_out":4727,"fort":4728,"Ġdu":4729,"_width":4730,"Ġrotation":4731,"ĠDec":4732,"Ġche":4733,"_pos":4734,"Equ":4735,"çĽ":4736,"sequ":4737,"Ġbasic":4738,"Ġguess":4739,"HS":4740,"xi":4741,"())":4742,"zz":4743,"Ġmemory":4744,"ĠPa":4745,"range":4746,"Ġappear":4747,"/mol":4748,"change":4749,"used":4750,"Ġshift":4751,"elt":4752,"vest":4753,"Ġexam":4754,"\"]Ċ":4755,"Ġsound":4756,"/d":4757,"ë¡":4758,"Ġaff":4759,"relation":4760,"Ġcircum":4761,"Ġ#Ċ":4762,"ĠEducation":4763,"Ġliving":4764,"Ġtreatment":4765,"ius":4766,"Actually":4767,"ëĬĶ":4768,"icular":4769,"tters":4770,"ĠExpress":4771,"Ġlonger":4772,"Ġinequality":4773,"Ġmatplotlib":4774,"Ġsex":4775,"Ġattempt":4776,"_at":4777,"Ġsimplify":4778,"_int":4779,"abels":4780,"ĠDiv":4781,"Ġdatetime":4782,"var":4783,"ĠRec":4784,"±»":4785,"ĠPe":4786,"_div":4787,"Right":4788,"ilibrium":4789,"ĠYear":4790,"ych":4791,"ÐºÐ¸":4792,"Īĺ":4793,"Ġdirectory":4794,"Ġalmost":4795,"oken":4796,"ulations":4797,"ĠAb":4798,"orks":4799,")$.":4800,"Ġpict":4801,"Ġalgorithm":4802,"ractions":4803,"Ġlooking":4804,"Ġconsistent":4805,"ivative":4806,"Ġtensor":4807,"_H":4808,"ĠMat":4809,"Ġsun":4810,"ffff":4811,"Ġmoving":4812,"Ġconfirming":4813,"Ġnature":4814,"Ġimm":4815,"Ġconfirms":4816,"_qu":4817,"airs":4818,"arter":4819,"_angle":4820,"(int":4821,"\\mathbf":4822,"ters":4823,"Ġarguments":4824,"|---|---":4825,"ĠRed":4826,"Ent":4827,"anger":4828,"_key":4829,"Ġneg":4830,"_valid":4831,"Ġsamples":4832,"ĠOF":4833,"oke":4834,"\",\"":4835,"Ġgenerate":4836,"([[":4837,"arser":4838,"pol":4839,"ishing":4840,"Ġincreased":4841,"Ġtradition":4842,"ĠAfric":4843,"kwargs":4844,"Ġreach":4845,"Ġbottom":4846,"otient":4847,"[n":4848,"_set":4849,"Then":4850,"Ġstore":4851,"From":4852,")$.ĊĊ":4853,"mar":4854,"gen":4855,"Ġgain":4856,"Ġpurch":4857,"Ġtravel":4858,"']Ċ":4859,"_from":4860,"Ġmusic":4861,"hib":4862,"æ³ķ":4863,"ĠAtt":4864,"icks":4865,"Ġindices":4866,"_idx":4867,"Ġmultiply":4868,"Ġmiddle":4869,"attr":4870,"Ġtrack":4871,"stitute":4872,"Ġpositions":4873,"ername":4874,":\")Ċ":4875,"ĠAssum":4876,")$$ĊĊ":4877,"_R":4878,"Ġnumerical":4879,"ĠSouth":4880,"ĠYork":4881,"Ġcarry":4882,"Ġign":4883,"æĸĩ":4884,"ĠNorth":4885,"Ġmaterials":4886,"ĠJust":4887,"RL":4888,"Ġcompet":4889,"pir":4890,".grid":4891,"icles":4892,"dated":4893,"Ġeconomic":4894,"MS":4895,"ĠSecond":4896,"Ġfriends":4897,"Ġpick":4898,"###":4899,"[j":4900,"ĠOct":4901,"Ġscreen":4902,".html":4903,"æİ":4904,"Ġdecl":4905,"Ġfoot":4906,"ĠRead":4907,"ë¥":4908,"ĠCommun":4909,"ĠRight":4910,"Ġlocation":4911,"CC":4912,"zero":4913,"ees":4914,"Ġrelation":4915,"Ġ$$\\":4916,"Ġvisual":4917,".L":4918,"ued":4919,"__\":Ċ":4920,"Ġ\\(\\":4921,"Ġvectors":4922,"{e":4923,"Ġmember":4924,"(D":4925,"Ġstarted":4926,"Ġindividuals":4927,"()čĊ":4928,"Ġdifferences":4929,"ponential":4930,"Ġstock":4931,"All":4932,"Ġchoose":4933,"]čĊ":4934,"equiv":4935,"ĠTherefore":4936,"ĠExplain":4937,"hold":4938,"quared":4939,"Ġexceed":4940,"Ġexpand":4941,"Ġnodes":4942,"Ġste":4943,"\\cos":4944,"che":4945,"ĠDE":4946,"_mean":4947,"Ġreduction":4948,"Ġproduce":4949,"ese":4950,"(C":4951,"_X":4952,"Ġefficiency":4953,"Ġshown":4954,"Ġsafety":4955,"ĠHis":4956,"Ġextrem":4957,"ernel":4958,"cience":4959,"Ġinterpret":4960,"Ġsplit":4961,"ĠSaf":4962,"Ġsafe":4963,"Ġaud":4964,"ĠArt":4965,"ustain":4966,"Ġproportion":4967,"ariable":4968,"Ġbring":4969,"Return":4970,"ensive":4971,"Ġ[(":4972,"-step":4973,"å®ļ":4974,"Ġyields":4975,"$):":4976,"ĠApr":4977,"\\,":4978,"-e":4979,"}ĊĊ":4980,"acter":4981,"energy":4982,"do":4983,"Ġbuy":4984,"Ġnothing":4985,"bose":4986,"ĠHere":4987,"ĠMr":4988,"down":4989,"ament":4990,"ĠWill":4991,"Ġerrors":4992,"ĠProgram":4993,"\\sin":4994,"Ġblue":4995,"ampl":4996,"Ġhy":4997,"sg":4998,"OC":4999,"acing":5000,"SS":5001,"Ġcycle":5002,"perty":5003,"Ġreverse":5004,"Ġstats":5005,"Ġasked":5006,"Ġseems":5007,"Ġactive":5008,"ĠIntern":5009,"Ġsquares":5010,"Ġresulting":5011,"ĠEd":5012,"Ġcontinuous":5013,"opt":5014,"Ġdeep":5015,"Ġimag":5016,"De":5017,"ĠOther":5018,"Ġprogress":5019,"Ġability":5020,".sum":5021,"Ġreceived":5022,"ä¼":5023,"di":5024,"}_{":5025,"_loss":5026,"ĠGo":5027,"=[":5028,"Ð¸ÑĤ":5029,"rast":5030,"ansion":5031,"avg":5032,"Ġtemp":5033,"isions":5034,"Ġclasses":5035,"Ġseed":5036,"Ġmotion":5037,"DF":5038,"Ġdecision":5039,"Ġsimply":5040,"\\_":5041,"joy":5042,"umul":5043,"Hz":5044,"æĸ¹":5045,"Ġremove":5046,"ĠMarch":5047,"mary":5048,"-year":5049,"Ġprep":5050,"Ġsubs":5051,"_vals":5052,"/\\":5053,"ĠDist":5054,"Ġarticle":5055,"Ġhttp":5056,"ae":5057,"Ġcomputer":5058,"wers":5059,"ged":5060,"Ġincorrect":5061,".P":5062,"ìĦ":5063,"Ġpounds":5064,"Ġonline":5065,"Ġtesting":5066,"ÑĨ":5067,"hern":5068,"arily":5069,"Ġbooks":5070,"Ġcompared":5071,"Ġsegment":5072,"å¯¹":5073,"Ġdeveloped":5074,"rest":5075,"æĢ":5076,"{G":5077,"hesis":5078,"Ġtransfer":5079,"_year":5080,"Ġnut":5081,"Ġconnected":5082,"Ġdetermined":5083,"Ġcentral":5084,"Ġoptional":5085,"ç´":5086,"Ġdog":5087,"_cont":5088,"Ġleading":5089,"Ġmechan":5090,"Ġprobably":5091,"æĹ¶":5092,"issions":5093,"Ġgeometric":5094,"Ġmultiplication":5095,"Ġobserved":5096,"_class":5097,"Ġencour":5098,"ĠArea":5099,"ĠStr":5100,"$).":5101,"ricult":5102,"ĠPres":5103,"ĠNet":5104,"keys":5105,"Ġwaste":5106,"Ġ=========":5107,"_diff":5108,"product":5109,"UM":5110,"Ġintrodu":5111,".diff":5112,"Ġfalse":5113,".F":5114,"ĠAug":5115,"rup":5116,"Ġpolitical":5117,"ths":5118,"Ġchem":5119,"Ġedges":5120,"Ġscores":5121,"ĴĮ":5122,"sim":5123,"ï¼ī":5124,"Ġhistor":5125,"Ġvisit":5126,"_theta":5127,"Ġ$),":5128,"ç±»":5129,"OW":5130,"Ġmedia":5131,"ĠVerification":5132,"erve":5133,"dots":5134,"Ġlargest":5135,"Ġ}ĊĊ":5136,"ï¼Ī":5137,"/w":5138,"eful":5139,"_matrix":5140,"dict":5141,"||":5142,"}$$Ċ":5143,"odels":5144,"ica":5145,"}^{\\":5146,"Ġbits":5147,"pan":5148,"Ġfarm":5149,"Ġautom":5150,"Ġisn":5151,"Ġeasy":5152,"Ġeverything":5153,"Ġrank":5154,"known":5155,"Ġangular":5156,"requency":5157,"ðŁ":5158,"Ġdescribed":5159,"Ġpiece":5160,"Ġcubic":5161,"Ġvideo":5162,"Ġextract":5163,".items":5164,"_sq":5165,"lear":5166,"annel":5167,"{K":5168,".yl":5169,"Ġroll":5170,"Sum":5171,"Ġ$$ĊĊ":5172,"anged":5173,"_volume":5174,"Ġfire":5175,"Ġconfiguration":5176,"Ġdouble":5177,"Ġrights":5178,"Ġallows":5179,"cending":5180,"hers":5181,"Ġcorresponds":5182,"Ð½Ð°":5183,"ãĢĤĊ":5184,"{km":5185,"Ġprotect":5186,"ĠPy":5187,"Ġplants":5188,"å±":5189,"Ġdiscount":5190,"Ġpix":5191,":,":5192,"Ġallowed":5193,"}}$":5194,"ĠOb":5195,"ìł":5196,"Ġprop":5197,"TT":5198,"Ġbecame":5199,"mean":5200,"Ġessential":5201,"ML":5202,"å¹":5203,"_side":5204,"IF":5205,"jac":5206,"oly":5207,"Ġstrings":5208,"Ġdatabase":5209,"ĠBrit":5210,"active":5211,"Ġstudies":5212,"_sub":5213,"ATION":5214,"ĠAc":5215,"ë¡ľ":5216,"ceil":5217,"Ġpassed":5218,"ĠDepartment":5219,"Ġprofess":5220,"\"Error":5221,"Ġrates":5222,"Ð¸Ðµ":5223,"åĽŀ":5224,"Ġtransformation":5225,"Ġselected":5226,"Ġexisting":5227,"Ġlack":5228,"Ġenter":5229,"ĠDi":5230,"Ġprimary":5231,"go":5232,"Ġweeks":5233,"Ġsuff":5234,"fe":5235,"_model":5236,"ĠValid":5237,"iters":5238,"Ġpubl":5239,"igation":5240,"Ġreflect":5241,"inspace":5242,"íķĺ":5243,"local":5244,"Ġindicates":5245,"Ġmicro":5246,"rier":5247,"Ġmeasures":5248,"simplified":5249,"ĠFraction":5250,"Ġ\",":5251,"current":5252,"Cont":5253,"-value":5254,"Ġnull":5255,"_cm":5256,"'d":5257,"Ġrelig":5258,"Ġuniform":5259,"ĠPlot":5260,"})^":5261,"Ġcat":5262,"ĠIndia":5263,"ibrary":5264,"éĹ":5265,"ĠHigh":5266,"fl":5267,"avelength":5268,"Ġorigin":5269,"Ġcurve":5270,"!!":5271,"uman":5272,"Ġdrug":5273,"ĠRaises":5274,"top":5275,"ĠWork":5276,"(M":5277,"ransform":5278,"è¾ĵ":5279,"ì§":5280,"Ġcandid":5281,"inite":5282,"rec":5283,"Ġsupply":5284,"\\%Ċ":5285,"Ġexplicit":5286,"Ġcommit":5287,"anging":5288,"_speed":5289,"Form":5290,"urrence":5291,"\"T":5292,"Ġconnection":5293,"{mm":5294,"Ġfill":5295,"Ġago":5296,"Ġtro":5297,"first":5298,"IP":5299,"ty":5300,"amental":5301,"och":5302,"_initial":5303,"ĠDevelop":5304,"Ġpi":5305,"irit":5306,"Ġentry":5307,"ĠDem":5308,"ĠEl":5309,"_node":5310,"ìĿĦ":5311,"string":5312,"mb":5313,"Ġheav":5314,"Ġagree":5315,"Ġexerc":5316,"Ġinvolved":5317,"ĠAC":5318,"Ġattention":5319,"Ġcapt":5320,"emale":5321,"crease":5322,"ypes":5323,"Ġ~":5324,"Ġhundred":5325,"timal":5326,"Ġindustry":5327,"Find":5328,"'),":5329,"ĠÑĤ":5330,"Ġsequ":5331,"Ġshowing":5332,"Ġpython":5333,"ĠSystem":5334,"\\),":5335,"anges":5336,"_with":5337,"actions":5338,"ĠLa":5339,"ä¾":5340,"Ġfractions":5341,"ĠSubstituting":5342,"ocket":5343,".linspace":5344,"ĠWar":5345,"Ġimmed":5346,"Ġnearest":5347,"Ð¶":5348,"Ġscen":5349,".se":5350,"Ġslow":5351,"Ġcapital":5352,"åī":5353,"ydro":5354,"numer":5355,"ĠWhile":5356,"Ġhost":5357,"pendicular":5358,"http":5359,"Ġtrying":5360,"Ġalgebra":5361,"^x":5362,"Ġé":5363,"*a":5364,"ĠFl":5365,"aight":5366,"cup":5367,"è¦":5368,"Ġscience":5369,"ĠHz":5370,"Ġwebs":5371,"Ġgoal":5372,"ivil":5373,"Ġlogging":5374,"Ġlives":5375,"ilk":5376,"Ġspeak":5377,"Ġstrategy":5378,".write":5379,".left":5380,"Ġcategory":5381,"ĠNow":5382,"obj":5383,"Ġmovement":5384,"Ġtheory":5385,"arting":5386,"ias":5387,"Ġfast":5388,"ĠYour":5389,"lier":5390,"ratio":5391,"amount":5392,"Ġboundary":5393,"Ġpan":5394,"Ġpref":5395,"Ġcombined":5396,"(R":5397,".read":5398,"Ġmix":5399,"TH":5400,"ĠKey":5401,"Ġfloor":5402,"ĠCurrent":5403,".pyplot":5404,"ĠAmerica":5405,"æį®":5406,"Ġhands":5407,"sect":5408,"-S":5409,"Ġzip":5410,"ĠGroup":5411,"Ġusers":5412,"Ġsubt":5413,"åĪĨ":5414,"Ġarch":5415,"ulum":5416,"atur":5417,"!Ċ":5418,"CA":5419,"ĠEq":5420,"Ġregression":5421,"Ġdesigned":5422,"Ġfinancial":5423,"-hand":5424,"istory":5425,"_prob":5426,"vare":5427,"Ġheld":5428,"Ġlos":5429,"Ġgall":5430,"Ġmoves":5431,"Ġextra":5432,"_ro":5433,"strip":5434,"Apply":5435,"Ġexamples":5436,"¦Ĥ":5437,"Ġson":5438,"NA":5439,"âĢ¦âĢ¦":5440,".)":5441,"\")čĊ":5442,"OS":5443,"distance":5444,"ĠAND":5445,"apter":5446,"linear":5447,"Ġevaluate":5448,"ĠII":5449,"inalg":5450,"dent":5451,"erior":5452,"Ġtang":5453,"ributed":5454,"Cons":5455,"Ġthroughout":5456,"Ġsleep":5457,"Ġcircuit":5458,"omb":5459,".right":5460,"ashing":5461,"Ġtold":5462,"ecause":5463,"ĠURL":5464,"Ġmargin":5465,"Ġquite":5466,"ĠSee":5467,"Ġaware":5468,"abit":5469,"]}":5470,".\"Ċ":5471,"Ġ)":5472,"}}}":5473,"olumns":5474,"Final":5475,"Ġcook":5476,"ĠHand":5477,"ĠLear":5478,"Ġcollect":5479,"chi":5480,"Ġelimin":5481,"()ĊĊĊ":5482,"One":5483,"amin":5484,"ĠJune":5485,"matches":5486,"ponse":5487,"ĠFile":5488,"Ġten":5489,"Ġcounts":5490,"Ġpow":5491,"cons":5492,"varepsilon":5493,"Ġcop":5494,"ĠGeneral":5495,"Ġcounter":5496,".zeros":5497,"ìĹĲ":5498,"Ġreported":5499,"Ġtrig":5500,"ĠÏĢ":5501,"Ġargs":5502,"copy":5503,"#[":5504,"OM":5505,"base":5506,"Ġcontribution":5507,"Ġstay":5508,".y":5509,"Type":5510,"BC":5511,"ros":5512,"Ġestimate":5513,"edge":5514,"Ġbroad":5515,"Ġbul":5516,"mathrm":5517,"ournal":5518,"\"Ex":5519,"crete":5520,"vector":5521,"]#":5522,".data":5523,"--|--------":5524,"update":5525,"Ġleaders":5526,")')Ċ":5527,"Ġfair":5528,"ÐºÐ°":5529,"Ġê°":5530,"clude":5531,"ĠChar":5532,"Ġmonthly":5533,"Ġwait":5534,"-M":5535,"ìĿĺ":5536,"ĠCost":5537,"_cl":5538,"à¤¾à¤":5539,"-Ċ":5540,"urtle":5541,"Ġmomentum":5542,"ĥ½":5543,"ĠPrint":5544,"ĠApril":5545,"ederal":5546,".xlabel":5547,"Ġbytes":5548,"Ġaccom":5549,"åĪ°":5550,"Ġdivisors":5551,"Ġrob":5552,"ĠJanuary":5553,"_and":5554,"rated":5555,"hens":5556,"Ġfavor":5557,"Ġstri":5558,"ÐµÐ¼":5559,"Ġ$|":5560,"Ġgrams":5561,"Ġlost":5562,"ades":5563,"ĠGenerate":5564,"Ġoil":5565,"ĠDay":5566,"ĠFinal":5567,"*,":5568,"_string":5569,"âĸ":5570,"Ġhous":5571,"Ġarc":5572,":**":5573,"Ġship":5574,"rangle":5575,"Ġinform":5576,"Ġeducational":5577,"Ġveh":5578,"_res":5579,"Ñİ":5580,"Ġthous":5581,"Ġeveryone":5582,"à¥į":5583,"Ġinit":5584,"Ġconservation":5585,"ç½":5586,".linalg":5587,"coming":5588,"Ġfamilies":5589,"asure":5590,"oltage":5591,".ylabel":5592,"method":5593,"åĴĮ":5594,"Ġcam":5595,"½æķ°":5596,"...ĊĊ":5597,"Ġprivate":5598,"Ġgard":5599,"ë¥¼":5600,"Ġmother":5601,"ä»¶":5602,"(L":5603,"ĠAlso":5604,"_col":5605,"Ġprojects":5606,"ymbol":5607,"Ġbirth":5608,"Ġseason":5609,"eget":5610,"Ġmeeting":5611,"âĤĤ":5612,"à¥įà¤":5613,"OP":5614,"eli":5615,"]]Ċ":5616,"olves":5617,"imit":5618,"Ġletters":5619,"Ġdiagonal":5620,"Ġweb":5621,"Ġmag":5622,"orage":5623,"åĲį":5624,"haps":5625,"Ġbehind":5626,"Ġchalleng":5627,"Ġprecision":5628,"Ġwrong":5629,"Ġinputs":5630,"Ġmodern":5631,"Ġfight":5632,"Ġfriend":5633,"_df":5634,"ĠÐ¼":5635,"levant":5636,"Ġeat":5637,"Ġcreating":5638,"ĠSept":5639,"ining":5640,"ĠTHE":5641,"Ġraw":5642,"Ġ---":5643,"Ġdollars":5644,"oul":5645,"After":5646,"Ġreturned":5647,"Ġcompare":5648,"Ġ----------Ċ":5649,"rial":5650,"riction":5651,"Ġcomparison":5652,"))čĊ":5653,"aa":5654,"clus":5655,"Ġequilibrium":5656,"ÃŃ":5657,"\\phi":5658,"Ġuseful":5659,"Ġsession":5660,"Ġcompan":5661,"Char":5662,".split":5663,"Ġphi":5664,"Ġgets":5665,"cil":5666,"Ġearth":5667,"Â·m":5668,"]:.":5669,"Ġcomment":5670,"\"\\":5671,"ĠEast":5672,"iam":5673,"`,":5674,"Ġconstruction":5675,"_url":5676,"mission":5677,"pite":5678,"Ġsn":5679,"Value":5680,"Ġtick":5681,"Ġanimals":5682,"Ġimplies":5683,"Ġmess":5684,"ĠCenter":5685,"Ġtests":5686,"ru":5687,"æŀľ":5688,"(value":5689,"Ġgrade":5690,"water":5691,"Ġpurpose":5692,"ĠUnion":5693,"\"(":5694,"Ġrectangle":5695,"efficient":5696,"Ġstraight":5697,"oder":5698,"Ġsociety":5699,"Ġìŀ":5700,"pass":5701,"Ġtherefore":5702,"Ġ\"Ċ":5703,"_bound":5704,"auss":5705,".radians":5706,"Ġbeginning":5707,"itation":5708,"cores":5709,"ino":5710,"asons":5711,"Ġmodul":5712,"Ġgamma":5713,"group":5714,".rand":5715,"è¿Ķ":5716,"(-\\":5717,"Ġ-=":5718,"Ġmention":5719,"ĠAD":5720,"points":5721,"Ġactions":5722,"Ġpaint":5723,"erences":5724,"(list":5725,"Ġtowards":5726,"Ġhandling":5727,"Ġinternal":5728,"ç®":5729,"inder":5730,"nes":5731,"ĠMain":5732,"Ġenjoy":5733,"pression":5734,"Ġshots":5735,"ools":5736,"ÃĹ":5737,"Ġinvalid":5738,"ĠSk":5739,"Ġspread":5740,"Ġopposite":5741,"Ġhighest":5742,"Ġreduced":5743,"{u":5744,"while":5745,"'],":5746,"ĠExpected":5747,"rought":5748,"AY":5749,"Sub":5750,"æĮ":5751,"Ġpoor":5752,"Ġkeys":5753,");":5754,"ĠSur":5755,"ĠMark":5756,"Ġoverall":5757,"mass":5758,"nect":5759,"Ġmask":5760,"ĠHouse":5761,"Ġidentical":5762,"Ġsus":5763,"âĪļ":5764,".Data":5765,"het":5766,"):.":5767,"ugar":5768,"ĠSw":5769,"_dec":5770,"})Ċ":5771,"ĠInteg":5772,"\"E":5773,"')čĊ":5774,"example":5775,"Ġaccuracy":5776,"cluding":5777,"Ġprocesses":5778,".A":5779,"_range":5780,"(se":5781,"Ġrecurs":5782,"SON":5783,"anch":5784,"})\")Ċ":5785,"Ġhealthy":5786,"nu":5787,"çİ":5788,"Ġbegan":5789,"Ġsoil":5790,"ĠSch":5791,"_solution":5792,"tered":5793,"ç¬¦":5794,"PE":5795,"\\lfloor":5796,"ĠMc":5797,"Ð¾Ð¼":5798,"ãĤĴ":5799,"ĠGerm":5800,"Ġfont":5801,"split":5802,"}$ĊĊ":5803,"-axis":5804,"Ġampl":5805,"unt":5806,")$:":5807,"å¸":5808,"Ġalone":5809,"Ġmedical":5810,"Ġrock":5811,"(*":5812,"Ġsil":5813,"ulated":5814,"Ġoffer":5815,"ä¿":5816,"body":5817,"ĠOver":5818,"length":5819,"ä½¿":5820,"ifically":5821,"Ġserver":5822,"Ġum":5823,"Ġhot":5824,"Ġproduced":5825,"Ġadminist":5826,"Ġdisplacement":5827,"ĠProv":5828,"ä¸ĭ":5829,"ìļ":5830,"PL":5831,"Ġcomputation":5832,"Ð°ÑĢ":5833,"Ġleave":5834,"ĠConstant":5835,"FF":5836,"ÂłĊĊ":5837,"ucl":5838,"more":5839,"istry":5840,"åıĸ":5841,")[":5842,"ĠJuly":5843,"Ġquantity":5844,"è¦ģ":5845,"Ġsmallest":5846,"Per":5847,"ilitary":5848,"Ġsurv":5849,"Ġdevice":5850,".figure":5851,"ĠStandard":5852,"Ġbenefits":5853,"actors":5854,"Ġsetting":5855,"Ġsaw":5856,"Ġter":5857,"ĠEnt":5858,"Ġaspect":5859,"Ġoutcomes":5860,"ufact":5861,"Op":5862,"Ġteaching":5863,"ux":5864,"(request":5865,"correct":5866,"eras":5867,"ĠExtract":5868,"ategory":5869,"Ġsuccessful":5870,"Ġgames":5871,"Ġideas":5872,"ĠRel":5873,"Ġmedian":5874,"ĠSm":5875,"velocity":5876,"Ġforces":5877,"Ġtools":5878,"æŃ":5879,"poses":5880,"empty":5881,"Ġfigure":5882,"ao":5883,"Ġverbose":5884,"Ġsecurity":5885,"ĠGover":5886,"Ġemot":5887,"else":5888,"Ġlabor":5889,"åºı":5890,"inear":5891,"Ġmaintain":5892,"efore":5893,"abet":5894,"aj":5895,"Ġfilename":5896,"graph":5897,"ĠAust":5898,"Ġreceive":5899,"Ġtasks":5900,"Ġrepresenting":5901,"ĠName":5902,"ieved":5903,"\\rfloor":5904,"Ġwhose":5905,"Ð½Ð¾":5906,"Ġfollowed":5907,"Ġhandle":5908,"Ġhit":5909,"{max":5910,"code":5911,"django":5912,"learn":5913,"Ð¸Ñģ":5914,"Ġsources":5915,"Ġdamage":5916,"ickness":5917,"can":5918,"Ġprocessing":5919,"edom":5920,"ĠìĿ":5921,"igits":5922,"Ġwind":5923,"Ġrefer":5924,"ĠComputes":5925,"Ġexponential":5926,"ĠError":5927,"*y":5928,"Ġgradient":5929,"Ġdry":5930,"Ġculture":5931,"erved":5932,"CE":5933,"Ġsituation":5934,"rc":5935,"Ġcompleted":5936,"Ġpara":5937,"åĩ½æķ°":5938,"Ġconstraints":5939,"::":5940,"zing":5941,"actual":5942,"Ġrestr":5943,"_product":5944,"[\\":5945,"Dict":5946,"}Â°":5947,"Ġpermut":5948,"Ġbrain":5949,"odule":5950,"Ġtoward":5951,"_or":5952,"Ġlists":5953,"-|--------":5954,"^T":5955,"uccess":5956,"ĠLog":5957,"ropy":5958,"ogle":5959,"Ġpassword":5960,"Ġopportunity":5961,"Ġfailed":5962,"Ġenvironmental":5963,"(fig":5964,"iet":5965,"Ġmole":5966,"Ġtransport":5967,"Ġmist":5968,"like":5969,"irm":5970,"æķ°æį®":5971,"Ġstrength":5972,"Ġequip":5973,"intercept":5974,"doc":5975,"Ġappears":5976,"Ġpain":5977,"Ġcharg":5978,"}$Ċ":5979,"Ġemerg":5980,"Ġ\\Ċ":5981,"Ġclimate":5982,"¤º":5983,"ĠInitialize":5984,"Ġparticularly":5985,"Ġmental":5986,"Ġdetails":5987,"Ġadding":5988,"Ġpad":5989,"Ġnorth":5990,"Ġdtype":5991,"Yes":5992,"Ġconcentration":5993,"otic":5994,"ster":5995,")|":5996,"Ġtransition":5997,"Phi":5998,"Ġsometimes":5999,"ATE":6000,"langle":6001,"Ġep":6002,"dis":6003,"Ġdomin":6004,"Ġtrees":6005,"ĠÑ":6006,"ĠKing":6007,"Ġtens":6008,"Ġinner":6009,"Ġreaction":6010,"ç§":6011,"Ġstarts":6012,"ĠAnn":6013,"Ġthinking":6014,"Ġjud":6015,"Ġpopular":6016,"urg":6017,"plier":6018,"Ġoperator":6019,"Ph":6020,"(True":6021,"çĤ¹":6022,"Ġpractices":6023,"itational":6024,"_dim":6025,"çī":6026,"agnitude":6027,"Ġlies":6028,"Ġstation":6029,"(max":6030,"{ft":6031,"Ġ'{":6032,"overline":6033,"Ġmachine":6034,"apped":6035,"Ġ\"\\":6036,"target":6037,"ĠJew":6038,"Ġintersection":6039,"Rightarrow":6040,"EST":6041,"ĊĠĠĠĠĠĠĠĠĊ":6042,"Ġexpansion":6043,"Ġclient":6044,"[x":6045,"Ġox":6046,"æĪĲ":6047,"Ġcollection":6048,"Ġgoes":6049,"create":6050,"uge":6051,"Ġprincipal":6052,"Ġgenerally":6053,"vas":6054,"izations":6055,"cat":6056,"equation":6057,"enced":6058,"abla":6059,"Ġaim":6060,"ĠHar":6061,"Ġvariety":6062,"ĠProject":6063,".error":6064,"^k":6065,"omic":6066,"Ġlogar":6067,"ows":6068,"secutive":6069,"Ġinternational":6070,".DataFrame":6071,"ham":6072,"ously":6073,"ĠÎ¼":6074,"ĠčĊ":6075,"Ġ\"\"\"čĊ":6076,"ĠIndian":6077,"Ġpen":6078,"lands":6079,"Count":6080,"mark":6081,"olean":6082,"Ġcombination":6083,"train":6084,"ayout":6085,"Ġdepart":6086,"ouncil":6087,"}\\)":6088,"Ġthus":6089,"éĩı":6090,"cember":6091,"}}}{":6092,"atform":6093,"Ġfat":6094,"Ġwatch":6095,".j":6096,"tely":6097,"è¿ĶåĽŀ":6098,"Ġhope":6099,"idents":6100,"ĠAPI":6101,"response":6102,"itiz":6103,"uctions":6104,"cape":6105,"Ġrevenue":6106,"boxed":6107,"PA":6108,"Ġurl":6109,"Ġcommunities":6110,"æľĢ":6111,",b":6112,"Test":6113,"\\Delta":6114,"enuse":6115,"ĠMore":6116,"Ġscientific":6117,"oe":6118,"Ġenh":6119,"âģ":6120,"Ġsoon":6121,"Ġtown":6122,"æ¯":6123,"tee":6124,"Ġphone":6125,"Ã³n":6126,"Ġremember":6127,"Ġdark":6128,"Ġcentury":6129,"Ġsustain":6130,"apan":6131,"ĠMass":6132,"roy":6133,"rome":6134,"_E":6135,"plex":6136,"ille":6137,"avers":6138,"Ġwood":6139,"^(":6140,"etch":6141,"tty":6142,"ĠOriginal":6143,"Ġprinciple":6144,"ê³":6145,"}'":6146,"Ġmoles":6147,"Ñī":6148,"aught":6149,"Ġinvestment":6150,"/n":6151,"_part":6152,"_image":6153,"attle":6154,"det":6155,"Ġbank":6156,"iling":6157,"Ġtruth":6158,"Ġcompound":6159,"Ġserious":6160,"lin":6161,"ĠPublic":6162,"Ġimg":6163,"Ġfuel":6164,"jacent":6165,"Ġbey":6166,"ĠCour":6167,"Ġwanted":6168,"under":6169,"Ġdead":6170,"Ġintegration":6171,"ĠOut":6172,"Ġcontract":6173,"Ġspring":6174,"Ġflo":6175,"Gamma":6176,"rical":6177,"erent":6178,"Ġinsert":6179,"Ġfundamental":6180,"Ġepsilon":6181,"/c":6182,"Ġpadd":6183,"uster":6184,"umerator":6185,"Ġbeyond":6186,"Ġgiving":6187,"Ġveget":6188,"ĠBoard":6189,"Ġbed":6190,"ìĬ":6191,"_im":6192,"Ġcriter":6193,"Ġpred":6194,"ĠJes":6195,"Ġrelationships":6196,"Ġideal":6197,"term":6198,"]$,":6199,"ometry":6200,"Ġofficial":6201,"ruct":6202,"preci":6203,"Input":6204,"iation":6205,"Ġchain":6206,"Ġgenerated":6207,"Ġ-------":6208,"(figsize":6209,"ny":6210,"(re":6211,"Ġeyes":6212,"ĠRound":6213,"Ġfilm":6214,"unds":6215,"Ġsolid":6216,"see":6217,"net":6218,"¸°":6219,"ampling":6220,"Ġlimited":6221,"Ġdb":6222,"Ġopportunities":6223,"{total":6224,"Ġdescription":6225,"Acc":6226,"-D":6227,"ĠTheorem":6228,"Ġfully":6229,"olid":6230,"aign":6231,"ĠRef":6232,"ooth":6233,"Ġjson":6234,"idx":6235,"Ġquery":6236,".âĢĿĊĊ":6237,"Consider":6238,")}{\\":6239,"Class":6240,"New":6241,"/L":6242,"{X":6243,"ditional":6244,"Ġstage":6245,"estyle":6246,"Ġnotation":6247,"Ġfactorization":6248,"ĠÎ©":6249,"ĠEst":6250,"äºİ":6251,"Ġhimself":6252,"Ġthreat":6253,"ĠModel":6254,"ĠScience":6255,"Ñĸ":6256,"Ġpayment":6257,"Ġinn":6258,"Ġscaling":6259,"ãĤĭ":6260,"Ġpy":6261,"Ġdynam":6262,"OST":6263,"za":6264,"_det":6265,"poss":6266,"Ġlif":6267,"è½":6268,"Ġcompletely":6269,"Ġformed":6270,"_add":6271,"Ġworkers":6272,"Ġnews":6273,"Ð¾Ð±":6274,"Ġoccup":6275,"Ġdur":6276,"Ġmer":6277,"_pred":6278,"rypt":6279,"Integ":6280,"Ġsettings":6281,"IST":6282,"blem":6283,"bruary":6284,"ä½¿çĶ¨":6285,"Î¸":6286,"greg":6287,"rons":6288,"ester":6289,"åħĥ":6290,"_q":6291,".ch":6292,"Ġlate":6293,"plan":6294,".mean":6295,"env":6296,"Ġomega":6297,"lements":6298,"Ġforest":6299,"aur":6300,"Ġplaced":6301,"Ġwebsite":6302,"Ġcompanies":6303,"Ġcoordinate":6304,"_ind":6305,"urance":6306,"ĠSpec":6307,".pop":6308,"Ġalign":6309,"ĠResearch":6310,"Ġminute":6311,"ev":6312,"icip":6313,"ÑĢÐµ":6314,"Ġrat":6315,"Ġeast":6316,"Ġmg":6317,"ĠDon":6318,"umb":6319,"uzz":6320,"à¸":6321,".cont":6322,"fr":6323,"-',":6324,"_info":6325,"Ġ-*":6326,"Ġcoming":6327,"rench":6328,"State":6329,"Ġskin":6330,"\\|":6331,"andas":6332,"ĠBlack":6333,"Ġcommunication":6334,"PR":6335,"(name":6336,"Ġfish":6337,"ìĪĺ":6338,"Ġreject":6339,"Ġvalidation":6340,"Ġevaluation":6341,"Ġstated":6342,"ĠDerive":6343,"Ġband":6344,"dom":6345,"Ġperpendicular":6346,"dy":6347,"Ġâī¤":6348,"gn":6349,"ëł":6350,"Ġwoman":6351,"vere":6352,"ĠBoth":6353,"Ġcorrelation":6354,"Ġperimeter":6355,"Ġensures":6356,"Ġwid":6357,"åº¦":6358,"Ġtoken":6359,"é¡":6360,"è¿Ļ":6361,"TS":6362,"Ġyourself":6363,"ympt":6364,"Gener":6365,"ĠPR":6366,"Ġdivisible":6367,"ovember":6368,"åĲİ":6369,"Ġfather":6370,"Ġsold":6371,"ĠRE":6372,"}]":6373,"(F":6374,"Ġchanged":6375,"lam":6376,"Ġremoved":6377,"alysis":6378,"Ġbeaut":6379,"ĠTechn":6380,"{Q":6381,".assert":6382,"big":6383,"Ġstream":6384,"Ġrequirements":6385,"Ġcombinations":6386,"center":6387,"Ġproced":6388,"ĠMost":6389,"power":6390,".E":6391,"volume":6392,"Ġnoise":6393,"Ġrecommend":6394,"Ġ$):":6395,"iring":6396,"ĠYes":6397,"orean":6398,"Ġplanning":6399,"CM":6400,"rev":6401,"Ġpul":6402,"\\sigma":6403,"abol":6404,"(file":6405,"Ġconsumption":6406,"Ġcups":6407,".R":6408,"iber":6409,"Ġearn":6410,"Ġsufficient":6411,"ĠWhy":6412,"å·":6413,"ĠFore":6414,"ĠĊĊ":6415,"ui":6416,".info":6417,".simplify":6418,"lean":6419,"Ġduration":6420,"Ġchemical":6421,"åīį":6422,"edia":6423,"appy":6424,"Ġprove":6425,"opulation":6426,"Ġ#########":6427,"æĶ":6428,"=self":6429,"Ġpup":6430,"des":6431,"ara":6432,"Ġatm":6433,"Ġmonitor":6434,"defined":6435,"Ġconcern":6436,"}|":6437,"Ġdjango":6438,"lying":6439,"ĠBC":6440,"Ġcurrently":6441,"req":6442,"Ð°Ð»":6443,"Ġhor":6444,"ĠÂ£":6445,"Ġanswers":6446,"Â°C":6447,"Ġwest":6448,"čĊčĊčĊ":6449,"Te":6450,"ĠAugust":6451,"Ġhex":6452,"_log":6453,"_output":6454,"Image":6455,"well":6456,"_den":6457,"Ġtheoretical":6458,"Ġtrade":6459,"riculum":6460,"Number":6461,"Ġeg":6462,"field":6463,"Ġled":6464,"Ġqual":6465,"%,":6466,"Ġmixed":6467,"duction":6468,"_user":6469,"_samples":6470,"Ġmapping":6471,"Ġefficient":6472,"Ġbinomial":6473,"):ĊĊ":6474,"Ġworth":6475,"'}":6476,"enter":6477,"ERS":6478,"annels":6479,"open":6480,"Enter":6481,".txt":6482,"Ġcarbon":6483,"Ġdivided":6484,"enge":6485,"Cre":6486,"Ġborn":6487,"ĠSE":6488,"ĠPark":6489,"idge":6490,"rection":6491,"_divis":6492,"ĠBase":6493,"\"L":6494,"iers":6495,"Ġcorrectly":6496,"ĠTwo":6497,"Ġcache":6498,"ivation":6499,"Ø§":6500,"Ġsphere":6501,"ç¤º":6502,"onth":6503,"RU":6504,"à¦":6505,"Ġdigital":6506,"PM":6507,"Ġsong":6508,"Ġdivisor":6509,"Hel":6510,")/(":6511,"Ġprobabilities":6512,"'''":6513,"Ġdefine":6514,"Ġpool":6515,"Ġdepends":6516,"Ġ(Ċ":6517,"Ġeasily":6518,"number":6519,"ĠHer":6520,"Ġsuit":6521,"Ġbehavi":6522,"Ġlocated":6523,"issing":6524,"Ġfa":6525,"Ġ$=":6526,"Ġgoals":6527,"|----":6528,"(object":6529,"ĠNa":6530,"Ġcube":6531,"Ġ-------Ċ":6532,"cdots":6533,"ĠLoad":6534,"-time":6535,"++":6536,"but":6537,"Ġtoler":6538,"Ð¸Ñı":6539,"Ġcash":6540,"Ġresource":6541,"itud":6542,"_names":6543,"Ġcauses":6544,"ĠDevelopment":6545,"Ġstd":6546,"ĠProcess":6547,">>>":6548,"ĠFormula":6549,"(nums":6550,"Ġprices":6551,"Ġvar":6552,"iful":6553,"Ġlands":6554,"Ġprote":6555,"rew":6556,"Ġsche":6557,"inner":6558,"Ġsend":6559,"Ġthread":6560,"uclide":6561,"overed":6562,"-B":6563,"Ġdot":6564,"ested":6565,"Ġnamed":6566,"-term":6567,"ĠRequ":6568,"Ġblank":6569,"model":6570,"umulative":6571,"radius":6572,"iques":6573,"ashington":6574,"(q":6575,"è§":6576,"_row":6577,"Ġcards":6578,"Ð¾Ðº":6579,"Ġalt":6580,"ĠOff":6581,"ç¨":6582,"ĠUser":6583,"ĠSeptember":6584,"Ġdecom":6585,"Ġmolar":6586,"Ġhelps":6587,"ien":6588,"-up":6589,"Ġwild":6590,"aker":6591,"gence":6592,"legend":6593,"Ġstyle":6594,"ocol":6595,"ĠBook":6596,"Ġeye":6597,"related":6598,"Ġoffset":6599,"Ġoffice":6600,"(df":6601,"åıĤ":6602,"_current":6603,"Ġod":6604,"run":6605,"odd":6606,"Ġhash":6607,"Ġsimplifies":6608,"older":6609,"Ġestablished":6610,"Ġpicture":6611,"Ġworked":6612,"ãģĻ":6613,"ateral":6614,"oded":6615,"ĠMaximum":6616,"Ġtool":6617,"Ġcompre":6618,"Ġkids":6619,"ĠÎĶ":6620,"ç»Ħ":6621,"Ġproviding":6622,"(row":6623,"Ġwide":6624,"Ġtypically":6625,"Ġhon":6626,"_expr":6627,"Ġcomplexity":6628,"rep":6629,"ĠPower":6630,"Ġsurvey":6631,"Ġbillion":6632,"cor":6633,"mitted":6634,"Ġchance":6635,"Ġconvers":6636,"Ġgrowing":6637,"iforn":6638,"Ġhyper":6639,"ycle":6640,"Ġrac":6641,"ocab":6642,"Ġimportance":6643,"Why":6644,"ê°Ģ":6645,"Ġexperiences":6646,"Ġbur":6647,"ĠCS":6648,"comp":6649,"Ġquickly":6650,"uilt":6651,"Ġìł":6652,"results":6653,"String":6654,"ĠDefault":6655,"ĠRoad":6656,"File":6657,"ĠPress":6658,"}^{-":6659,"ermed":6660,"non":6661,"(root":6662,"asc":6663,"Ġfreedom":6664,"atically":6665,"Ġintervals":6666,"igr":6667,"_Y":6668,"Ġ$).":6669,"Ġsympt":6670,"ĠDav":6671,"Ġspect":6672,"ĠOh":6673,"Ġelectron":6674,"frame":6675,"hent":6676,"Ġburn":6677,"uclidean":6678,"Ġkill":6679,"attery":6680,"Ġidx":6681,"vered":6682,"Ġconcer":6683,"Check":6684,"{min":6685,"ĠÑĩ":6686,"inf":6687,"ĠBro":6688,"emy":6689,"tk":6690,"Ġrelevant":6691,"ĠTree":6692,"ç½®":6693,"Î©":6694,"Ġrational":6695,"_acc":6696,"ĠÐ·":6697,"ĠBar":6698,"probability":6699,"Ġparty":6700,"Ġnuc":6701,"^-":6702,"imensional":6703,"Ġgcd":6704,"Ġexpressed":6705,"Ġkernel":6706,"agr":6707,"(V":6708,"Ġíķ":6709,"ography":6710,"player":6711,"only":6712,"ĠDecember":6713,"cient":6714,"Ġpolic":6715,"\\omega":6716,"Ġice":6717,"Ġsea":6718,"ĠOctober":6719,"ratic":6720,"Ġadvant":6721,"Ġbab":6722,"icate":6723,"ulf":6724,"Ġ[]ĊĊ":6725,"Ġmanufact":6726,"Ġstandards":6727,"Ġpatterns":6728,"Ġlogic":6729,"âĶ":6730,"oto":6731,"_squared":6732,"-point":6733,"Ġrho":6734,"âĢĻve":6735,"ĠMean":6736,"rick":6737,"ought":6738,"Inter":6739,"ĠOnly":6740,"ncy":6741,"ĠJapan":6742,"Ġspirit":6743,"éĿ":6744,"AND":6745,"ĠJesus":6746,"\"V":6747,"_km":6748,"vis":6749,"Ġprefer":6750,"appa":6751,"ĠWater":6752,"_start":6753,"Ġfigures":6754,"Ġgirls":6755,"ifying":6756,"Ġfinite":6757,"ĠCons":6758,"bi":6759,"Ġutil":6760,"ĠTypeError":6761,"rd":6762,"Ġpatients":6763,"\"Pro":6764,"Ġstrategies":6765,"\"The":6766,"Ġdoor":6767,"\"B":6768,"_order":6769,"ida":6770,"Ġacid":6771,"Ġcalls":6772,"]])Ċ":6773,"å¤§":6774,"ĠBritish":6775,"(arr":6776,"oting":6777,"Ġaw":6778,"Ġbrought":6779,"TE":6780,"dr":6781,"Ġ........":6782,"Ġplayers":6783,"ĠCap":6784,"ĠNOT":6785,"imeters":6786,"Ġanimal":6787,"ĠProbability":6788,"Ġpeak":6789,"à¤¿":6790,"ĠMethod":6791,"Ġlengths":6792,"map":6793,"Ġpretty":6794,"My":6795,"Up":6796,"éĻ":6797,"Ġgave":6798,"Ġshared":6799,"Ġobj":6800,"MA":6801,"Ġrele":6802,"Ġmeasured":6803,"ĠAssoci":6804,"Ġlegal":6805,"ections":6806,"second":6807,"ĠImport":6808,"Ġgold":6809,"ells":6810,"acity":6811,"enses":6812,"Des":6813,"Ġpip":6814,"Ġhydro":6815,"iar":6816,"ĠPresident":6817,"dfrac":6818,"_change":6819,"month":6820,".B":6821,"required":6822,",'":6823,"oted":6824,"ĠAv":6825,"Ġjoin":6826,"Ġfinally":6827,"Ġreve":6828,"Ġcold":6829,"ifornia":6830,"ests":6831,"ĠOur":6832,"ircle":6833,"iately":6834,"Ġcancer":6835,"Ġprev":6836,"{i":6837,"ĠPost":6838,"Ġplease":6839,"_final":6840,".find":6841,"ste":6842,"_code":6843,"Ġrecords":6844,"Ġguid":6845,"Ġmilitary":6846,"Ġacqu":6847,"plete":6848,"_ad":6849,"ĠWrite":6850,"AME":6851,"ĠConfig":6852,"Ġchoices":6853,".ar":6854,"ĠRet":6855,"GB":6856,"ĠâĪļ":6857,"ibly":6858,"esh":6859,"IZ":6860,"Here":6861,"vention":6862,"_check":6863,"ĠĠĠĠĠĠĠĠĠĠĠĠĊ":6864,"Ġidentified":6865,"{mol":6866,"Ġsaying":6867,"ĠInternational":6868,"*.":6869,"rary":6870,"Ġconsecutive":6871,"men":6872,"ygen":6873,"Ġswe":6874,"Ġtraditional":6875,"Ġinstall":6876,"Ġdie":6877,"Ġexpert":6878,"_hours":6879,"ĠÂł":6880,"ivalence":6881,"inks":6882,"Ġheard":6883,".join":6884,"ĠÐ½Ð°":6885,"Reg":6886,"Ġparticipants":6887,"rtype":6888,"Ġspaces":6889,"ql":6890,"Ġrepl":6891,"Ġdecrease":6892,"_function":6893,"objects":6894,"Ġkinetic":6895,"Ġfinding":6896,"å¼ı":6897,"_integ":6898,"Ġ{}Ċ":6899,"**Ċ":6900,"lege":6901,".a":6902,"_all":6903,"Ġencoding":6904,"ech":6905,"Ġmovie":6906,"ico":6907,"ingu":6908,"ĠPM":6909,"Ġinstitution":6910,"ĠEven":6911,"ĠMus":6912,"ayers":6913,"Ġbenefit":6914,"Found":6915,"lict":6916,"agram":6917,"Ġhappen":6918,"irus":6919,"Ġvill":6920,"ĠCall":6921,"Ġanyone":6922,"aussian":6923,"Ġsouth":6924,"Ġlaws":6925,"Ġcyl":6926,"Ġcool":6927,"Ġslight":6928,"Ġcultural":6929,"char":6930,"############":6931,"=-":6932,"ĠService":6933,"ony":6934,"ĠIS":6935,"phas":6936,"Ġsquared":6937,"Ġrain":6938,"orge":6939,"hole":6940,"Ġseparate":6941,"Ġpsych":6942,"Ġdrink":6943,"Ġsuggests":6944,"api":6945,"-a":6946,"Ġâľ":6947,"works":6948,"adata":6949,"atetime":6950,"_fraction":6951,"Ġreci":6952,"Ġdeliver":6953,"taint":6954,"Ġfunc":6955,"Ġwonder":6956,"Ġharmon":6957,"Ġdiscriminant":6958,"Ġmut":6959,"Ġdemonstrates":6960,"Ġstored":6961,"Ġtend":6962,"Ġsoftware":6963,"email":6964,"lat":6965,"Ġhighly":6966,"Ġwat":6967,"Ġdeveloping":6968,"Ġassume":6969,"Ġur":6970,"ĳÎ":6971,"Ġreasons":6972,"Ġprofessional":6973,"_u":6974,"Ġwavelength":6975,"Ġattribute":6976,"ygon":6977,"Ġfriction":6978,"ĠNovember":6979,"/or":6980,"Ġexercise":6981,"pand":6982,"ĠDistance":6983,"week":6984,"RA":6985,"etric":6986,"-bit":6987,"Ġinterpretation":6988,"ĠManagement":6989,"Ġneighbor":6990,"Ġsom":6991,"itect":6992,"ador":6993,"Ġdiss":6994,"erscript":6995,"ĠÐ±":6996,"rig":6997,"Ġmaxim":6998,"osure":6999,"Ġapproaches":7000,"Ġselection":7001,"normal":7002,"Ġsubstitution":7003,"ëĵ":7004,"uce":7005,"(angle":7006,"rowth":7007,"Ġcredit":7008,"-th":7009,"Ġlogarithm":7010,"-A":7011,"User":7012,"Ġinfluence":7013,"Ġinj":7014,"ĠBas":7015,"Ġmagnetic":7016,"Ġinteresting":7017,"à¥ĩ":7018,"_amount":7019,"Ġsummer":7020,"Ġalternative":7021,"QL":7022,"Ġpaths":7023,"ä¾ĭ":7024,"Original":7025,".max":7026,"should":7027,"Ġpieces":7028,"(con":7029,".)ĊĊ":7030,"Ġpredicted":7031,"}%\")":7032,"]*":7033,"xx":7034,"-k":7035,"ĠMany":7036,"Ġbudget":7037,"Ġsubtract":7038,"Two":7039,"Ġtwice":7040,"Ġgravity":7041,"Ġeth":7042,"¦¬":7043,"arant":7044,"è¿Ľ":7045,"ĠLearning":7046,"Ġcore":7047,"ĠMod":7048,"Ġwire":7049,"'].":7050,"uits":7051,"**,":7052,"pective":7053,"Ġcaused":7054,")))Ċ":7055,",ĊĊ":7056,"erivative":7057,"Ġuns":7058,"Ġmatching":7059,"Ġpaid":7060,"Ġsymmetry":7061,"}}\\":7062,"possible":7063,"Ġresearc":7064,"location":7065,"Ġjoint":7066,"_func":7067,"nabla":7068,"_power":7069,".legend":7070,"Ġefforts":7071,"rition":7072,"Ġclock":7073,"ĠKe":7074,"Ġsupported":7075,"å¦Ĥ":7076,"static":7077,"(j":7078,"Ġ}Ċ":7079,".*":7080,"Ġfear":7081,"ĠmL":7082,":,.":7083,"Ġrepeated":7084,"Ġhear":7085,"Ġpal":7086,"ĉĉĉĉ":7087,"Ġsolar":7088,"roid":7089,"Ġhabit":7090,"ĠPo":7091,"Ġorganization":7092,"ĠHel":7093,"CL":7094,"ä½ľ":7095,"Ġassessment":7096,"Ġtag":7097,"Ġpublished":7098,"Ġdp":7099,"holds":7100,"ĠRev":7101,"Ġ\\),":7102,"Ġdiet":7103,"Ġ'.":7104,"**(":7105,"superscript":7106,"Ġrounded":7107,"reet":7108,"Ġgeneration":7109,"Ð¾Ð³ÑĢÐ°Ð¼Ð¼":7110,",-":7111,"Ð½ÑĭÐ¹":7112,"/p":7113,"Ġsignificantly":7114,"osen":7115,"_bar":7116,"Ġrap":7117,"pmod":7118,"Ġblocks":7119,"elihood":7120,"Ġcitiz":7121,"ermediate":7122,"-ta":7123,"_map":7124,"Ġrise":7125,"ĠRatio":7126,"ì§Ģ":7127,"Ġbelong":7128,")-":7129,"Ġassist":7130,"Ġimmediately":7131,"Ġgovern":7132,"ĠHuman":7133,"Ġscalar":7134,"ris":7135,"udents":7136,"Ġpurposes":7137,"Ġsites":7138,"ctors":7139,"ĠWashington":7140,"(math":7141,"osis":7142,"rops":7143,"ĠIns":7144,"ĠPerform":7145,"HT":7146,"mm":7147,"_left":7148,"rief":7149,"Ġda":7150,".value":7151,"ademic":7152,"enty":7153,"Ġpoll":7154,"Ġrequests":7155,"Ġready":7156,"oz":7157,"Ġliters":7158,"_le":7159,"ĠFebruary":7160,"SC":7161,"arse":7162,"ĠRiver":7163,"ĠChurch":7164,"ygame":7165,"ouble":7166,"Ġdrive":7167,"-like":7168,"ĠChristian":7169,"Ġillust":7170,"Ð¾Ð¹":7171,"ãģ«":7172,"(E":7173,"_force":7174,"utf":7175,"Ġapplications":7176,"Ġarrange":7177,"(ex":7178,"Ġtangent":7179,"ford":7180,"percentage":7181,".dot":7182,"Ġwarm":7183,".im":7184,"ĠÐ¿ÑĢ":7185,"_features":7186,")=":7187,"Ġcoding":7188,"omor":7189,"rawn":7190,"ĠChina":7191,"ĠChildren":7192,"Ġconfirm":7193,"Ġprefix":7194,"eed":7195,"Ġfunctional":7196,"Ġmount":7197,"Ã§Ã£o":7198,"Ġestimated":7199,"Ġsetup":7200,".strip":7201,"amily":7202,"_G":7203,"Ġcivil":7204,"Ġresponsible":7205,"ĠImage":7206,"ĠRate":7207,"_eq":7208,"Ġleaves":7209,"Ġolder":7210,"inity":7211,"%)Ċ":7212,"Of":7213,"ç¨ĭ":7214,"emplate":7215,"\\%$":7216,"Ġadults":7217,"ordinate":7218,"uous":7219,"Ġrespond":7220,"æīĢ":7221,"triangle":7222,"dir":7223,"èĢ":7224,"ĠCouncil":7225,"Ġplatform":7226,"Ġdifferential":7227,"itter":7228,"These":7229,"ä¸Ĭ":7230,"åİ":7231,"idend":7232,"ĠEuler":7233,"udent":7234,"Ġfelt":7235,"ĠIndex":7236,"Ġ________":7237,"Ġresist":7238,"OUR":7239,"umin":7240,"Ġcovered":7241,"Ġcolors":7242,"-zero":7243,"Ġprinciples":7244,"Ġsigns":7245,"_dist":7246,"ca":7247,"Ġfails":7248,"-----------":7249,"itions":7250,"arginal":7251,"Ġsymptoms":7252,"_end":7253,"istent":7254,",j":7255,"uracy":7256,"thag":7257,"ç¬¬":7258,"_base":7259,"ĠSan":7260,"Ġcomprehens":7261,"TER":7262,"Ġund":7263,"Ġprotection":7264,"Ġsaved":7265,"Ġstrict":7266,"struction":7267,"Ġearlier":7268,"Ġstorage":7269,"Ġhypothesis":7270,"lob":7271,"seconds":7272,"ĠStudents":7273,"Ġtables":7274,"decimal":7275,"Ġequipment":7276,".str":7277,"That":7278,"Ġhidden":7279,"Ġqueue":7280,"case":7281,"Ð»Ñı":7282,"åŃĺ":7283,"host":7284,"Ġalthough":7285,"Ġliqu":7286,"Ġoverl":7287,"äºĨ":7288,"ĠOf":7289,"Ġoun":7290,"Ġbon":7291,"Ġoccurred":7292,"åı¯ä»¥":7293,"Ġbackground":7294,"state":7295,"_position":7296,"Ġexternal":7297,"ĠCalifornia":7298,"ç®Ĺ":7299,"Ġsynt":7300,"åŃĹç¬¦":7301,".val":7302,"Ġded":7303,"Ġplans":7304,"\"):Ċ":7305,"ellig":7306,"oday":7307,"Ġspent":7308,".norm":7309,"Ġtu":7310,"Ġobservations":7311,"èĥ½":7312,"However":7313,"ç´ł":7314,"Ġoperating":7315,"ĠEnvironment":7316,"ĠFunction":7317,"==========":7318,"ĠWhe":7319,"Ġmoved":7320,"ĠSimplify":7321,"FA":7322,"âĢĻll":7323,"ancing":7324,"Ġcircular":7325,"Output":7326,"_sp":7327,"color":7328,"KE":7329,"Ġintegr":7330,"\\int":7331,"standing":7332,"\\sum":7333,"Ġdemonstrate":7334,"Ġinvent":7335,"Ġstar":7336,"Ġsector":7337,"Ġbag":7338,"hline":7339,"Ġmob":7340,"Ġseek":7341,"Ġgarden":7342,"inn":7343,"ĠMary":7344,"Ġrecurrence":7345,"Ġgreatest":7346,"Ġmedic":7347,"Ġdivide":7348,"Ġcorner":7349,"urban":7350,"ĠAustral":7351,"Determine":7352,"_target":7353,"etween":7354,".models":7355,"Ġdistances":7356,"DP":7357,"Ġing":7358,"porting":7359,"ĠAre":7360,"Ĥ¬":7361,"Ġyouth":7362,"arian":7363,"ologies":7364,"_V":7365,"\\lambda":7366,"Ġproof":7367,"_var":7368,"numerator":7369,"ĠEns":7370,"ĠBuild":7371,"Ġtrust":7372,"Ġlimits":7373,"-C":7374,"Ġfib":7375,"Ġsugar":7376,"Ġruns":7377,"Ġpartners":7378,"osing":7379,"Ġweather":7380,"-of":7381,"Ġmotor":7382,"Ġregist":7383,"ĠMake":7384,"oses":7385,"Ġgravitational":7386,"Ġboys":7387,"à¤¿à¤":7388,"aven":7389,"Ġresistor":7390,"hips":7391,"-L":7392,"uity":7393,"match":7394,"Ð³ÑĢÐ°Ð¼Ð¼":7395,"ĠAssume":7396,"umerical":7397,"Ġcreates":7398,"property":7399,"ercial":7400,"{w":7401,".db":7402,"Ġcollege":7403,"Index":7404,"atial":7405,"Ġpolicies":7406,"Ġminor":7407,"Ġcalculations":7408,"Ġfailure":7409,"mi":7410,"Ġvirt":7411,"\\alpha":7412,"ctan":7413,"åĬł":7414,"Config":7415,"icity":7416,"Ġquotient":7417,"parent":7418,"ĠRuss":7419,"~~~~":7420,"Div":7421,"Ġrender":7422,"Ġupdated":7423,"real":7424,"ĠEnergy":7425,"iscriminant":7426,"rot":7427,"stances":7428,"ê¸°":7429,"Ġtopic":7430,"ourses":7431,".ax":7432,"}$)":7433,"Ġdetermin":7434,"caled":7435,"Ġexperiment":7436,"æľ¬":7437,"hu":7438,"ĠCommunity":7439,"ifferent":7440,"ĠPaul":7441,"&=":7442,"MP":7443,"Ġderivatives":7444,"Ġpages":7445,"-order":7446,"mand":7447,"ĠGreen":7448,"Ġrepresented":7449,"ĠCode":7450,"Ġtransl":7451,"Ġcast":7452,"Ġserve":7453,"neg":7454,"Ġexpressions":7455,"Ġcontinued":7456,"ĠFY":7457,"Ð»Ð¸":7458,"Ġcouple":7459,"Ġult":7460,"ĠDjango":7461,"Ġmessages":7462,"ĠCD":7463,".index":7464,"Ġexchange":7465,"onal":7466,"Ġconflict":7467,"åıĤæķ°":7468,"ĠÐ³":7469,"Ġchurch":7470,"Ġagricult":7471,"ĠStart":7472,"{dy":7473,"æĸ¹æ³ķ":7474,"Ð°Ñģ":7475,"Ġpark":7476,"Ġrestrict":7477,"Ġenable":7478,"ĠEuropean":7479,"rum":7480,"oration":7481,"Ġsecret":7482,"Ġcommercial":7483,"_al":7484,".close":7485,"cluded":7486,"ĠPlease":7487,"Ob":7488,"pring":7489,"\"),":7490,"Ġsand":7491,"ĠFund":7492,"vin":7493,"Ġpygame":7494,"Ġflag":7495,"Ġinterview":7496,"initely":7497,"Īëĭ¤":7498,"urface":7499,"estamp":7500,"_right":7501,"åŀ":7502,"Ġgallons":7503,"_percentage":7504,"ĠSun":7505,"Id":7506,"_color":7507,"band":7508,"Ġdanger":7509,"Ġarrays":7510,"Ġsuccessfully":7511,"Sup":7512,"certaint":7513,"ĠPrice":7514,"Ġaccounts":7515,"Ġhappens":7516,"'),Ċ":7517,"ĠResult":7518,"ĠAnt":7519,"ights":7520,"}/{":7521,"âĢĻm":7522,"pet":7523,"Ġrounding":7524,"Ġpractical":7525,"BA":7526,"MM":7527,")^{-":7528,"assword":7529,"Ġexecution":7530,"ìľ":7531,"ky":7532,"Ġturns":7533,"Ġchannel":7534,"Ġlooks":7535,"Ġscenario":7536,"gu":7537,"En":7538,"Ġunivers":7539,"Ġcategories":7540,"Ġpredictions":7541,"ĠIdent":7542,"la":7543,"Ġequality":7544,"Ġnotes":7545,"ä½į":7546,"ĠCollege":7547,"words":7548,"illed":7549,"wood":7550,"Ġtrip":7551,"isation":7552,"Ġtechniques":7553,"Ãº":7554,"ĠBi":7555,"Ġproportional":7556,"},Ċ":7557,"Ġintensity":7558,".subs":7559,"stract":7560,"ĠUN":7561,"Ġmatrices":7562,"Ġlayers":7563,"Ġnation":7564,".un":7565,".arg":7566,"amil":7567,"-intercept":7568,"ãĥ¼":7569,"Ġfresh":7570,"PV":7571,"Ġresolution":7572,"Ġviews":7573,"Ġcele":7574,".as":7575,"Ġadjacent":7576,"Ġsignificance":7577,"Ġassuming":7578,"poch":7579,"ĠMor":7580,"Ġcomments":7581,"Initial":7582,"_energy":7583,"Ġfaces":7584,"ĠVis":7585,"_inv":7586,"Ġreports":7587,"-de":7588,"rees":7589,"Ġbias":7590,"oup":7591,"ĠWeb":7592,"Ġeconomy":7593,"Ġshap":7594,"\")ĊĊĊ":7595,"Ġparse":7596,")$$Ċ":7597,"}\")ĊĊĊ":7598,"ÒĽ":7599,"Ġ##":7600,"æ¨":7601,"Ġconj":7602,"Ġ$\\{":7603,"_labels":7604,"emperature":7605,"Ġfaster":7606,"reek":7607,"CF":7608,"Ġple":7609,"ĠUnder":7610,"Ġfluid":7611,"\"W":7612,"ospital":7613,"Us":7614,"estic":7615,"Ġ===":7616,"iders":7617,".G":7618,"Ġtemper":7619,"Ġrevers":7620,"âĶĢ":7621,"thagorean":7622,"æĸĩä»¶":7623,"Ġlibrary":7624,"Ð¾Ð½":7625,"ĠFrench":7626,"ãģ¨":7627,"_array":7628,"Ġexperim":7629,"cover":7630,"´ë":7631,"}.":7632,"ycl":7633,"ĠNormal":7634,"ilateral":7635,"Verify":7636,"Ġcreation":7637,"phone":7638,"Ġformer":7639,"ĠBay":7640,"Ġpet":7641,"Ġclassification":7642,"Ġmajority":7643,"Ġalgebraic":7644,"elsius":7645,"reak":7646,"ya":7647,"ret":7648,"çŃ":7649,"Ġ$ĊĊ":7650,"Ġcov":7651,"Ġiteration":7652,"çł":7653,"$$=":7654,"lines":7655,"é¢":7656,"Ġdescribe":7657,"Ġturned":7658,"æłĩ":7659,"Co":7660,"_he":7661,"ride":7662,"---ĊĊ":7663,"pecific":7664,"Ġmorning":7665,"Ġell":7666,"ĠLand":7667,"Ġopin":7668,"Ġdied":7669,"ĠSort":7670,"eler":7671,"Ġlearned":7672,"ney":7673,"Ġfine":7674,"Ġsklearn":7675,"ursor":7676,"Ġ*=":7677,"cohol":7678,"Ġweighted":7679,"atistic":7680,"Ġnearly":7681,"@example":7682,"phis":7683,"Ġpatient":7684,"arity":7685,"rim":7686,"Please":7687,"iance":7688,"å»":7689,"ĠAverage":7690,"Ġprediction":7691,"Ġmentioned":7692,"Ġobtained":7693,"creen":7694,"Ġraised":7695,"Invalid":7696,"ĠTable":7697,"Ġlooked":7698,"åŀĭ":7699,"_group":7700,"Ġlb":7701,"Ġamplitude":7702,"^{(":7703,"Ġdelay":7704,"urrency":7705,"\\}$":7706,"ĠVolume":7707,"[k":7708,"åĿ":7709,"(__":7710,"ymmet":7711,"å°ı":7712,"Ġbrother":7713,"sl":7714,"ESS":7715,"_rec":7716,"Ġclearly":7717,"-P":7718,"enance":7719,"vice":7720,"Ġproperly":7721,"Ġ},Ċ":7722,"pons":7723,"Ġfruit":7724,")),":7725,"ĠSubstitute":7726,"orch":7727,"ita":7728,"Ġmiss":7729,"ĠWhite":7730,"åĮĸ":7731,"ÐºÐ¸Ð»":7732,"ATH":7733,"ographic":7734,"ulas":7735,"Ġcompl":7736,"acci":7737,"Date":7738,"Ġcans":7739,"ondon":7740,"Ġsentence":7741,"Ġë°":7742,"_vert":7743,"onom":7744,"ayment":7745,"_dt":7746,"Ġregions":7747,"åıĺ":7748,"stream":7749,"ki":7750,"'))Ċ":7751,"ĠAM":7752,"Both":7753,"utral":7754,"Ġeigenvalues":7755,"Ġfractional":7756,"ĠGovernment":7757,"Ġrace":7758,"ĠAut":7759,"Ġexcess":7760,"_kg":7761,"TTP":7762,".integ":7763,"Ġmaybe":7764,"raz":7765,"éĹ´":7766,"Ġweak":7767,"speed":7768,"è¾ĵåħ¥":7769,"Ġsequences":7770,"Ġglass":7771,"Valid":7772,"ishes":7773,"Ġarm":7774,"Example":7775,"ĠPeople":7776,"Add":7777,"ĠSal":7778,"itudes":7779,"ĠElect":7780,"Ġplaying":7781,"%)":7782,"Ġstick":7783,"Ġrecently":7784,"_table":7785,"inese":7786,"erver":7787,"ìĬ¤":7788,"ĠExamples":7789,"Ġdivers":7790,"(in":7791,"OH":7792,"Ġnn":7793,"Ġfoods":7794,"Ġorient":7795,"Ġdom":7796,"Any":7797,"Ġfloating":7798,"eds":7799,"æ¬":7800,"Ġer":7801,"ĠEvery":7802,"_len":7803,"Ġknew":7804,"Ġestablish":7805,"isplay":7806,"ç»ĵ":7807,"/A":7808,"Ġconstants":7809,"Ġring":7810,"NotFound":7811,"Ġtriangles":7812,"`Ċ":7813,"ota":7814,"Ġstories":7815,"Ġradio":7816,"Ġcollabor":7817,"posal":7818,"Ġcurriculum":7819,"attern":7820,"Ġbott":7821,"iny":7822,"oking":7823,"Ġfacilities":7824,"eles":7825,"Ġcomplement":7826,"reshape":7827,"high":7828,"Ġ[]":7829,"Ġmph":7830,"Ġhistorical":7831,").\"\"\"Ċ":7832,"_ent":7833,"ĠSocial":7834,"Ġkept":7835,"{array":7836,"username":7837,"ĠOper":7838,"CR":7839,"gener":7840,"END":7841,"CharField":7842,"ffective":7843,"ĠDistrict":7844,"remove":7845,"deed":7846,"],[":7847,"ĠRs":7848,"Ġeight":7849,"ĠEvaluate":7850,"alled":7851,"ĠInst":7852,"Ġvote":7853,"Ġdividing":7854,"Ġabsor":7855,"Table":7856,"bert":7857,"anned":7858,"çº":7859,"Ġbuff":7860,"Ġguide":7861,"å§":7862,"onacci":7863,"ĠAfrica":7864,"{if":7865,"=f":7866,"ÑģÑı":7867,"Ġelev":7868,"_hat":7869,"iable":7870,"argets":7871,"ĠEngine":7872,"ĠFood":7873,"ĠPort":7874,"Ġcollections":7875,"Ġsitu":7876,"ĠBecause":7877,"ĠReport":7878,"Ġdespite":7879,"Ġexplan":7880,"Ġsurpr":7881,"{I":7882,"Ð¸Ð¼":7883,"ĠAir":7884,"ĠGood":7885,"Ġpolice":7886,"ĠCase":7887,"Ġfemale":7888,"Ġshad":7889,"Âłthe":7890,"aling":7891,"Ġriver":7892,"Ġshoot":7893,"isms":7894,"Ġdownload":7895,"Ł¥":7896,"ĠJSON":7897,".count":7898,"Ġresidual":7899,"ĠâĤ¹":7900,"Ġperiods":7901,"Ġconvergence":7902,"_arg":7903,"(text":7904,"zeta":7905,"Response":7906,"Ġsatisfying":7907,".time":7908,"irror":7909,"Ġminimal":7910,"(G":7911,"ka":7912,"Ed":7913,"Ġchallenges":7914,")(-":7915,"Ġperhaps":7916,"Ġemployees":7917,",s":7918,"Ġconsists":7919,"denominator":7920,"itivity":7921,"Ġfunding":7922,"justed":7923,"project":7924,"Ġodds":7925,"ĠCong":7926,"ĠSec":7927,"Ġentries":7928,"ĠMultiply":7929,"Ġadopt":7930,"ett":7931,"Ġsmooth":7932,".CharField":7933,"_detail":7934,"Ġrespectively":7935,"elines":7936,"_days":7937,"Starting":7938,"title":7939,"Ġfeeling":7940,"Ġminimize":7941,"last":7942,"æµ":7943,"Ġisol":7944,"that":7945,"positive":7946,"ingle":7947,"ads":7948,"Ġpresented":7949,"ometers":7950,"Ġcities":7951,"eting":7952,".integrate":7953,"åŃĲ":7954,"Ġactivation":7955,"Ġiterations":7956,"Ġstatistics":7957,"/min":7958,"Ġclassroom":7959,"esian":7960,"ĠAL":7961,"Ġtolerance":7962,"Ġreplace":7963,"Ġ\".":7964,"othing":7965,"odies":7966,"obs":7967,"Ġcustomers":7968,"Ġiniti":7969,"ÐŁ":7970,"rior":7971,"(Y":7972,"Ġvoice":7973,"Â°Ċ":7974,"Ġperformed":7975,"ba":7976,"IA":7977,"Ġinterface":7978,"ART":7979,"Ġinstruction":7980,"Ġ'__":7981,"Ġattributes":7982,"Ġsatisfied":7983,"Ġtalking":7984,"cean":7985,"Ġvic":7986,"_reg":7987,"Ġtail":7988,"alls":7989,"ĠProblem":7990,".v":7991,"OG":7992,"Ġstatistic":7993,"Ġbounds":7994,"Ġzeros":7995,"check":7996,"gin":7997,"ĠOpen":7998,".cl":7999,":\\":8000,"Ġmale":8001,"##Ċ":8002,"Ġreligious":8003,"Ġsupports":8004,"ķÎ":8005,"Ġparticle":8006,"Ġcrit":8007,"FT":8008,"Ġpeace":8009,"cious":8010,"âī":8011,"Ġbond":8012,"ture":8013,"ĠWell":8014,"atever":8015,"Ġequivalence":8016,"-dimensional":8017,"subset":8018,"rote":8019,"Ġlinestyle":8020,".k":8021,"Ġanti":8022,"Ġmilk":8023,"Ġblog":8024,"NotFoundError":8025,"ĠTH":8026,"Ġmultiplying":8027,"Ġquarter":8028,"Ġoffers":8029,"Ġchanging":8030,"amm":8031,"ael":8032,"_label":8033,".values":8034,"elif":8035,"\\rangle":8036,".save":8037,"Ġnor":8038,",čĊ":8039,"ĠEv":8040,"ILE":8041,"ĠPhil":8042,"ìĭ":8043,"ĠInstitute":8044,"post":8045,"dim":8046,"_head":8047,"ĠCalcul":8048,"ĠConstants":8049,"!}":8050,"fol":8051,"adict":8052,"{Area":8053,"Ġhappened":8054,"ercentage":8055,"Ġatmosp":8056,"{z":8057,"Ġrequirement":8058,"_no":8059,"igned":8060,"Ġcourt":8061,"Ġ|\\":8062,"Ġexhib":8063,"prime":8064,"cher":8065,"Ġconsistency":8066,"Ġindicating":8067,"âĤģ":8068,"?\"":8069,"Ġonto":8070,"ãģĹ":8071,"ogram":8072,"Ġdecided":8073,"Ġharm":8074,"aled":8075,"Ġmanage":8076,"Ġdistributed":8077,"Ġln":8078,"*t":8079,"\\).":8080,"Min":8081,"nel":8082,"letter":8083,"Ġdiagn":8084,"Ġreached":8085,"lig":8086,"Ġ'-":8087,"atted":8088,"ĠAlthough":8089,"Ġordered":8090,"percent":8091,"}}(":8092,"ĉprint":8093,"itness":8094,"Ġflat":8095,"-form":8096,"house":8097,"Ġmaps":8098,"ĠNon":8099,"Ġforeign":8100,"ãĢĤĊĊ":8101,"Ġdevices":8102,"æİ¥":8103,"step":8104,"asion":8105,"Ġbutton":8106,"Ġfaith":8107,"icense":8108,"ĠĠĠĠčĊ":8109,"Ġpandas":8110,"parse":8111,"Ġna":8112,"...\")Ċ":8113,"rian":8114,"ĠÎ¸":8115,"Ġdiscussion":8116,":-":8117,"())ĊĊ":8118,"Ġtons":8119,"Rear":8120,"_on":8121,"ava":8122,"Ġcharacteristic":8123,"_an":8124,"tons":8125,"iant":8126,"ãģ§":8127,"Ġbuck":8128,"ĠMinimum":8129,"ìĦľ":8130,"care":8131,"irections":8132,"Ġpresident":8133,"_ft":8134,"Ġ\")Ċ":8135,"ipedia":8136,"å»º":8137,"Ġvisited":8138,"Ġparser":8139,"Ġplanet":8140,"Ġwasn":8141,"Ġends":8142,"è±":8143,"erves":8144,"ĠDel":8145,"Ġdebt":8146,"Ġrare":8147,"Ġstructures":8148,"Ġcustomer":8149,"hand":8150,"They":8151,"-level":8152,"iÃ³n":8153,"Ġstrugg":8154,"ĠLat":8155,"Ġunknown":8156,"Ġintercept":8157,"Ġ]Ċ":8158,"unctions":8159,"porary":8160,"semb":8161,"Ġvalidate":8162,".lower":8163,"(new":8164,"Ġwants":8165,"ÐµÐ½Ð¸Ðµ":8166,"ĠUpdate":8167,"Ġreality":8168,"Ġcars":8169,"Ġrectangular":8170,"çłģ":8171,"_velocity":8172,"ĠAssociation":8173,"Ġfix":8174,"Ġinvestig":8175,"Ġmol":8176,"ĠBal":8177,"iveness":8178,"pers":8179,".arange":8180,"bug":8181,"Ġmeasurement":8182,"æĢ§":8183,"nn":8184,"Ġoz":8185,"/C":8186,"Ġcontrad":8187,"days":8188,")}\")Ċ":8189,"ĠCanada":8190,"éĽ":8191,"ĠFound":8192,"Ġinstructions":8193,"(key":8194,"_level":8195,"ĠDuring":8196,"_profit":8197,"-se":8198,"mt":8199,"Ġtrace":8200,"Ġboy":8201,"Ġpun":8202,"ffffffff":8203,"Ġ',":8204,"Ġrapid":8205,"Ð¾Ð»ÑĮ":8206,"Ġjobs":8207,"final":8208,"\"],":8209,"Ġinfinite":8210,"ĠUK":8211,"DA":8212,"Ġpresence":8213,"_coeff":8214,"Ġtemplate":8215,"åĲĪ":8216,"Ġthr":8217,"Ġxy":8218,"ĠPythagorean":8219,"Ġaccurate":8220,"Ġfilled":8221,"ĠIP":8222,"Ġhousing":8223,"ĠSafety":8224,"Ġê²":8225,"orpor":8226,"Ġeasier":8227,"Ġrelease":8228,"olic":8229,"Def":8230,"pg":8231,"ĠPal":8232,"Ġinterpol":8233,"è®¡":8234,"Ġgender":8235,"Ġounces":8236,"Dr":8237,"_W":8238,"life":8239,"->":8240,"Ġtan":8241,"Ġdim":8242,"Ġâľĵ":8243,"Ä±":8244,"ructure":8245,"orrow":8246,"win":8247,"Ġregarding":8248,".abs":8249,"Net":8250,"oard":8251,"ĠMich":8252,"Ġobvious":8253,"Ġschedu":8254,"Ġdecisions":8255,"Ġbelief":8256,"QU":8257,"ĠAfrican":8258,"Text":8259,"](":8260,"ĠTO":8261,"ãģĦ":8262,"Ġnormalized":8263,"ldots":8264,"atches":8265,"Ġbright":8266,"Ġreleased":8267,"ìĸ":8268,"ura":8269,"iki":8270,"std":8271,"=t":8272,"^{-\\":8273,"Ġstuff":8274,"holder":8275,"_iter":8276,"-negative":8277,"Requ":8278,"Ġthickness":8279,"Where":8280,"Ġproposed":8281,".âĢĿĊ":8282,"Ġsecondary":8283,"Ġton":8284,"unday":8285,"Ġexception":8286,".copy":8287,"Ġfederal":8288,"ĠDisplay":8289,"Ġped":8290,"ĠSy":8291,"çĲ":8292,"enominator":8293,"PP":8294,"_approx":8295,"zen":8296,"uns":8297,"Ġinterested":8298,"Ġvehicle":8299,"Ġdesired":8300,"ŁÎ":8301,"edges":8302,"Ġimpossible":8303,"Ġliquid":8304,"Ġadvantage":8305,"ĠBel":8306,"_direct":8307,"Ġeating":8308,"berg":8309,"Ġinterior":8310,"_factors":8311,"Ġ::":8312,"Ġapplying":8313,"Ġextremely":8314,"certainty":8315,"-H":8316,"Ġpoly":8317,"////":8318,"Ġpassing":8319,"Ġcart":8320,"employ":8321,"Ġintended":8322,"Ġyards":8323,"ĠTheir":8324,"ĠHaw":8325,"Ġunless":8326,"Ġemphas":8327,"Ġshowed":8328,"this":8329,"Read":8330,"ague":8331,"Ġpixels":8332,"ĠĠĠĠĠĠĠĠčĊ":8333,"abc":8334,"Ġconverted":8335,"cost":8336,"ĠStudent":8337,"Ġobtain":8338,"Path":8339,"iced":8340,"igration":8341,"ago":8342,"ä»£":8343,"ĠLeft":8344,"Ġdrawn":8345,"Ġmathematically":8346,"antic":8347,"Ġ=>":8348,"Ġhighlight":8349,"Next":8350,"Ġ:Ċ":8351,"db":8352,")+":8353,"Ġprepar":8354,"iscount":8355,".objects":8356,"Ġinvolve":8357,"otion":8358,"íķľ":8359,"orders":8360,"è¿ĩ":8361,"Ġsymmetric":8362,"Ġdistrict":8363,"omas":8364,"Ġhypotenuse":8365,"rase":8366,"utor":8367,"Ġdecreases":8368,"Gr":8369,"Ġrecursive":8370,"EX":8371,"èĬ":8372,"vals":8373,"Ġtherm":8374,"ĠEuclidean":8375,"Ġpurchase":8376,"Ġ-*-":8377,"Ġcandidate":8378,"åħĥç´ł":8379,"lop":8380,"_shape":8381,"=s":8382,"stack":8383,"Ġguarant":8384,"cill":8385,"Ġvan":8386,"Ġapproximate":8387,"Ġhappy":8388,"ĠGreat":8389,"ĠCentral":8390,"\\t":8391,"ints":8392,"Ġreduces":8393,"Ġleaving":8394,"try":8395,"ĠArch":8396,"]))Ċ":8397,"yset":8398,"ÑĢÑĥ":8399,"_indices":8400,".sort":8401,"Ġdecay":8402,")']":8403,"ĠJames":8404,"Ġextension":8405,"(test":8406,"ville":8407,"_seconds":8408,"Ġaffected":8409,"ĠMa":8410,"è±¡":8411,"ĠCH":8412,"ä¸²":8413,"Ġdriver":8414,"Ġboxes":8415,"/t":8416,"åĻ":8417,"Ġ[],":8418,"Ġcomposition":8419,"AA":8420,"Ġmo":8421,".text":8422,"Ġtouch":8423,"bsp":8424,"asets":8425,"Ġembed":8426,"Sim":8427,"car":8428,"ĠHistory":8429,"Ġsums":8430,"æĸ°":8431,"han":8432,"ativity":8433,"CS":8434,"Ġexit":8435,"Ġplus":8436,"outube":8437,"ĠConf":8438,"Ġbattery":8439,"ĠRich":8440,"OU":8441,"Ġdrawing":8442,".head":8443,"jective":8444,"Ġadjusted":8445,"Your":8446,"Ġexplore":8447,".size":8448,"icon":8449,"ĠMiss":8450,"-con":8451,"Ġemb":8452,"/b":8453,"Fe":8454,"eal":8455,"Ġmodified":8456,"inding":8457,"Ġoffic":8458,"Ġorganizations":8459,"(path":8460,"efficients":8461,"(current":8462,"Ġtorque":8463,"riage":8464,".all":8465,"Rounded":8466,"Ġinvolves":8467,"Ġprofile":8468,"Ġattend":8469,"Ġtried":8470,",t":8471,"Ġserial":8472,"åĪĹè¡¨":8473,".čĊčĊ":8474,"Ġoxygen":8475,"Ġwrote":8476,"icated":8477,"ĠFin":8478,"============":8479,"ĠHttp":8480,"Equal":8481,"ulner":8482,"unte":8483,"Ġplayed":8484,"Ġthousands":8485,"Ġshop":8486,"âĶĢâĶĢ":8487,"/cm":8488,"Ġpull":8489,"metadict":8490,"ĠSmith":8491,"Ġimplemented":8492,"Ġtraffic":8493,"reed":8494,"Ġpure":8495,"_di":8496,"Ġmort":8497,"å°Ĩ":8498,"Use":8499,"Ġnom":8500,"prove":8501,"ĠString":8502,"ÐµÐ´":8503,"ĠCON":8504,"orthern":8505,"antity":8506,",x":8507,"}^\\":8508,"Ġaxes":8509,"ĠCommission":8510,"straint":8511,"iverse":8512,"æĭ":8513,"Ġfrequencies":8514,"Ġseven":8515,"Ġchosen":8516,"_true":8517,"ĠChild":8518,"Ġstatist":8519,"ĠDataFrame":8520,"(word":8521,".;":8522,".solve":8523,"ums":8524,"Ġsampling":8525,"Ġrecon":8526,"ĠBen":8527,"Ġexceeds":8528,"QR":8529,"wide":8530,"_op":8531,"ls":8532,"Ġwife":8533,"oints":8534,"Ġchallenge":8535,"Ġprotein":8536,"Ġframework":8537,"Ġcitizens":8538,"Ġproceed":8539,"ÐµÑģ":8540,"Ġwinter":8541,"\\cdot":8542,"Ġenemy":8543,"Ġpowerful":8544,"afe":8545,"ĠDavid":8546,"Ġcumulative":8547,"[List":8548,"Ġreducing":8549,"Ġintermediate":8550,"bt":8551,"_terms":8552,"--',":8553,"Ġmistake":8554,"erse":8555,"Ġmyself":8556,"Ġindicate":8557,"Ġcircumference":8558,"endar":8559,"_tr":8560,"Ġpowers":8561,"Ġasympt":8562,"Ġteach":8563,"Ġleads":8564,"Ġexponents":8565,"outhern":8566,"NN":8567,"Ġurban":8568,"itance":8569,"nection":8570,"_dx":8571,"Ġstatements":8572,"Ġconcepts":8573,"ULT":8574,"Ġschem":8575,"Part":8576,"oma":8577,"Ġtypical":8578,"Link":8579,"Ġclick":8580,"option":8581,",n":8582,"ĠServices":8583,"Ġsess":8584,"Ġhair":8585,"æ¨¡":8586,"Ġcomfort":8587,"ignal":8588,"_avg":8589,"ĠVol":8590,"usiness":8591,"åĻ¨":8592,"Ġpolygon":8593,"posit":8594,"ìŀĲ":8595,"Ġlose":8596,"Ġwinning":8597,"(cl":8598,"|^":8599,"usr":8600,".exit":8601,"éĶ":8602,"ainder":8603,"Ġaren":8604,"cribe":8605,"fill":8606,"Ġformal":8607,"Ġcorrection":8608,"clusive":8609,"å¿":8610,"æĬ":8611,"aughter":8612,"show":8613,"Ġdut":8614,"Ġcomputing":8615,"_red":8616,"ĠOR":8617,"ĠDC":8618,"Do":8619,"Ġgro":8620,"Ġvary":8621,"_over":8622,"_probability":8623,"amps":8624,"verty":8625,"Ġoutputs":8626,"%.":8627,"'],Ċ":8628,"While":8629,"Ġmission":8630,"ĠPat":8631,"ĠEconom":8632,"elcome":8633,"Ġdestroy":8634,"DS":8635,"Man":8636,"$\\":8637,"å®ŀ":8638,"ĠLondon":8639,"ĠNum":8640,"(de":8641,"Ġtour":8642,"cope":8643,"arp":8644,"uts":8645,"Ġresponsibility":8646,"Ġsch":8647,"ä¼ļ":8648,"ĠEnd":8649,"Ġapparent":8650,"Ġiron":8651,"sequence":8652,"ĠWhich":8653,"Ġlock":8654,"ĠJewish":8655,"\"))Ċ":8656,"Ġsolving":8657,"Get":8658,"Ġsell":8659,"write":8660,"ĠChinese":8661,"indows":8662,"ĠMax":8663,"_words":8664,"Ġnotice":8665,"long":8666,"ĠLong":8667,"Ġpor":8668,"Ġusername":8669,"ĠInformation":8670,"Ġmaster":8671,"Ġhuge":8672,"imation":8673,"Ġspend":8674,"ĠAccording":8675,"ĠCommit":8676,"æ¬¡":8677,"ials":8678,"{j":8679,"Ġconclusion":8680,"Ġacademic":8681,"etal":8682,"Ġlinked":8683,"Ġlas":8684,"[(":8685,"ĠRuntime":8686,"GR":8687,"View":8688,"Ġrich":8689,".run":8690,"OK":8691,"Ġoutcome":8692,"Ġpromote":8693,"):\",":8694,"Ġgrand":8695,"Ġobjective":8696,"eless":8697,"Ġplate":8698,"éĿ¢":8699,"Ġslightly":8700,"igm":8701,"Ġcarried":8702,"Ġavg":8703,"According":8704,"\\):":8705,"Ġapplies":8706,"---------------":8707,"Ġinnov":8708,"ĠNode":8709,"Model":8710,"Ġformulas":8711,"{\"":8712,"ĠGrad":8713,"ĠProf":8714,"alty":8715,"(img":8716,"ÎĳÎ":8717,"ĠPosition":8718,"{Hz":8719,"Ġcamera":8720,"Ġpolar":8721,"Ġ$(-":8722,"ifts":8723,"Ġinfo":8724,"Ġlowest":8725,"Ġswitch":8726,"you":8727,"è·":8728,"Ġpadding":8729,"Ġprem":8730,"Ġobservation":8731,"Ġanalyze":8732,"Ġmarried":8733,"#!":8734,"ini":8735,"Ġrecommended":8736,"[T":8737,"ĠSen":8738,"_star":8739,"-R":8740,"ying":8741,"Ġouter":8742,"_cap":8743,"Ġowners":8744,"Ġturtle":8745,"ĠPhys":8746,"olutions":8747,"ordinates":8748,"peak":8749,"oves":8750,"/x":8751,"plane":8752,"ĠGeorge":8753,"Bl":8754,"Ġextended":8755,"Ġlinks":8756,"Î±":8757,"_norm":8758,"except":8759,"ĠOffice":8760,"å§ĭ":8761,"ĠPercentage":8762,",z":8763,"ĠMem":8764,"Ġattract":8765,"Ġpackage":8766,"va":8767,"'''ĊĊ":8768,"\"Failed":8769,"æı":8770,"Ġcycl":8771,"ĠMulti":8772,"ĠChange":8773,"itz":8774,"ĠProduct":8775,"Ġdriving":8776,"Ġconcerns":8777,"ailing":8778,"åĲĮ":8779,"ban":8780,"/bin":8781,"Ġparams":8782,"Ġadjustment":8783,"info":8784,"uries":8785,"ourney":8786,"ĠAR":8787,"ĠRepublic":8788,"(lambda":8789,"Ġviolence":8790,"Ġbranch":8791,"Some":8792,"ĠCare":8793,"Ġfourth":8794,"Ġappoint":8795,"Ġprepared":8796,"Ġcriteria":8797,"Ġcrop":8798,"Ġrhs":8799,"Ġhumans":8800,"Ġlie":8801,"ĠHT":8802,"how":8803,"Ġchart":8804,".load":8805,"ogene":8806,"Ġbirds":8807,"ĠLeg":8808,"ĠPerson":8809,"Ġshell":8810,"_given":8811,"Ġheavy":8812,"Ġkeeping":8813,"*:":8814,"ĠTop":8815,"isons":8816,"Ġdoctor":8817,"Ġobser":8818,"dependence":8819,"CTION":8820,"annual":8821,"anguages":8822,"ĠAnnual":8823,"Ġopt":8824,"pload":8825,"oplus":8826,"imension":8827,"Ġduplic":8828,"-co":8829,"Can":8830,"/g":8831,"[t":8832,"ĠUses":8833,"ras":8834,"repr":8835,"ĠSociety":8836,"åĽ¾":8837,"Ġwww":8838,"ëĭĪëĭ¤":8839,"fract":8840,"ĠDictionary":8841,"Ġsubset":8842,"ĠTensor":8843,"ĠLord":8844,"çĲĨ":8845,"ĠABC":8846,"Ġpixel":8847,"Ġflood":8848,"Ġweap":8849,"å°±":8850,"Hand":8851,"Ġgap":8852,"ĠExact":8853,"weights":8854,"imated":8855,"Ġshot":8856,".last":8857,"Evaluate":8858,"draw":8859,"even":8860,"INE":8861,"Ġscaled":8862,"hetic":8863,"rastructure":8864,"Ġcampaign":8865,"loop":8866,"-x":8867,"Ġshares":8868,"query":8869,"Ġdepending":8870,"Ġsegments":8871,"_first":8872,"tail":8873,".csv":8874,"_stat":8875,"Ġsavings":8876,"Ġincorpor":8877,"Ġarchitect":8878,"atabase":8879,"Ġhop":8880,"Calcul":8881,"_one":8882,"Ġportion":8883,"Ġcircles":8884,"Ġconducted":8885,"Ġbaby":8886,"Ġcoast":8887,"Ġresearchers":8888,"td":8889,"Ġwish":8890,"{rad":8891,"uced":8892,"æĿ¥":8893,"Wait":8894,"riend":8895,"Ġsizes":8896,"Ġepoch":8897,"Ġmanner":8898,"ĠWilliam":8899,"ĠProt":8900,"Ġserved":8901,"Ġhouseholds":8902,"exas":8903,"EP":8904,"éģ":8905,"cell":8906,"Ġmedium":8907,"Ġprecise":8908,"ÐµÐº":8909,"à¥Ģ":8910,"ados":8911,"ĠIsra":8912,"_numbers":8913,"Ġresponses":8914,"WS":8915,"herical":8916,"ando":8917,"ĠReview":8918,"Ġcolon":8919,"ĠControl":8920,")\"\"\"Ċ":8921,"ĠEngland":8922,"ato":8923,"ibilities":8924,".O":8925,"(image":8926,"(node":8927,"Ġtreated":8928,"alytical":8929,"_decimal":8930,"aria":8931,"ç©":8932,"ria":8933,"_trans":8934,"Author":8935,"enu":8936,"ALL":8937,"Ġtal":8938,"_temp":8939,"Ġmetal":8940,"Ġking":8941,"]),":8942,"Go":8943,")$Ċ":8944,"Ġasking":8945,"Ġratios":8946,"Ġharmonic":8947,"ĠTV":8948,"riz":8949,"illing":8950,"Ġlatitude":8951,"ancis":8952,"ĠVert":8953,"Ġrelatively":8954,"Ġdecomposition":8955,"Ġsustainable":8956,"ĠGoogle":8957,"Ġchi":8958,"\"I":8959,"_load":8960,"æĦ":8961,"Ġvision":8962,"æĮĩ":8963,"aneous":8964,"Ġris":8965,"Ġcollected":8966,"ĠNewton":8967,"ĠLife":8968,"Ġlon":8969,"ocation":8970,"Ġretrie":8971,"-line":8972,"apers":8973,"-day":8974,".float":8975,"Ġloan":8976,"Ġgrant":8977,"ĠCorrect":8978,"Ref":8979,"ette":8980,"gment":8981,"èĬĤ":8982,"si":8983,"-digit":8984,"pare":8985,"ĠWil":8986,"Ġuna":8987,"_word":8988,"Py":8989,"VER":8990,"ithms":8991,"_minutes":8992,"ĠdB":8993,"cipl":8994,"Result":8995,"ĠMathemat":8996,"ĠIII":8997,"Ġeffectively":8998,"Ġscr":8999,"including":9000,"Rec":9001,"ston":9002,"itan":9003,"Ġec":9004,"Ġsimulation":9005,"ĠExt":9006,"è´":9007,"Ġmetrics":9008,"price":9009,"Ġconsult":9010,"mation":9011,"Ġcareer":9012,"phism":9013,"Option":9014,"ialog":9015,"Ġexposure":9016,"Ġyellow":9017,"redicted":9018,"Ġimproved":9019,"ĠStreet":9020,"ĠEnsure":9021,"Ġsevere":9022,"(start":9023,"Log":9024,"RI":9025,"Ġselling":9026,"]ĊĊĊ":9027,"aked":9028,"Ġfirm":9029,"unic":9030,"^+":9031,"Ġimprovement":9032,"\"],Ċ":9033,"TC":9034,"Ġlogical":9035,"ĠTw":9036,"_dev":9037,"cribed":9038,"child":9039,"Ġspot":9040,"bined":9041,"Ġappreci":9042,"ĠJournal":9043,"åı·":9044,"Ġlocations":9045,"}\"Ċ":9046,"Ġsemi":9047,"ĠRow":9048,"ĠSample":9049,"Ġdetect":9050,"Ġpupils":9051,"(alpha":9052,"dist":9053,"ourier":9054,"Ġalcohol":9055,"ĠLength":9056,"Ġintegrand":9057,"ÐµÑģÑĤ":9058,"green":9059,"ĠWord":9060,"circle":9061,"çĶŁ":9062,"åĨħ":9063,"bor":9064,"ĠDet":9065,"kappa":9066,"umps":9067,"ceived":9068,".update":9069,"atan":9070,"acts":9071,"ĠOnce":9072,"(filename":9073,"Ġderivation":9074,"Ġorb":9075,"ridge":9076,"_counts":9077,"Ġaspects":9078,"pa":9079,"Ġcontrast":9080,"actorial":9081,"Ġrh":9082,"Ġmidpoint":9083,"(range":9084,"\\x":9085,"Ġfeedback":9086,"åįķ":9087,"Ġinert":9088,"ĠText":9089,"Ġprogramming":9090,"Ġdil":9091,"ĠRober":9092,"Ġexplained":9093,"(min":9094,"quares":9095,"Ġaccepted":9096,"Ġencourage":9097,"(Q":9098,"onstr":9099,"ourse":9100,"-r":9101,"Ġreflection":9102,"Em":9103,"Ġsomew":9104,"Ġvac":9105,"ĠDesign":9106,"Ġawareness":9107,"Ġwhom":9108,"sii":9109,"Ġbehaviour":9110,"Num":9111,"Ġ###":9112,"ĠRo":9113,"ipt":9114,"Ġmarginal":9115,"abb":9116,"Ġlegs":9117,"[b":9118,"ĠAN":9119,"#-":9120,"irgin":9121,"func":9122,"Ġtank":9123,"ĠMac":9124,"ĠCommon":9125,"-sh":9126,"ups":9127,"ë¦¬":9128,"asticity":9129,"Ġlisted":9130,"_multi":9131,"Ġcollision":9132,"isher":9133,"Ġcatch":9134,"Ġutility":9135,"èĩ":9136,"Ġapples":9137,"Ġcontribute":9138,"ulary":9139,"ĠMal":9140,"heit":9141,"quality":9142,"Ġinteraction":9143,".keys":9144,"(mass":9145,"ĠUnit":9146,"two":9147,"Ġunion":9148,"Ġcandidates":9149,"Ġclin":9150,"Simplifying":9151,"Ġperspective":9152,"Ġtip":9153,"ĠTake":9154,"Ġgoods":9155,"Ġconsequ":9156,"ĠHome":9157,"bine":9158,"prec":9159,"Ġcelebr":9160,"Ġtaught":9161,"Ġreb":9162,"ĠOrgan":9163,"Ġlegis":9164,"Ġemissions":9165,"Ġsexual":9166,"_correct":9167,"Hello":9168,"Ab":9169,"âĨĴ":9170,"_frame":9171,"Ġsupplement":9172,"Ġyes":9173,"Ġmirror":9174,"ASE":9175,"_step":9176,"Ġbeautiful":9177,"Ġstatic":9178,"Ġpermutations":9179,"Ġhaz":9180,"aming":9181,"Ġarbit":9182,"Ġhomes":9183,"Figure":9184,"Ġwins":9185,"Ġhelped":9186,"IO":9187,"Ġà¤ķ":9188,"Ġphil":9189,"ëł¥":9190,"_vector":9191,"ĠDate":9192,"\\(":9193,"ĠAmericans":9194,"Ġ...Ċ":9195,"standard":9196,"Ġgenerator":9197,"_exp":9198,"Ġtrav":9199,"('\\":9200,"å½ĵ":9201,"Sp":9202,"Str":9203,"ĠSection":9204,"pto":9205,"ĠElement":9206,"Ġevolution":9207,"Ġrecorded":9208,"ĠRuntimeError":9209,"_att":9210,"Ġenhance":9211,"Ġsud":9212,"ĠLake":9213,"Group":9214,"epoch":9215,"Ġdefic":9216,"ĠCompany":9217,"ODO":9218,"ĠProvide":9219,"Ġnd":9220,"AGE":9221,"/f":9222,"(H":9223,"ĠInf":9224,"\"])Ċ":9225,".id":9226,"{q":9227,"Ġverified":9228,"Ġmultiplier":9229,"_title":9230,"Ġcert":9231,"arctan":9232,"Ġnone":9233,"Ġappend":9234,"Ġupd":9235,"models":9236,"ivate":9237,"_day":9238,"ĠDoes":9239,"Ġensuring":9240,"Ġphen":9241,"ocabulary":9242,"_mm":9243,"ĠClub":9244,"SA":9245,"direct":9246,"ĠLo":9247,"Ġclaims":9248,"Ġmonitoring":9249,"ë©":9250,"edian":9251,"ograms":9252,"eding":9253,"Ġnav":9254,"ãģŁ":9255,".stats":9256,"Ð¾Ñģ":9257,"Ġproduces":9258,"Ġignore":9259,"bsolute":9260,"Ġsurround":9261,"same":9262,"Ġ-(":9263,"Ġstability":9264,"ĠStrateg":9265,"mo":9266,"ĠTraining":9267,"Ġfunds":9268,"true":9269,"{(-":9270,"orical":9271,"ivot":9272,"Ġtemperatures":9273,"_digits":9274,"Ð²Ð°":9275,"Ġbuildings":9276,"ĠJoh":9277,"ffee":9278,"Our":9279,"cf":9280,"enth":9281,"æ±":9282,"ĠHon":9283,"Ġmenu":9284,"Ġvacc":9285,"charge":9286,"ĠMA":9287,"{new":9288,"lers":9289,"Ġprojection":9290,"Ġmanager":9291,"_work":9292,"Derive":9293,"Ã¶":9294,"-F":9295,"LA":9296,"_args":9297,"vature":9298,".N":9299,"crep":9300,"çľ":9301,"Exception":9302,"Ġcausing":9303,"Ġheader":9304,"changed":9305,"{}":9306,"å¯¹è±¡":9307,"ĠCustom":9308,"ĠDan":9309,")}\")":9310,"_original":9311,"ĠColumn":9312,"Ġdetailed":9313,"Ġwet":9314,"...Ċ":9315,"Ġmeant":9316,"ahren":9317,"ĠEar":9318,"]+":9319,"Ġteams":9320,"Ġcurr":9321,"(Z":9322,"Ġoffered":9323,"Ġsummary":9324,"#!/":9325,"ĠÂ°":9326,"Ġlinewidth":9327,"Ġfro":9328,"propto":9329,"_params":9330,"ĠPract":9331,"Ġintellig":9332,"ĠÃ©":9333,"Ġpray":9334,"ĠEquation":9335,".to":9336,"van":9337,"Ġpp":9338,"ĠBack":9339,"))ĊĊĊ":9340,"Ġ$?ĊĊ":9341,"URL":9342,".contrib":9343,"Ġinsurance":9344,"Ġpersons":9345,"Ġnormalization":9346,"ĠWhether":9347,"*c":9348,"Ġadapt":9349,"creasing":9350,"Ġvictim":9351,"Ġ[#":9352,"(target":9353,"heet":9354,"ĠLanguage":9355,"ĠInc":9356,"Ġflight":9357,"Ġ$:Ċ":9358,"Ġcruc":9359,"IZE":9360,"Ġstable":9361,"Ġvariation":9362,"ĠAddition":9363,"/R":9364,"Ġcertainly":9365,"ĠHTML":9366,"unit":9367,"Ġrout":9368,"°ĥ":9369,"ĠPRO":9370,"Ġaf":9371,"Ġsen":9372,"Ġwhatever":9373,"Ġspatial":9374,"ĠLevel":9375,"Ġ...,":9376,"Ġassigned":9377,"Ġstim":9378,"å¤ļ":9379,"Ġseparation":9380,"$?ĊĊ":9381,"UP":9382,"ê²":9383,"Ġdates":9384,"_sim":9385,"_like":9386,"going":9387,"ĠJack":9388,"operator":9389,"Ġsubtraction":9390,"Tr":9391,"Ġinstant":9392,"Ġmarks":9393,",c":9394,"Ġmsg":9395,"\"].":9396,"ãģ¯":9397,"Over":9398,"aten":9399,"_csv":9400,"_param":9401,"ahrenheit":9402,"Year":9403,"Ġapplic":9404,"Ġequally":9405,"_results":9406,"processing":9407,"ensus":9408,"Ġsalt":9409,"Ġintroduced":9410,"Ġspecifically":9411,"arsh":9412,".min":9413,"]):":9414,"uble":9415,"Ġlosses":9416,"GE":9417,"\"H":9418,"uan":9419,"folio":9420,"ji":9421,"ICE":9422,"next":9423,"uls":9424,"à¤°":9425,"Ġallowing":9426,"Ġhole":9427,"LED":9428,"}$:Ċ":9429,"ĠCourt":9430,"\\$":9431,"negative":9432,"ded":9433,"ÎŁÎ":9434,"ĠSpecial":9435,"__,":9436,"Ġassets":9437,"ĠIts":9438,"prod":9439,"trans":9440,"Ġha":9441,"Ġdefines":9442,"hbar":9443,"bles":9444,"Ġdynamic":9445,"Ġru":9446,"Base":9447,"Ġlived":9448,"_field":9449,"Ġtrac":9450,"ÐµÐ»ÑĮ":9451,"Ġvirus":9452,"ocks":9453,".fields":9454,"Ġtransformed":9455,"ĠQue":9456,"ogen":9457,"nowledge":9458,"Ġstreet":9459,"Ġmeasurements":9460,"atal":9461,"Ġatoms":9462,"fall":9463,"grams":9464,"Ġnoted":9465,"ĠIter":9466,"gcd":9467,"Ġvit":9468,"Ġchecking":9469,"èµ":9470,"Ġages":9471,"ĠForce":9472,"Ġìķ":9473,"Ġautomatically":9474,"\"Verification":9475,")]ĊĊ":9476,"Ð¸Ð½":9477,"/watch":9478,"/kg":9479,"Ġlista":9480,":]":9481,"ĠGaussian":9482,"Ġcontainer":9483,"_water":9484,"ĠInteger":9485,"'):Ċ":9486,"assum":9487,".randint":9488,"?v":9489,"uate":9490,"Ġequity":9491,"Ġspin":9492,"Ġtranslation":9493,"Ġprepare":9494,"å¹¶":9495,"_ap":9496,"mut":9497,"Ġbrief":9498,"cosystem":9499,"ĠIsland":9500,"'čĊ":9501,"íĦ":9502,"Ġpsi":9503,"Ð¾Ð·":9504,"Ġpreviously":9505,"Ġcylinder":9506,"]{":9507,"Ġcsv":9508,"Ġfalls":9509,"uy":9510,"Ġhun":9511,"Ġsubsequ":9512,"Ġban":9513,".sleep":9514,"IGHT":9515,"ĠParent":9516,"Ġcommonly":9517,"Ñĳ":9518,"(base":9519,"ikipedia":9520,"ĠGerman":9521,"ITY":9522,"ĠTechnology":9523,"Tree":9524,"forward":9525,"ĉreturn":9526,"Ġterminal":9527,"-pro":9528,"Ġdelete":9529,"Ġclub":9530,"_not":9531,"ĠCSV":9532,"acob":9533,"Ġextent":9534,"Ġdescending":9535,"Ġeventually":9536,"Ġkilled":9537,"heses":9538,"Ġknows":9539,"Ġdirections":9540,"Ġintegrate":9541,"Ð°ÑĤÑĮ":9542,"Ãª":9543,"useum":9544,"?âĢĿ":9545,"ĠTeacher":9546,"ja":9547,"Ġquart":9548,"_box":9549,"ĠConversion":9550,"ĠÎ»":9551,"CON":9552,"_config":9553,"ĠCa":9554,"Which":9555,"Python":9556,"_off":9557,"Ġnovel":9558,"Ġvisible":9559,"Ġauthent":9560,"ĠLinear":9561,"ORT":9562,"Dec":9563,"_fl":9564,"hav":9565,"(count":9566,"Ġsac":9567,"Ġnative":9568,"-free":9569,"_ac":9570,"Ġmouth":9571,"Ġgone":9572,"ĠBr":9573,"Applying":9574,"Ġpropag":9575,"Ġmom":9576,"Ġstrip":9577,"ĠLine":9578,"ifications":9579,"enger":9580,"Ġutf":9581,"'{":9582,"_units":9583,"ĠÑĦ":9584,"Ġtrigon":9585,"Ġmel":9586,"ĠPerm":9587,"_us":9588,"ĉĉĉ":9589,"Ġcourses":9590,"riting":9591,"è¾ĵåĩº":9592,"VA":9593,"content":9594,"Ġdeterminant":9595,"isson":9596,"Ġadvice":9597,"batch":9598,"Ġmostly":9599,"ĠSpeed":9600,"ĠÑģÑĤ":9601,"coeff":9602,"Ġskip":9603,"blue":9604,"constant":9605,"_mod":9606,"âĢ¦âĢ¦âĢ¦âĢ¦":9607,"ĠHandle":9608,"road":9609,"Ġintersect":9610,"idget":9611,"illion":9612,"Ġprimes":9613,"Ġthousand":9614,"aversine":9615,"pack":9616,"Ġsounds":9617,"Ġlad":9618,"Ġsalary":9619,"_ext":9620,"ĠRetrie":9621,"Ġbodies":9622,"mas":9623,"Ġrating":9624,"Ġclim":9625,"itors":9626,"Ġdrugs":9627,"éĢļ":9628,"ĠRoman":9629,"Ġtrials":9630,"\"Probability":9631,"Ġfing":9632,"Ġkid":9633,"Ġopening":9634,"ÏĨ":9635,"imately":9636,"EE":9637,"Ġshut":9638,"pat":9639,"overy":9640,"Ġorth":9641,"Ġsymbolic":9642,"Ġextreme":9643,"Ġvalor":9644,"Ġflux":9645,"[index":9646,"Ġauth":9647,"Ð¾Ð¶":9648,"Ð¡":9649,"ĠCommittee":9650,"cy":9651,"ĠRob":9652,"Ġancient":9653,"ĠìĹ":9654,"(map":9655,"ĠÐ·Ð°":9656,"\"x":9657,"(I":9658,"Ġapart":9659,"éĩį":9660,"illa":9661,"ĠOrder":9662,"-statistic":9663,"unately":9664,"ĠFactor":9665,"[float":9666,"Ġfrequently":9667,"ANT":9668,"*np":9669,"_char":9670,"/M":9671,"ĠChe":9672,"Ġwriter":9673,"Ġdiseases":9674,"message":9675,"_object":9676,"Ġflex":9677,"ĠTexas":9678,"ummy":9679,"ĠDNA":9680,"ressed":9681,"âĸł":9682,"_sl":9683,"olf":9684,"Each":9685,".\"\"\"ĊĊ":9686,"diff":9687,"config":9688,"ognitive":9689,"Ġspan":9690,"{Var":9691,"-the":9692,"Ġcontinues":9693,"İ·":9694,"Ġresidents":9695,"rich":9696,"Ġhundreds":9697,"(log":9698,"Ð½Ð°Ñı":9699,"Ġoscill":9700,"Ġwaiting":9701,"ÛĮ":9702,"Left":9703,"Multiply":9704,"¬¸":9705,"Ġleadership":9706,"Ġtechnical":9707,"_lines":9708,"Ġreplacement":9709,"function":9710,"Ġsheet":9711,"(phi":9712,"_me":9713,"Ġwilling":9714,"_arr":9715,"equal":9716,"SP":9717,"\"Expected":9718,"_divisors":9719,"ìľ¼":9720,"loss":9721,"arry":9722,"ivial":9723,"ĠSam":9724,"atts":9725,"ĠBank":9726,"Ġfactorial":9727,"Ġexistence":9728,"Ġtmp":9729,"Ġnutrition":9730,"abetes":9731,"call":9732,"Ġinch":9733,"Ġmodulus":9734,"_ids":9735,"Ġcas":9736,"ĠMex":9737,"Ġcls":9738,"oules":9739,"Ġkwargs":9740,"Ġcalling":9741,"Ġstake":9742,"Ġexperienced":9743,"åŃĹç¬¦ä¸²":9744,"ĠCath":9745,"Ġachieved":9746,"ĠFormat":9747,"ĠPs":9748,"atisf":9749,"eren":9750,"Array":9751,"Ġsuitable":9752,"Case":9753,"Ġuncertainty":9754,"Ġacts":9755,"ĠAdminist":9756,"-com":9757,"Ġmile":9758,"Ġrent":9759,"ĠCur":9760,"Ġzone":9761,"-score":9762,"acteria":9763,".std":9764,"Ġjourney":9765,"Ġseeing":9766,"Ġnuclear":9767,"PU":9768,"procal":9769,"Ġentirely":9770,"west":9771,"NE":9772,"irth":9773,"ĠWH":9774,"Ġworst":9775,"ĠValidate":9776,"phabet":9777,"Ġcorpor":9778,"_element":9779,"ë³":9780,"(initial":9781,"ľĢ":9782,"Ġdocuments":9783,"Ġinstances":9784,"ãģ¦":9785,"ĠÑĥ":9786,"aved":9787,"Ġamounts":9788,"-section":9789,"Ġsan":9790,"ednes":9791,"Ġkeyword":9792,"Ġvillage":9793,"),čĊ":9794,"Ġindustrial":9795,"contin":9796,"km":9797,"ander":9798,"Be":9799,"Ġtherap":9800,"ĠWhere":9801,"estions":9802,"æķ´":9803,"'$":9804,".exists":9805,"Ġpush":9806,"Ġbow":9807,"-ex":9808,"ua":9809,"åħ¶":9810,"Ġbegins":9811,"Ġemotional":9812,"Ġtrial":9813,"Ġmasses":9814,"ĠÑĢÐ°":9815,"Ġleader":9816,")**:":9817,"Ġexplicitly":9818,"Col":9819,"Dep":9820,"iture":9821,"Ġjo":9822,"ãģĮ":9823,"Ġtechnologies":9824,"-tailed":9825,"cho":9826,"years":9827,"æ¯ı":9828,"çĽ¸":9829,"Ġconsidering":9830,"Ð½ÑĭÐµ":9831,"Ġleaf":9832,"Ġfacilit":9833,"ĠFrancis":9834,"âģ»":9835,"ĠColor":9836,"Ġborder":9837,"Ġreward":9838,"_plus":9839,"ĠLou":9840,"'])Ċ":9841,"Ġelectricity":9842,"Ġbread":9843,"ĠSpace":9844,"Ġroute":9845,"_mask":9846,"åĪĻ":9847,"Ġstret":9848,"=lambda":9849,"aws":9850,"Ġlatest":9851,"Ġopened":9852,"Ġarises":9853,"cot":9854,"izz":9855,"Ġsupposed":9856,"Ġpurs":9857,"Ġreact":9858,"ĠSl":9859,"Ġbeam":9860,"names":9861,"sample":9862,"Ġhus":9863,"aylor":9864,"ĠMAG":9865,"ĠCritical":9866,"ĉif":9867,".config":9868,"ĠCompare":9869,"pu":9870,"Ġcry":9871,"Ġexplanation":9872,"racy":9873,"viation":9874,"Ġadvance":9875,"Ġtension":9876,"entions":9877,"ĠTerm":9878,"_normal":9879,"Ġspeech":9880,"ronic":9881,"ç¼":9882,"Ġsubstitute":9883,"ĠTarget":9884,"ERE":9885,"ĠFrance":9886,"æĪ·":9887,"Ġsports":9888,"ĠImplement":9889,"Ġtok":9890,"Ġsituations":9891,"ĠHen":9892,"Ġbackward":9893,"Ġentered":9894,"fs":9895,"Ġnumeric":9896,"`.ĊĊ":9897,"Ġsubjects":9898,"Ġexcell":9899,"éĺ":9900,"Ġstars":9901,")x":9902,"UE":9903,"ounce":9904,"ìĸ´":9905,"#-#-":9906,"Ġbreath":9907,"ido":9908,")s":9909,"Ge":9910,"Ġcluster":9911,"Ġopinion":9912,"ĠJun":9913,"_increase":9914,"Ġdepartment":9915,"Ġ\\).":9916,"asket":9917,"Ġhousehold":9918,"Ġaid":9919,"{aligned":9920,"Ġ$Ċ":9921,"Ġil":9922,"_radius":9923,"Ġcorrespond":9924,"queue":9925,"SL":9926,"_files":9927,"Ġscene":9928,"}{-":9929,"Ġchecks":9930,"encing":9931,"_period":9932,"âĪĤ":9933,"(K":9934,"acion":9935,"ĠWho":9936,"Ġagent":9937,"cur":9938,"dp":9939,"åĳ":9940,"Ġstead":9941,"ĠGame":9942,"ĠSte":9943,"ĠRemove":9944,"osoph":9945,"Ġprofession":9946,"Ġsecure":9947,"Ġ$?":9948,"ĠTreeNode":9949,"Ġwrap":9950,".gov":9951,"}%\")Ċ":9952,"ĠGrade":9953,"Ġcoin":9954,"ĠLast":9955,"_DIR":9956,"Ġconcrete":9957,"=np":9958,"Ġinvert":9959,"ê³ł":9960,"Ġfol":9961,"edy":9962,"Ġdecide":9963,"_O":9964,"tuple":9965,"Ġtargets":9966,"inimum":9967,"Ġheads":9968,"ìĿĢ":9969,"Pr":9970,"cv":9971,".png":9972,".assertEqual":9973,"_pl":9974,"[m":9975,"Ġsigned":9976,"Ø±":9977,"Ġ=\",":9978,"Ġtopics":9979,"Äģ":9980,"Ġbecoming":9981,"Returns":9982,"Ġcooper":9983,"åĲ¦":9984,"})$":9985,"vectors":9986,"ĠHTTP":9987,"(W":9988,"Ġfem":9989,"Ġdiversity":9990,"æĽ":9991,"ASS":9992,"Ġorbit":9993,"_hand":9994,"Ġinfrastructure":9995,"Ġliterature":9996,"_ear":9997,"ï¬":9998,"ĠÎ±":9999,"ĠLead":10000,"Ġeggs":10001,"Ġwheel":10002,"Ġvegetables":10003,"âĸ¡":10004,"(sum":10005,"uesday":10006,"Ġdetection":10007,"Ġpartner":10008,"\\\\":10009,"Ġcharges":10010,"Ð»Ð°":10011,"ĠTODO":10012,"Ġinitially":10013,"\").":10014,"uto":10015,"Ġagencies":10016,"(res":10017,"Ġcrucial":10018,"Îµ":10019,"-related":10020,"Ġeq":10021,".user":10022,"mes":10023,".fit":10024,"ĠSafe":10025,"ME":10026,"ĠConstruct":10027,"ĠCross":10028,"numpy":10029,"ano":10030,"Ġtriangular":10031,"perties":10032,"Sigma":10033,"Ġast":10034,"Ġaligns":10035,"Ġhelping":10036,"Ġholding":10037,"Ġorders":10038,"Ġgeometry":10039,"usive":10040,"Ġmaintenance":10041,"FS":10042,")*(":10043,"\\beta":10044,"Ġpros":10045,"erged":10046,"idential":10047,".num":10048,"Ġassumption":10049,"rfloor":10050,"istan":10051,"Ġcontained":10052,".draw":10053,"Ġregardless":10054,"quate":10055,"/B":10056,"ositive":10057,"'),čĊ":10058,"]],":10059,"ned":10060,"Ġ^":10061,"Ġshel":10062,"_return":10063,"Ġtau":10064,"Ġthoughts":10065,"Ġtun":10066,"Ġlots":10067,"ĠAgricult":10068,"(board":10069,"_transform":10070,"Ġtuples":10071,"Ġnice":10072,"Ġspl":10073,"ednesday":10074,"_grad":10075,"Ġâī¥":10076,"Ġsuc":10077,"Standard":10078,"ÐµÐ¹":10079,"Ġcalories":10080,"ĠSupport":10081,"Ġcentimeters":10082,"Ġtechnique":10083,"Ġfarmers":10084,"Ġdetail":10085,"è®¾":10086,"Ġassignment":10087,"ync":10088,"_interval":10089,"Ġafford":10090,"ĠForest":10091,"Ġthermal":10092,"-E":10093,"night":10094,"Expand":10095,"Ġcomprehensive":10096,"isor":10097,"Ġengineering":10098,".local":10099,"Ġprompt":10100,"UC":10101,"Ġ--------Ċ":10102,"ìļ©":10103,"otential":10104,"íĬ":10105,"Ġcounty":10106,"Ġfocused":10107,"aud":10108,"ARE":10109,"$$(":10110,"çĽ®":10111,"_root":10112,"ĠConsider":10113,"Ġinventory":10114,"hex":10115,"-y":10116,"Ġbuffer":10117,"gets":10118,"Ġcycles":10119,"ĠEX":10120,"Ġcoins":10121,"Ġpregn":10122,"\"Maximum":10123,"ĠIsrael":10124,"').":10125,"ãĢĤ',Ċ":10126,"crepancy":10127,"Ġsignals":10128,"ĠMount":10129,"\"}":10130,"ĠItal":10131,"ĠAuthor":10132,"akers":10133,"Red":10134,"Ġscales":10135,"Ġacceler":10136,"Integer":10137,"ĠHawai":10138,"uses":10139,"Ġseq":10140,"_des":10141,"åºĶ":10142,"_unit":10143,"norm":10144,"Ġflows":10145,"Ġcents":10146,"Ġsyn":10147,"(number":10148,"Ġchrom":10149,"Ġskill":10150,"Ġvolunte":10151,"Ġneighborhood":10152,"John":10153,"Rem":10154,"Ġlift":10155,"ĠBrown":10156,"ĠRights":10157,"ĠGen":10158,"Ġmodular":10159,"Ã¼":10160,"ĠCL":10161,"Ġassumes":10162,"sembly":10163,"agers":10164,"Ġcouldn":10165,"Ġadvanced":10166,"ĠOption":10167,"Ġkilometers":10168,"éĥ":10169,".ro":10170,"_prev":10171,"ĠAnalysis":10172,"ACK":10173,"Ġinterests":10174,"Ġinstitutions":10175,"Ġcand":10176,"Ġassistance":10177,"_freq":10178,"Ġpasses":10179,".replace":10180,"gg":10181,"Ġtow":10182,"abil":10183,"ĠBur":10184,"_net":10185,"She":10186,"ĠMAGIC":10187,"-re":10188,"SD":10189,"Ġindeed":10190,"Ġdiscovered":10191,"æķ°ç»Ħ":10192,"Ġimpacts":10193,"ACT":10194,".create":10195,"ĠHol":10196,"Ġincrement":10197,"Ġpermutation":10198,"Ġsharing":10199,"oster":10200,"Ġdependent":10201,"Ġtrigonometric":10202,"-T":10203,"observ":10204,"_sequence":10205,"Ġdiscussed":10206,"Ġcovers":10207,"ora":10208,"_half":10209,"Ġfamiliar":10210,"Ġdiffer":10211,"UD":10212,"agger":10213,"_up":10214,"ypy":10215,"______":10216,"white":10217,"Ġneighbors":10218,"$).ĊĊ":10219,"Ġtall":10220,"Ġbalanced":10221,"Ġadministr":10222,"HA":10223,"udd":10224,"äºĮ":10225,"Ġparticipate":10226,"\\hat":10227,"_ph":10228,"achine":10229,"hop":10230,"Ġachie":10231,"`.Ċ":10232,"portion":10233,"Ġdaughter":10234,"Ġprocessed":10235,"atten":10236,"isp":10237,"ĠProfit":10238,"Ġparticles":10239,"Ġneither":10240,"***":10241,"(integ":10242,"_block":10243,"Ġmetadata":10244,"Ġnecessarily":10245,"PUT":10246,"Â¹":10247,"Ġscientists":10248,"Ġwouldn":10249,"utils":10250,"_limit":10251,"_income":10252,"Ġending":10253,"stein":10254,"ĠHead":10255,"Ġencount":10256,"Ġmodulo":10257,"ibonacci":10258,".V":10259,"_flow":10260,"Ġpil":10261,"lets":10262,"soft":10263,"è°ĥ":10264,"ĠLocal":10265,"Ġ_,":10266,"Ġphoto":10267,".':":10268,"Ġhelpful":10269,"ranging":10270,"Ġcloser":10271,"arnings":10272,"è¯·":10273,"arks":10274,"ÂŃ":10275,"essment":10276,"Ġstone":10277,"ĠìĪĺ":10278,"Ġseemed":10279,".ext":10280,"Ġcontroll":10281,"ĠArg":10282,";ĊĊ":10283,"_ass":10284,"Ġerr":10285,"ĠNetwork":10286,"-and":10287,"IE":10288,"aturday":10289,"ĠBudget":10290,"åĲĳ":10291,"ena":10292,"holders":10293,"Ð¾Ð³Ð¾":10294,"ira":10295,"Ġaffects":10296,".insert":10297,"Ġcarefully":10298,"ĠPolicy":10299,"çİ°":10300,"(original":10301,"--|Ċ":10302,"Ġlisten":10303,"Ġseparated":10304,"bel":10305,"Ġbroken":10306,"_grid":10307,"Ġlesson":10308,"Ġparam":10309,"Ġecosystem":10310,"Ġbusinesses":10311,"Ġrein":10312,"ĠMill":10313,"_month":10314,"ĠTim":10315,"ĠThomas":10316,"Ġparabol":10317,"Ġsingular":10318,"Ġsuggested":10319,"ĠDemonstr":10320,"nected":10321,"ipse":10322,"phase":10323,"Ġtriple":10324,"Ġirr":10325,"åĪĽ":10326,"åĬ¨":10327,"Ġforced":10328,"(item":10329,"pp":10330,"Ġrepro":10331,"Ġreplaced":10332,"-ch":10333,"_rounded":10334,"node":10335,"eper":10336,"Ġrisks":10337,"ĠĠĠĊ":10338,"Ġthrow":10339,"Ġplastic":10340,"!\")Ċ":10341,"]_":10342,"ĠAP":10343,"Ġsteel":10344,"ĠAge":10345,"ÑĦ":10346,"ĠÂ±":10347,"ç©º":10348,"Ġconditional":10349,"æīĢæľī":10350,"ĠWeight":10351,"Ġgrass":10352,"subseteq":10353,"Ġtrend":10354,"ÑĨÐ¸":10355,"Ġchapter":10356,"irty":10357,"-index":10358,"ĠCho":10359,"ATA":10360,"Ãºmer":10361,"kin":10362,"ifth":10363,"ĠDisc":10364,"_depth":10365,"Ġlessons":10366,"[key":10367,"COL":10368,"Ġchannels":10369,"optim":10370,"abled":10371,"_formula":10372,"ĠAustralia":10373,"Ġade":10374,"Ġaggreg":10375,"rupt":10376,"slope":10377,"ĠPlace":10378,"has":10379,"small":10380,"redit":10381,"ĠMo":10382,"............":10383,"ÎĶ":10384,"_difference":10385,"(url":10386,"_obj":10387,"Ġms":10388,"ĠFamily":10389,"Ġreligion":10390,"pc":10391,")))":10392,"ternatively":10393,"Ġtrib":10394,"Ġsnow":10395,"ĠMatrix":10396,"Ġprison":10397,"_equal":10398,"Ġspiritual":10399,"ĠConserv":10400,"apez":10401,"Ġfavorite":10402,"Ġwaters":10403,"ë©´":10404,"Ġtk":10405,"utton":10406,"Ġlanguages":10407,"rowser":10408,"Ġarticles":10409,"éĽĨ":10410,"Comput":10411,"Ġwalking":10412,"]]:Ċ":10413,"ĠSQL":10414,"ĠWood":10415,"after":10416,"ĠAI":10417,"ĠWall":10418,"âĢĻd":10419,"Ġpoverty":10420,"gression":10421,"Ġsections":10422,"Ġren":10423,"asy":10424,"owns":10425,"Ġscope":10426,"Â·s":10427,"ogeneous":10428,"DR":10429,"ĠTrain":10430,"outs":10431,"raise":10432,"ä»İ":10433,"Ġdescribes":10434,"ĠWestern":10435,"Ġspecify":10436,".remove":10437,"Ġju":10438,"ĠSubtract":10439,"Ġingred":10440,"Ġpipeline":10441,"nson":10442,"Ġorganic":10443,"Ġlst":10444,"éĥ¨":10445,"derr":10446,"-v":10447,"Ġahead":10448,"Ġunf":10449,"ometimes":10450,"Ġmillions":10451,"Ġestimates":10452,"ye":10453,"ĠFOR":10454,"Assum":10455,"=Ċ":10456,"Ġtells":10457,"/Ċ":10458,"]):Ċ":10459,"_required":10460,"uent":10461,"Ne":10462,"Factor":10463,"íĻ":10464,"levision":10465,"íĬ¸":10466,"_batch":10467,"_minus":10468,"Ġeliminate":10469,"faces":10470,"lfloor":10471,"_std":10472,"Floor":10473,"eness":10474,"lik":10475,"Ġparticipation":10476,"ĠVirgin":10477,"ĠTre":10478,"ĠMiddle":10479,"Ġentropy":10480,"uffle":10481,"ĠActual":10482,"Ġlbs":10483,"Ġreader":10484,"ĠResponse":10485,"Ġfacility":10486,"ĠDirector":10487,"Second":10488,"ÐĴ":10489,"ĠPen":10490,"oreign":10491,"Ġdecor":10492,"''(":10493,"Ġmanip":10494,"uiltins":10495,"(line":10496,"Max":10497,"ursday":10498,"ĠArray":10499,"Ġfinished":10500,"åĪĽå»º":10501,"}\"":10502,"Ġspeaking":10503,"ĠÐ¾ÑĤ":10504,"ĠMont":10505,"-|Ċ":10506,".sc":10507,"Ġcompat":10508,"ĠÐ²Ñĭ":10509,"Ġprocedure":10510,"_argument":10511,"ÙĨ":10512,"ĠCamp":10513,"Ġtrained":10514,"forcement":10515,"ĠSolving":10516,"Ġwealth":10517,"izza":10518,"_sample":10519,"allow":10520,"éľĢ":10521,"ogs":10522,"Ġabuse":10523,"avy":10524,")$:Ċ":10525,"Show":10526,"iat":10527,"imary":10528,"_scores":10529,"_rows":10530,"ĠTown":10531,"_square":10532,"UG":10533,"èĬĤçĤ¹":10534,"Mat":10535,"Ġ]":10536,"ĠObject":10537,"Ġinterpolation":10538,"_edge":10539,"oving":10540,"ona":10541,"ĠMart":10542,"ĠGl":10543,"íĦ°":10544,"vestment":10545,".')Ċ":10546,"ĠConfiguration":10547,"_gener":10548,"oseph":10549,"atern":10550,"(output":10551,"Ġvess":10552,"\"\"\"čĊ":10553,"âĢĿ,":10554,"ãģª":10555,"Ġâīł":10556,"look":10557,"Ġcounting":10558,"Ġpopulations":10559,"Ġinfection":10560,"[:-":10561,"Ġdangerous":10562,"Ġpin":10563,"Ġhorse":10564,"Ġvulner":10565,"ariant":10566,"_layout":10567,"gypt":10568,"Ġvehicles":10569,"Ġtit":10570,"Ġfacts":10571,"Ġsmart":10572,"Map":10573,"PT":10574,"bb":10575,"Ġdir":10576,"ĠHistor":10577,"ĠMet":10578,"ĠKel":10579,"Ð¾Ð¿":10580,"Ġacres":10581,"Ġboundaries":10582,"Ġinternet":10583,"ether":10584,"]$.":10585,"Ġranges":10586,"ĠTor":10587,"_par":10588,"(my":10589,"/day":10590,"Ġelectrons":10591,"ĠÏĥ":10592,"pire":10593,"Ġgal":10594,"ĠExcel":10595,"|------------":10596,"uing":10597,"Ġadds":10598,"Ġfindings":10599,"éĻ¤":10600,"burg":10601,"Ã¤":10602,"Ġrural":10603,"ĠLight":10604,"Ġconnections":10605,"Size":10606,"ĠBig":10607,"staticmethod":10608,"rat":10609,"igmoid":10610,"ãģĻãĤĭ":10611,"rates":10612,"Ġexecute":10613,"Ġsumming":10614,"uffer":10615,"ĠNov":10616,"Ġinterpre":10617,")$$":10618,"_series":10619,"Ġworse":10620,"Start":10621,"Ġbroadcast":10622,"Ġpreced":10623,"Ġspherical":10624,"appe":10625,"ocument":10626,"parison":10627,"ìķ":10628,"_derivative":10629,"Ġfruits":10630,"Ġcorrected":10631,"Ġquantum":10632,"Ġ----":10633,"Ġcoffee":10634,"Ġaudio":10635,"Ġsudden":10636,"MENT":10637,"Ġhospital":10638,")?":10639,".W":10640,"Ġoh":10641,"VID":10642,"XX":10643,"iger":10644,"Ġredirect":10645,"Ġaccompl":10646,")\")":10647,"acific":10648,"ĠOld":10649,"ariables":10650,"ĠTeam":10651,"{out":10652,"empl":10653,"ventory":10654,"Ġclosest":10655,"mal":10656,"ĠSave":10657,"Ġfee":10658,"ĠCongress":10659,"Me":10660,"ĠAction":10661,"Ġatomic":10662,"ĠStudy":10663,"erge":10664,"ĠMicro":10665,"()],Ċ":10666,"icken":10667,"Ġnetworks":10668,"^(-":10669,"_est":10670,"FO":10671,"_as":10672,"erry":10673,"verify":10674,"duced":10675,"Ð¾ÑģÑĤ":10676,"Ġtruly":10677,"_response":10678,"ĠCharles":10679,"ĉField":10680,"Ġfold":10681,"Ġspending":10682,"ĠGermany":10683,"Ġbacteria":10684,"Ġhref":10685,"ĠHIV":10686,"']ĊĊ":10687,"Ġdogs":10688,"Ġ'_":10689,"expression":10690,"Ġimped":10691,"Ġmerge":10692,"{and":10693,"ìĥ":10694,"ĠField":10695,"Expected":10696,"ĠGal":10697,"_ref":10698,"Ġpossibly":10699,"Ġagreement":10700,"ipher":10701,"_next":10702,"Ġìĭ":10703,"\\mu":10704,"ulse":10705,"ĠFurther":10706,"__':Ċ":10707,"ï¼ļĊ":10708,"Ġrevolution":10709,"ĠRobert":10710,"Ġbx":10711,"Ġfeelings":10712,"Ġmarked":10713,"PC":10714,"ç«":10715,"Ġgar":10716,"Ġdoubt":10717,"ĠCart":10718,"Ġlogin":10719,"ĠInternet":10720,"ufficient":10721,"textsuperscript":10722,"ĠLow":10723,"Ġauthority":10724,"Ġdocumentation":10725,"score":10726,"ĠMrs":10727,"gl":10728,"Ġnan":10729,"_column":10730,"Ġmixture":10731,"ressure":10732,"Ġnumerous":10733,"Many":10734,"Ġmechanical":10735,"[idx":10736,"Ġpictures":10737,"equence":10738,"Ġcenters":10739,"onym":10740,"Ġcapture":10741,"random":10742,"ĠAS":10743,"ĠMS":10744,"ĠOS":10745,"Ġmultiplic":10746,"Ġnutri":10747,"Ġcovariance":10748,"astype":10749,"Ð´Ð°":10750,"roduction":10751,"pirical":10752,"$?":10753,"uzzle":10754,"ĠFoundation":10755,"Ġlens":10756,"):\")Ċ":10757,"(tf":10758,"_two":10759,"ĠThird":10760,"MI":10761,"Ġassumed":10762,"LS":10763,"Cor":10764,"Ġliber":10765,"(sp":10766,"Ġë§":10767,"Ġfontsize":10768,"TR":10769,"Ġcoverage":10770,".subplot":10771,"Ġvotes":10772,"ĠObs":10773,"Ġtruck":10774,"Ġparties":10775,"Ġinertia":10776,"$:ĊĊ":10777,"rations":10778,"ĠGold":10779,"ipping":10780,"ĠApproxim":10781,"ĠPage":10782,"ĠYoung":10783,"oton":10784,"ĠGlobal":10785,"Ġphenomen":10786,"See":10787,"ĠRandom":10788,"Ġstorm":10789,"Ġmarriage":10790,"uess":10791,"Ġsale":10792,"Ġsitting":10793,"Ġlearners":10794,"ĠDivision":10795,"Source":10796,"Ġillness":10797,"units":10798,"Ġdisk":10799,"ä¹ī":10800,"Ġdiscover":10801,"yr":10802,"inking":10803,"Ġdiverg":10804,"omentum":10805,"æł¼":10806,"Ġmere":10807,"```Ċ":10808,"Ġbird":10809,"ugs":10810,"*b":10811,".start":10812,"books":10813,"status":10814,"Ġprocedures":10815,"Ġconcerned":10816,"Ġpus":10817,"Ġhal":10818,"Ġmeter":10819,"Ġstrictly":10820,"ĠTur":10821,"Ġstores":10822,"ownload":10823,"_message":10824,"Ġsupporting":10825,"Ġdemonstration":10826,"del":10827,"_split":10828,"_classes":10829,"Ġschedule":10830,"Ġflour":10831,"lhs":10832,"hello":10833,"_density":10834,"ĠIslam":10835,"Ġballs":10836,"bow":10837,"har":10838,"Ġcreative":10839,"ollowing":10840,"Ġbattle":10841,"Ġpipe":10842,"ald":10843,"Ġquadrant":10844,"remaining":10845,"Ð¸ÑĢ":10846,"Point":10847,"ili":10848,"Ġgram":10849,"ola":10850,"ubic":10851,"å½ķ":10852,"ĠSeries":10853,"Mon":10854,"ÎķÎ":10855,".res":10856,"Ġadvert":10857,"Ġattempts":10858,"ĠÑį":10859,"ĠFederal":10860,"ignific":10861,"Ġcontinuity":10862,"Ġca":10863,"Ġvent":10864,"ĠInstead":10865,"gb":10866,"à¤Ĥ":10867,"Ġbelieved":10868,"Ġcentered":10869,"Ġfav":10870,"ĠkJ":10871,"Ġmeat":10872,"ä¸¤":10873,"refix":10874,"Ġä":10875,"Ġmi":10876,"GS":10877,"Ġowner":10878,"ĠTra":10879,"Ð¸Ñĩ":10880,"arsed":10881,".Model":10882,"Ġmac":10883,"Ġbrown":10884,"Ġhouses":10885,"Ġevaluated":10886,"ĠRule":10887,"ĠBusiness":10888,"_tri":10889,"Ġteeth":10890,"Ġemployee":10891,"eled":10892,"(train":10893,"_inches":10894,"igenvalues":10895,"åĵ":10896,"Ġtiss":10897,"ĠReal":10898,"Ġbridge":10899,".H":10900,"Att":10901,"ĠJud":10902,"(),Ċ":10903,"ĠRequired":10904,"ĠPeter":10905,"Ġhearing":10906,"Ġmobile":10907,"Ġvirtual":10908,"éķ":10909,"ĠMonth":10910,"ĠSunday":10911,"ĠNews":10912,"ĠÐ´Ð»Ñı":10913,"relu":10914,"page":10915,"pact":10916,"Trans":10917,"(os":10918,"ĠContin":10919,"å¼ķ":10920,"xiety":10921,"(length":10922,"war":10923,"Ġplays":10924,"tu":10925,"Ġsq":10926,"ĠMag":10927,"([Ċ":10928,"Ġmaintaining":10929,"bur":10930,"ĠNatural":10931,"Ġheap":10932,"íķ´":10933,"Ġemployment":10934,"Ġbis":10935,"ipped":10936,"åĪ¶":10937,"Ġdollar":10938,"period":10939,"ĠDraw":10940,"Ġperman":10941,"erving":10942,"Ġguy":10943,"_low":10944,"Ġack":10945,"ounced":10946,"Ġtransportation":10947,"FC":10948,"emory":10949,"ĠBlue":10950,"Ġconstructed":10951,"lections":10952,"ĠRO":10953,"/env":10954,"Fr":10955,"Ġama":10956,"Ġoct":10957,"jection":10958,"Ġdirected":10959,"ĠâĢ¦":10960,"Ġexpensive":10961,"Ġexplains":10962,"æĪĸ":10963,"è®¡ç®Ĺ":10964,"*ĊĊ":10965,"BS":10966,"Ġprimarily":10967,"Ġexpanded":10968,"average":10969,"Ðļ":10970,"ĠFace":10971,"ugate":10972,"_even":10973,"æĪĳ":10974,"Ġgun":10975,"Ġsubstant":10976,"Ġdecades":10977,"ursive":10978,"><":10979,"ician":10980,"Ġthank":10981,"agnetic":10982,"[s":10983,"rating":10984,"Weight":10985,"Ġduty":10986,"LO":10987,"Ġkinds":10988,"tings":10989,"ullying":10990,"\\tau":10991,"each":10992,"ersion":10993,"calar":10994,"eties":10995,"Ġbear":10996,"Ġcontents":10997,"è½¬":10998,"Ġstanding":10999,"identity":11000,"Ġcurvature":11001,"Create":11002,"Ġmal":11003,"apor":11004,"Ġvalu":11005,"Other":11006,"Ġrefers":11007,"Ġengage":11008,"Ġoverlap":11009,"Âłand":11010,"Ġexposed":11011,"Ġdirector":11012,"icians":11013,"Ġgene":11014,"Ġemergency":11015,"Ġdispl":11016,"Ġshapes":11017,"person":11018,"_upper":11019,"ĠWomen":11020,"(time":11021,"ĠPDF":11022,"orse":11023,"phic":11024,"Ġwitness":11025,"elen":11026,"ĠMove":11027,"Ġloading":11028,"Î¼":11029,"Ġcompos":11030,"_ab":11031,"Ġforg":11032,"Ġdiscrete":11033,"ĠIran":11034,"`.":11035,"Ġbyte":11036,"ĠAnother":11037,"Ġdomestic":11038,"_lower":11039,"ĠFigure":11040,"Ġuniverse":11041,"_method":11042,"avity":11043,"stood":11044,"cules":11045,"Ġpriority":11046,"_threshold":11047,"icing":11048,"_fit":11049,"Ġapproved":11050,"adian":11051,"Ġepis":11052,"olars":11053,"ĠGre":11054,"ework":11055,"Ġdistrib":11056,"Ġtexts":11057,"Ġdiagram":11058,"kl":11059,"perial":11060,"Ġinstalled":11061,"VE":11062,"ĠSmall":11063,"Ġcond":11064,"Explain":11065,"Ġelectrical":11066,"Ag":11067,"_tree":11068,"Ġnormally":11069,"bool":11070,"ĠLook":11071,"axes":11072,"Ġincident":11073,"Ġcrim":11074,"Function":11075,"ulus":11076,"\"Res":11077,"health":11078,"Ġwear":11079,".addLink":11080,"Ġrecognize":11081,"_weights":11082,"Ġgross":11083,"INT":11084,"Ġ'\\":11085,"Ġrecall":11086,"Ġforecast":11087,"Mr":11088,"ĠEgypt":11089,"weet":11090,"åŁ":11091,"rooms":11092,"Color":11093,"_shots":11094,"ãģ¾":11095,"Ġconvention":11096,"Ġaudience":11097,"Ġfert":11098,"Ġmur":11099,"Ġdividend":11100,"ĠPass":11101,"Ġunderlying":11102,"_status":11103,"Request":11104,"Ġbrand":11105,"ĠUSD":11106,"operatorname":11107,"Ġsucceed":11108,"\\vec":11109,"dem":11110,"Pre":11111,"iem":11112,"black":11113,"{lb":11114,"/a":11115,"[[":11116,"Ġgear":11117,"Ġinteract":11118,"Ġsuperv":11119,"Ġatmosphere":11120,"âĸłâĸł":11121,"Ġexcellent":11122,"ima":11123,"SO":11124,"hal":11125,"isis":11126,"ĠFull":11127,"Ġmanif":11128,"_images":11129,"optimal":11130,"Ġtele":11131,"ĠAngle":11132,".argv":11133,"Ġboolean":11134,"Ġdefinitions":11135,"_K":11136,"ĠHave":11137,"valuation":11138,"åĨĻ":11139,"Ġhydrogen":11140,"profit":11141,"Ġcommunic":11142,"elfare":11143,"âĤĢ":11144,"ORD":11145,"ican":11146,"ĠTry":11147,"awn":11148,"ĠHill":11149,"Ġrandomly":11150,"(equation":11151,"ymmetric":11152,"Î»":11153,"ĠStat":11154,".factorial":11155,"density":11156,"Ùħ":11157,"ĠEmploy":11158,"TP":11159,"Ġsine":11160,"!\"":11161,"Ġourselves":11162,"Ġtokens":11163,"Pol":11164,"ĠBill":11165,"ported":11166,"Ġposts":11167,"tz":11168,"olut":11169,"ĠRot":11170,"ubble":11171,"Ġcancel":11172,"Ġdefect":11173,"ĠMaybe":11174,"Ġë³":11175,"Ġreferred":11176,"Ġpreferred":11177,"stone":11178,"Ġrenew":11179,"_digit":11180,"Ġsentences":11181,"ĠDemoc":11182,"equired":11183,"ĠBehav":11184,"ocalization":11185,"Ġreaches":11186,"Ġbelie":11187,"Ġscheme":11188,"ni":11189,"Ġaver":11190,"Ġfilters":11191,"poons":11192,"ĠEngineering":11193,"(args":11194,"+b":11195,"both":11196,"iday":11197,"Ġpartition":11198,"usters":11199,"Ġbiological":11200,"Ġgenetic":11201,"Ġrail":11202,"ĠSimulate":11203,"Ġjump":11204,"tic":11205,"conf":11206,"Ġformation":11207,"Ġcurrency":11208,"Ġcloud":11209,"_PATH":11210,"alculated":11211,"ĠFlor":11212,"Ġfamous":11213,"ĠSpan":11214,"Ġagricultural":11215,"roke":11216,"ashion":11217,"_RE":11218,"Ġdeviations":11219,"Ġ×":11220,"Ġfort":11221,"_zero":11222,"Ġuniversal":11223,")))ĊĊ":11224,"iral":11225,"ritten":11226,"Ġfewer":11227,"mun":11228,"Ġascending":11229,"Ġguard":11230,"itative":11231,"ĠSing":11232,"people":11233,"Ġmanufacture":11234,"ship":11235,"Ġspacing":11236,"ĠPrime":11237,"Ġelection":11238,"ĠEnvironmental":11239,"å¥":11240,"ĠJapanese":11241,"(matrix":11242,"matic":11243,"ÑĤÐ¾":11244,"ĠCarol":11245,"break":11246,".degrees":11247,"ĠÂ·":11248,"Ġconvent":11249,"ĠLE":11250,"Ġabund":11251,".Tensor":11252,"ĠAlex":11253,"avings":11254,"_steps":11255,"(is":11256,"common":11257,"erate":11258,"Ġregional":11259,"Ġterrit":11260,"ativ":11261,"sk":11262,"ĠAccess":11263,"Ġarbitrary":11264,"Ġtested":11265,"Ġinflation":11266,"ĠFree":11267,"(discriminant":11268,"-wise":11269,"inition":11270,"Ġknock":11271,"Ġdecreasing":11272,"convert":11273,"Ġradiation":11274,"ĠAdditionally":11275,"Ġhusband":11276,"ĠJul":11277,"ĠÐ½Ðµ":11278,"Ġrecognized":11279,"İ·åıĸ":11280,"():čĊ":11281,"Ġrough":11282,"{Pa":11283,"CP":11284,"Ġdesire":11285,"Ġlongest":11286,"ilarly":11287,"Ġìĥ":11288,"Ġsatell":11289,"Ġorientation":11290,"iro":11291,"taff":11292,"Ġpotentially":11293,"Ġdeck":11294,"keep":11295,"parallel":11296,"Ġserving":11297,"Ġcongr":11298,"_db":11299,"=int":11300,"_img":11301,"Ġvast":11302,"anda":11303,"Ġpayments":11304,".en":11305,"|-------":11306,"åģ":11307,"ĠnÃºmer":11308,"ervice":11309,"Ġdemoc":11310,"Ġcircumstances":11311,"Ass":11312,"Oper":11313,"izers":11314,"Ġdurability":11315,"Ġaltitude":11316,"]])":11317,"_elements":11318,"\"Minimum":11319,"ulates":11320,"Ġrig":11321,"ĠNE":11322,"è¿Ľè¡Į":11323,"/l":11324,"leet":11325,"MR":11326,"Ïĥ":11327,"ìĿ¸":11328,".reporting":11329,"_SIZE":11330,"Ġdistingu":11331,".comb":11332,"Ġdifficulty":11333,"Ġ):Ċ":11334,"Ġstages":11335,"Ġacting":11336,"Ġquantities":11337,"itage":11338,"ĠNO":11339,"ĠJustify":11340,"odds":11341,"osa":11342,"ÐµÐ½ÑĤ":11343,"_age":11344,"kins":11345,"ĠFac":11346,"ë²":11347,"=\"\"":11348,"Ġregister":11349,"rediction":11350,"wa":11351,"Info":11352,"ĠCODE":11353,"-indexed":11354,"Ġfly":11355,"Ġordering":11356,"Ġescape":11357,"Ġannot":11358,"ĠìĤ¬":11359,"urabilities":11360,"plicated":11361,"cludes":11362,"%ĊĊ":11363,"_pct":11364,"theoretical":11365,"ĠSelect":11366,"Ġslice":11367,"å¼Ģ":11368,"Ġorbital":11369,"Ġmic":11370,"caling":11371,"Ġinvolving":11372,"æį¢":11373,"consistent":11374,"king":11375,"().__":11376,"Ġinstrument":11377,"forms":11378,"IDS":11379,"(stypy":11380,"Ġconsequences":11381,"ĠMath":11382,"ella":11383,"ĠDivide":11384,"yc":11385,"ĠCI":11386,"ĠWorks":11387,"ĠAppro":11388,"hours":11389,"urv":11390,"ĠValley":11391,"vironments":11392,"_sup":11393,".group":11394,"Ġpercentile":11395,"inate":11396,"sem":11397,"riers":11398,"apsed":11399,"Ġimmediate":11400,"gest":11401,"micro":11402,"fortunately":11403,"itable":11404,"_sales":11405,"ĠÏĨ":11406,"Ġndarray":11407,"Ġcomputational":11408,"Ġguidelines":11409,"Ġindependence":11410,".localization":11411,"oval":11412,"Ġupward":11413,".Localization":11414,"Rearranging":11415,"GG":11416,"replace":11417,"Ġnarr":11418,"zer":11419,"NO":11420,"Rel":11421,"Â·K":11422,"+=":11423,"irs":11424,"ĠVi":11425,"Ġendpoint":11426,"legal":11427,"problem":11428,"youtube":11429,"Ġnm":11430,"Ġcontributions":11431,"Ġalloc":11432,"\\mathbb":11433,"Ġ>>":11434,"Ġml":11435,"ĠLike":11436,"{kJ":11437,"Ġcombine":11438,"ĠAssuming":11439,"_mode":11440,"ë§":11441,"Ġtags":11442,"Ġmatters":11443,"_dataset":11444,"Ð°Ð²":11445,"Ġrelates":11446,"Ġwalls":11447,"kes":11448,"(model":11449,"Ġdrag":11450,"abin":11451,"ĠChapter":11452,"Ġcomputes":11453,"Ġvaluable":11454,"{Y":11455,"ÙĦ":11456,"_rect":11457,"ä»¬":11458,"planation":11459,"Ġmeetings":11460,"Ġappearance":11461,"åıĺéĩı":11462,"(ch":11463,".reshape":11464,"Ġexperimental":11465,"teen":11466,"Ġcontrolled":11467,"pd":11468,"ä¿Ŀ":11469,"-ma":11470,"Ġunchanged":11471,"_tax":11472,"Calculating":11473,"DB":11474,"[np":11475,"_top":11476,"Ġattached":11477,"Ġloaded":11478,"Ġì¶":11479,"docs":11480,"ĠIV":11481,"Ġcoeff":11482,"ĠpH":11483,"pired":11484,"Ġarms":11485,"ĠFrank":11486,"Ġdestination":11487,"Ġhero":11488,"Ġcommands":11489,".cdf":11490,"\\hline":11491,"ä¸ŃçļĦ":11492,"Ġseeds":11493,"!}{":11494,"aveled":11495,"asic":11496,"åĮħ":11497,"oreignKey":11498,"yes":11499,"Object":11500,"Ġsight":11501,"??":11502,"ĠMichael":11503,"Ġsocket":11504,"lectric":11505,"Ġofficials":11506,"uid":11507,"Ġaqu":11508,"ĠIr":11509,"ĠOffic":11510,"Ð°Ð¼":11511,"Ġmanaged":11512,"Ġmit":11513,"è¨":11514,"Ġvocabulary":11515,"Ġtransmission":11516,"Ġlongitude":11517,"Ġpossess":11518,"ĠDecimal":11519,"ìłķ":11520,".ed":11521,"ĠIdentify":11522,"âīĪ":11523,"Ġforget":11524,"reme":11525,"Ġrobot":11526,"Ġpossibility":11527,"ĠIT":11528,"_cols":11529,"ĠFlask":11530,"Ġconversation":11531,"Ġguidance":11532,"ĠCr":11533,"critical":11534,"Order":11535,"author":11536,"Ġocean":11537,"Ġinsect":11538,"Ġgather":11539,"äºº":11540,"Ġjournal":11541,"Ġdiscrepancy":11542,"Ġdataframe":11543,"_voltage":11544,"Ø¯":11545,"ivered":11546,"\"An":11547,"Top":11548,"(sorted":11549,"Ġnumerically":11550,"alks":11551,"Ġblow":11552,"ëĲ":11553,"ĠPlayer":11554,"ĠSpecifically":11555,"(user":11556,"Î£":11557,"ĠTask":11558,"ĠNext":11559,"_equation":11560,"ogether":11561,"_stack":11562,"Ġsurvival":11563,"Ġreciprocal":11564,"ĠCult":11565,"cr":11566,"Ġrearr":11567,"ĠReading":11568,"ycling":11569,"Ġsteady":11570,"<=":11571,"pf":11572,"Ġve":11573,"Ġremoving":11574,"ĠHenry":11575,"(val":11576,".filter":11577,"Car":11578,"eing":11579,"_rem":11580,"Ġhabitat":11581,"nan":11582,"ĠExec":11583,"Ġflash":11584,"åħ³":11585,")$ĊĊ":11586,"/S":11587,"ĠKeep":11588,"zy":11589,"_back":11590,"ademy":11591,"Ġmine":11592,"(\"/":11593,"Ġdatasets":11594,"roots":11595,"irms":11596,"Ġ||":11597,"Ġstride":11598,"è§£":11599,"ificial":11600,"Ġsky":11601,"Ġclosely":11602,"Under":11603,"íĺ":11604,"asible":11605,"Ġkit":11606,"Ð¾Ð²Ð°Ð½":11607,"-W":11608,"Most":11609,"expr":11610,"_variance":11611,"_condition":11612,"#čĊ":11613,"LL":11614,"ulating":11615,"Ġindexing":11616,"\\Ċ":11617,"actory":11618,"filename":11619,"Ġlayout":11620,"ëĵľ":11621,"xic":11622,"Ġartist":11623,"istant":11624,"Ġseat":11625,"ĠHttpResponse":11626,"heast":11627,"ĠNotes":11628,"\\log":11629,"æĺ¯åĲ¦":11630,"ĠProfess":11631,"(\"-":11632,".model":11633,"ARD":11634,"cs":11635,"{or":11636,"ĠTom":11637,"chen":11638,"othes":11639,"ceptions":11640,"Ġanalytical":11641,"\".ĊĊ":11642,"Ġconverges":11643,"Ġcrow":11644,"aturally":11645,"éļ":11646,"limit":11647,"-%":11648,"perimeter":11649,"ìľ¼ë¡ľ":11650,"ker":11651,"Ġthin":11652,"Ġbins":11653,"ĠSquare":11654,"arios":11655,"Ġimproving":11656,"Ġincorrectly":11657,"]^":11658,"Ġ$(\\":11659,"Ġconven":11660,"ĠIncome":11661,"multi":11662,"ĠYOUR":11663,"remainder":11664,"ä½ł":11665,"ĠFour":11666,"åıª":11667,"Ġrepeat":11668,"\"]ĊĊ":11669,"ĠFort":11670,"iler":11671,"ãĥ³":11672,"General":11673,"ĠThrough":11674,"ĠMuslim":11675,"-old":11676,"tf":11677,"Ġ\\|":11678,"Ġrub":11679,"âĸ¡âĸ¡":11680,"_page":11681,"ĠJacob":11682,"Ġknowing":11683,"åĮº":11684,"Ġuniversity":11685,"ĠAtl":11686,"Ġsimilarity":11687,"UNT":11688,"Ġdiverse":11689,"More":11690,"orry":11691,"Ġsimult":11692,"rhs":11693,"_nodes":11694,"Ġauto":11695,"olutely":11696,"ĠThree":11697,"Ġappeared":11698,"ĠGard":11699,"cong":11700,"Ġcrisis":11701,"ħį":11702,"Ġcognitive":11703,"Ġputting":11704,"comput":11705,"Ġbounded":11706,"Ġadmin":11707,"Ġcompetition":11708,"Load":11709,"ĠFourier":11710,"Ġnormalize":11711,"ĠLibrary":11712,"Ġagency":11713,"Ġprogramme":11714,"Ġnine":11715,"Ġcommittee":11716,"}$),":11717,"-cent":11718,"PO":11719,"ĠSearch":11720,"()čĊčĊ":11721,"Ġstopped":11722,"\"G":11723,"ĠVisual":11724,"ĠVirginia":11725,"Am":11726,"itches":11727,"Ġnu":11728,"ç´¢":11729,"Ġtelevision":11730,"ĠAdv":11731,"Ġsensitive":11732,"å¦Ĥæŀľ":11733,"Ġcriterion":11734,"Ġsweet":11735,"minus":11736,"covery":11737,"ancer":11738,"hape":11739,"Ġsorting":11740,"Ġrecovery":11741,"_intercept":11742,"Ġadministration":11743,"ĠCatholic":11744,"ĠRest":11745,"ĠHall":11746,":',":11747,"Ġintervention":11748,"-even":11749,"ĠCoefficient":11750,"nic":11751,"ugment":11752,".ForeignKey":11753,"[Dict":11754,"bum":11755,"ĠLED":11756,"âĢĿ.":11757,"abric":11758,"ĠImportError":11759,"FAULT":11760,"_token":11761,"ĠCounter":11762,"\"Exact":11763,"ĠLos":11764,"Ġagreed":11765,"Ġremained":11766,"herent":11767,"alance":11768,"condition":11769,"_process":11770,"isible":11771,"Ġwaves":11772,"Ġlogarithmic":11773,"æĥ":11774,"Ġath":11775,"forall":11776,"Ġcontrols":11777,"link":11778,"oor":11779,"ĠRad":11780,"ĠEN":11781,"Optimal":11782,",k":11783,"Iter":11784,"Ġwindows":11785,"Ġcomparing":11786,"Ġdetected":11787,"Ġpitch":11788,"Ġdelivery":11789,"Ġsaving":11790,"Ġrid":11791,"Ġaccident":11792,"Ġfinish":11793,"Ġ**$":11794,"then":11795,"El":11796,"_high":11797,"Another":11798,".)Ċ":11799,"sm":11800,"Ġcrime":11801,"inomial":11802,"Ġheaders":11803,"Taking":11804,"Ĥĺ":11805,"Ġmainly":11806,"Ġrobust":11807,"atm":11808,"Ġarmy":11809,"_delete":11810,"apezoid":11811,"Box":11812,"ĠTurn":11813,"Ġgrades":11814,"Ġtravels":11815,".pdf":11816,"Ġticket":11817,"_item":11818,"ĠSci":11819,"Ġmoon":11820,"sole":11821,"ometer":11822,"ĠSecurity":11823,"Ġmodules":11824,"Ġoperators":11825,"ĠMonday":11826,"_em":11827,"_simplified":11828,"Ġ(\\(":11829,"Ġaward":11830,"Ġsoul":11831,"Finally":11832,"IAL":11833,"igher":11834,"Ġstations":11835,"è¯ķ":11836,"(left":11837,"Ġtwenty":11838,"(string":11839,"Ġreasonable":11840,"ynamic":11841,"æ±Ĥ":11842,"difference":11843,"closed":11844,"ÑģÐ¿":11845,"Ġcalculating":11846,"zed":11847,"Ġ\"-":11848,".predict":11849,"ĠFriday":11850,"aded":11851,"}},":11852,"Ð°Ð¹":11853,"Ġharvest":11854,"Ġmagic":11855,"Ġphilosoph":11856,"Ġthick":11857,"ĠFair":11858,"Lear":11859,"{|":11860,"-G":11861,"Ġfreq":11862,"Ġprotected":11863,"-right":11864,"':'":11865,"binations":11866,"Ġremote":11867,"ĠMatches":11868,"æµĭ":11869,"§è¡Į":11870,"_cal":11871,"Ġslowly":11872,"Ġsurrounding":11873,"ëı":11874,"Ġinduct":11875,"ĠSpring":11876,"ĠWild":11877,"Ġdesc":11878,"Ġorganized":11879,"Ġweekly":11880,"Ġrolling":11881,"Ġwast":11882,"Ġdelet":11883,".columns":11884,"(_":11885,"encode":11886,"(set":11887,"Ġdiabetes":11888,"Ġcere":11889,"Ġjudge":11890,"_xy":11891,"ĠInterest":11892,"fast":11893,"admin":11894,"Ġoperate":11895,"ĠThose":11896,"Dis":11897,"\"ĊĊĊ":11898,"[c":11899,"ullet":11900,"binary":11901,"ä¹ĭ":11902,"Ġuma":11903,"RT":11904,"ĠmA":11905,"Ġshr":11906,"æł·":11907,"/dt":11908,"_graph":11909,"fix":11910,"Ġcone":11911,"_ml":11912,"Ġindicated":11913,"ĠJohnson":11914,"Ġsensor":11915,"Ġ\\):":11916,"Ġdiscrimin":11917,"ĠGCD":11918,"ipe":11919,"Ġhaven":11920,".tan":11921,"Ġkilograms":11922,"Ġauthors":11923,"Ã±":11924,"åĥ":11925,"ĠPL":11926,"centration":11927,"ĠEarly":11928,"/N":11929,"Ħì":11930,"Ġfurn":11931,"ela":11932,"ircraft":11933,"ĠSize":11934,"Ġjustice":11935,"varphi":11936,"Ġgrown":11937,"Ġundefined":11938,"engers":11939,"unched":11940,"Ġcosine":11941,"Ġattacks":11942,"ä¿¡":11943,"ws":11944,"Ġrestaur":11945,"])čĊ":11946,"Ġtight":11947,"Ġproducing":11948,"Ġoptimization":11949,"ĠMedic":11950,"UB":11951,"Word":11952,"ĠClean":11953,"Ġweigh":11954,"\"Time":11955,"Ġvolum":11956,"è¡¨ç¤º":11957,"FL":11958,"_ST":11959,"Ġment":11960,"ĠìĦ":11961,"Ġyielding":11962,"Ġupdates":11963,"éľĢè¦ģ":11964,"yan":11965,"#print":11966,"best":11967,"ĠDen":11968,"_oper":11969,"Ġmovements":11970,"idity":11971,"ĠÐŁ":11972,"ĠCondition":11973,"Back":11974,"UI":11975,"Ġ$|\\":11976,"nsel":11977,"Ġrequiring":11978,"_after":11979,"IX":11980,"Ġlaunch":11981,"chem":11982,"à¤¨":11983,"ARN":11984,"ramid":11985,"Ġê°Ģ":11986,"oa":11987,"Ġcompens":11988,"Button":11989,"riends":11990,"ĠBible":11991,"Ġatom":11992,"Subtract":11993,"Ġshooting":11994,"px":11995,"æģ":11996,"Ġfrequent":11997,"ĠMap":11998,"-specific":11999,"ĠSecret":12000,"views":12001,"ĠBox":12002,"ĠLouis":12003,"Ġpivot":12004,"Ġgate":12005,"ĠPsych":12006,"OUT":12007,"haust":12008,"ĠWeek":12009,"ãĤ¹":12010,"çĶ¨æĪ·":12011,"Ġregularly":12012,"Ġwidely":12013,"ĠTaylor":12014,"_ne":12015,"ousing":12016,"close":12017,"pile":12018,"Ġcursor":12019,"ucky":12020,"Ġpermission":12021,"-min":12022,"iao":12023,"Ġamb":12024,"Ġmeasuring":12025,"Ġreporting":12026,"Ġradical":12027,"ķĮ":12028,"Dist":12029,"ĠWindows":12030,".nn":12031,"+\\":12032,"/v":12033,"otimes":12034,"_last":12035,"\"Required":12036,"YY":12037,"ÙĪ":12038,"ĠON":12039,"Ġëĭ":12040,"_exact":12041,".J":12042,"ĠDO":12043,"ROM":12044,"alities":12045,"ĠAsia":12046,"\"For":12047,"ĠDeg":12048,"{mL":12049,"Ġempirical":12050,"Ġvolts":12051,"Ġphysics":12052,"sw":12053,"Ġok":12054,"web":12055,"_years":12056,"etrics":12057,"Ġsubsequent":12058,"æ²":12059,"Ġdepression":12060,"ÑĭÐ¹":12061,"ç»ĵæŀľ":12062,"indrome":12063,"Ġpanel":12064,"Ġdrinking":12065,"Ġstatistical":12066,")).":12067,"May":12068,"_pairs":12069,"Ġextend":12070,"Ġmarkets":12071,"{Percentage":12072,"Item":12073,"During":12074,"actored":12075,"Ġrod":12076,"Ġneutral":12077,"ĠStore":12078,"interval":12079,"Ġbigger":12080,"\"Number":12081,"oi":12082,"ĠUSA":12083,"Ġyounger":12084,"ĠCA":12085,"ĠPV":12086,"='--',":12087,"integer":12088,"/ĊĊ":12089,"search":12090,"_lat":12091,"Ġenvironments":12092,"Ġcareful":12093,"Ġmock":12094,"ĠFire":12095,").__":12096,"Ġcoal":12097,"Ġlikelihood":12098,"Ġdecimals":12099,"Ġstands":12100,"-coordinate":12101,"_read":12102,"Ġdiscipl":12103,"Ġadvoc":12104,"Var":12105,"Ġlistening":12106,"Ġinclusion":12107,"arah":12108,"ĠCapt":12109,"Ð°Ðº":12110,"Unit":12111,"Line":12112,"Ġnested":12113,"ĠProm":12114,"Ġroles":12115,"')ĊĊĊ":12116,"_abs":12117,"Ġbot":12118,"_call":12119,"çī¹":12120,"Ġcommission":12121,"Ġmuscle":12122,"ĠPacific":12123,"ĠBob":12124,"Ġmanual":12125,"Ġlargely":12126,"Ġpa":12127,"Ġconverting":12128,"ĠEntry":12129,"ãģĭ":12130,"Ġisland":12131,"Ġvtk":12132,"ĠSil":12133,"Ġcapable":12134,"oices":12135,"itting":12136,"icode":12137,"Ġregulations":12138,"rogen":12139,"Ġtraveled":12140,"ercise":12141,"ULL":12142,"omorphism":12143,"Ġleap":12144,"å¤į":12145,"DC":12146,"orough":12147,"ĠGM":12148,"Ð¾Ñĩ":12149,"Ġdownward":12150,"digit":12151,"yper":12152,"Ġ),Ċ":12153,"Ġanxiety":12154,"Ġunderstood":12155,"Ġalphabet":12156,"*n":12157,"Post":12158,"oral":12159,"Ġasset":12160,"ierarch":12161,"ĠSem":12162,"Ġ[\\":12163,"shape":12164,"ĠExper":12165,"Ġrepet":12166,"Ġreceiving":12167,"ĠSurvey":12168,"Ġimpedance":12169,"nbsp":12170,"Ġfault":12171,"anches":12172,"Ġimply":12173,"Ġsimplification":12174,"ãĥĪ":12175,"Ġdefinite":12176,"Ġreceives":12177,"(cls":12178,"Ġcriminal":12179,"-off":12180,"_alpha":12181,"ume":12182,"Ġconstit":12183,"ä¸İ":12184,"Ġbrack":12185,"amer":12186,"Ġcanvas":12187,"ĠKE":12188,"Ðĺ":12189,"ĠSP":12190,"Ġrealize":12191,"aneously":12192,"Ġtimestamp":12193,"Ġmand":12194,"igital":12195,"ĠTreat":12196,"ĠIll":12197,"Ġclarity":12198,"Ġbutter":12199,"ternative":12200,"Ġcraft":12201,"una":12202,"angent":12203,"otted":12204,"ĠAccount":12205,"?\"ĊĊ":12206,"\\{":12207,"ĠBre":12208,"ifiers":12209,"ĠFeb":12210,"Ġvot":12211,"ropout":12212,"ĠCoefficients":12213,"Ġrequested":12214,"ĠGuide":12215,"alog":12216,"Ġlandscape":12217,"_slope":12218,"ĠListNode":12219,"emptyset":12220,"organ":12221,"images":12222,"ĠAnaly":12223,"Ġëª":12224,"ĠApple":12225,"Ġinstruct":12226,"Ġreasoning":12227,"_interest":12228,"_I":12229,"itis":12230,"Ġpig":12231,"appro":12232,"Ġended":12233,"Ġ\"\"Ċ":12234,"gers":12235,".layers":12236,"ĠResources":12237,"Ġmarketing":12238,"ĠEducational":12239,"-cont":12240,"Page":12241,"Ġã":12242,"ĠAdditional":12243,"ypotenuse":12244,"pus":12245,"iox":12246,"Ġcompact":12247,"ç»Ļ":12248,"oom":12249,"Ġcrops":12250,"èĢħ":12251,"éķ¿":12252,"Ġsubstantial":12253,"Age":12254,"fc":12255,"Ġtot":12256,"okes":12257,"cest":12258,"è¯¥":12259,"Ġloved":12260,"Ġimproper":12261,".root":12262,"Ðŀ":12263,"Ġcomparisons":12264,"alary":12265,"Ġdialog":12266,"Ġtypo":12267,"Ġpresentation":12268,"Ġreversed":12269,"ĠDifference":12270,"Ġfetch":12271,"gery":12272,"(numerator":12273,"===":12274,"Ġdefinitely":12275,"Ġanalog":12276,":%":12277,"Ð½Ð¸":12278,"imensions":12279,"_second":12280,"Ġeigenvalue":12281,"æŃ£":12282,"Ġspectrum":12283,"ĠLi":12284,"èĩª":12285,"Ġjoined":12286,"Ġpurchased":12287,"Ġfan":12288,"_opt":12289,"Ġarrangements":12290,"_sort":12291,"Ġds":12292,"GO":12293,"utable":12294,"Ġordinary":12295,"Med":12296,"Ġwarning":12297,"ailability":12298,"Ġsummation":12299,"foot":12300,"Ġpollution":12301,"\"f":12302,"Ġlic":12303,"ĠLower":12304,"Ġenv":12305,"Ġcolour":12306,"Ġhandles":12307,"ĠDescription":12308,"Ġgrows":12309,"ĠTrust":12310,"Ġworker":12311,"null":12312,"atorial":12313,"Ġinjury":12314,"ÐĿ":12315,"Ġtile":12316,"ĠNature":12317,"Ġlit":12318,"Ġadopted":12319,"Ġsoci":12320,"Ġcompletion":12321,"å±ŀ":12322,".rect":12323,"Ġcarrying":12324,"lockwise":12325,"aciÃ³n":12326,"osph":12327,"å¾Ĺ":12328,"Ġimaginary":12329,"}\"ĊĊ":12330,"âĿ":12331,"Ins":12332,"{'":12333,"hered":12334,"ilder":12335,"Ġran":12336,"ĠPers":12337,"Ġbreast":12338,"_times":12339,"ainer":12340,"inequality":12341,"acks":12342,"Ġìĺ":12343,"Ġframes":12344,"ocolate":12345,"Matrix":12346,"grade":12347,"Ġchief":12348,"Ġmovies":12349,"eah":12350,"Ġinher":12351,"KEY":12352,"_dot":12353,"Ġsod":12354,"Ġtransforms":12355,"Ġdisplayed":12356,"Pe":12357,"edelta":12358,"ĠGDP":12359,"Ġcodes":12360,"æĵ":12361,"icago":12362,"Ġmeal":12363,"Ġconsumer":12364,"ĠCategory":12365,"Ġdeploy":12366,"oved":12367,"åıĳ":12368,"ĠMexico":12369,"Ġbucket":12370,"_offset":12371,"_{-":12372,"Ġnarrow":12373,"_cor":12374,"ç±»åŀĭ":12375,"Ġsed":12376,"\"Sum":12377,"Ġtrouble":12378,"ĠâĶ":12379,"Element":12380,"_example":12381,"à¥ĭ":12382,"Ġexperts":12383,"Ġwa":12384,"ĠLee":12385,"rends":12386,"adding":12387,"onds":12388,"bolds":12389,".lastname":12390,"Ġfulf":12391,"ĠSS":12392,"idad":12393,"ĠMoon":12394,"Ġstudied":12395,"Ġmachines":12396,"Ġintelligence":12397,"AX":12398,"éĥ½":12399,"ĠChristmas":12400,"Ġconvex":12401,"Ġbought":12402,"icion":12403,"ĠHope":12404,"(type":12405,"ORE":12406,"boldsymbol":12407,"BER":12408,"Ġresid":12409,"Ġincreasingly":12410,"anes":12411,"Ġdream":12412,"ĠRoy":12413,"Ġswap":12414,"ĠSpanish":12415,"Ġthanks":12416,"Ġfoundation":12417,".isc":12418,"bing":12419,"_types":12420,"Ġcommunicate":12421,"Ġwatching":12422,"isters":12423,"account":12424,"umference":12425,"idal":12426,"ĠFather":12427,"]=":12428,"Ġwage":12429,"ìĭľ":12430,"ĠÐ¾Ð±":12431,"Ġtips":12432,"emporary":12433,"-test":12434,"ĠEquivalent":12435,"Ġdissip":12436,".K":12437,"``,":12438,"anta":12439,"Ġmeaningful":12440,"Ġformatted":12441,"Ġsensitivity":12442,"âķ":12443,"ĠJoseph":12444,"ounding":12445,"ĠÐ»":12446,"iodiversity":12447,"-state":12448,"Ġmedicine":12449,"}\".":12450,"_filename":12451,"Ġswim":12452,"incent":12453,"Ġ')Ċ":12454,"ĠIndust":12455,"Ġsick":12456,"isition":12457,"ĠHim":12458,"\\nu":12459,"Ġassociation":12460,"_integral":12461,"mg":12462,"icious":12463,"Ġobjectives":12464,"hab":12465,"Ġcontrib":12466,"Work":12467,"ÆĴ":12468,"ĠSep":12469,"Just":12470,"joint":12471,"Ġsrc":12472,"Ġcaught":12473,"chron":12474,"å¤Ħ":12475,"stable":12476,"ĠSand":12477,"Ġserves":12478,"Ġminimizes":12479,"mode":12480,"isely":12481,"_template":12482,"ideos":12483,"ãĤĮ":12484,"_vertex":12485,"Ġcot":12486,"RED":12487,"yles":12488,"ĠFibonacci":12489,"Ġinteractions":12490,"Ġrelate":12491,"ÐµÐ½Ð¸Ñı":12492,"Ġaccounting":12493,"})(":12494,"ĠGraph":12495,"ĠEnc":12496,"Ġvisualization":12497,"Graph":12498,"ĠUr":12499,"iot":12500,"sorted":12501,"/T":12502,"Ġforth":12503,"attice":12504,"çº¿":12505,".isclose":12506,"Ġeta":12507,"eye":12508,"Ġnucle":12509,")`":12510,"ĠFar":12511,"ĠLoss":12512,"Ġrecip":12513,"Ġgovernments":12514,"Ġfell":12515,"Ġholid":12516,"apply":12517,"ABLE":12518,"·¸":12519,"à½":12520,"Ġnit":12521,"_IN":12522,"Ġcalendar":12523,"Ġinclusive":12524,"Ġìłķ":12525,"ï¬ģ":12526,"Ġroads":12527,"Ġmoist":12528,"Ġsessions":12529,"/P":12530,"otor":12531,"Ġglob":12532,"_{-\\":12533,"ologist":12534,"Ġreaders":12535,"Ġrecognition":12536,"Ġexpectation":12537,"]},":12538,"ellect":12539,"Ġhur":12540,"ĠToday":12541,"oler":12542,"Ġ**\\$":12543,"Ġsubstit":12544,"_quad":12545,"{Number":12546,"Ġantib":12547,"ilation":12548,"Ġgray":12549,"Ġtimeout":12550,"preciation":12551,"ĠFlorida":12552,"-i":12553,"Ġsi":12554,"urations":12555,"-on":12556,"store":12557,"Alternatively":12558,"-N":12559,"ĠHom":12560,"()`":12561,"ĠBefore":12562,"_bytes":12563,"ĠStarting":12564,"[Tuple":12565,"dev":12566,"Ġsoldi":12567,"zone":12568,"Ġorthog":12569,"Ġfolder":12570,"Ġadm":12571,"ĠComplex":12572,"Ġgod":12573,"ĠPC":12574,"ĠMid":12575,"Ġcommitted":12576,"ĠâĪĪ":12577,"Ġphysically":12578,"ĠUsers":12579,"amos":12580,"Ġworry":12581,"Ġprovision":12582,"ĠArab":12583,"Ġbiggest":12584,"Oh":12585,"ovie":12586,"ĠBuilding":12587,"Ġsql":12588,"isting":12589,"ĠBlock":12590,"/r":12591,"ĠOx":12592,"Ġexecutive":12593,"Ġobserve":12594,"Ġhealthcare":12595,"Ġphotos":12596,"çŃī":12597,"Ġpenc":12598,"ĠSource":12599,"ĠStand":12600,"mann":12601,"ignment":12602,"))čĊčĊ":12603,"_window":12604,"find":12605,"ipp":12606,"ĠPeriod":12607,"=c":12608,"ĠColl":12609,"_post":12610,"(point":12611,"amping":12612,"å±Ĥ":12613,"Ġreflects":12614,"Ġversions":12615,"Ġhonest":12616,"ears":12617,"æĸŃ":12618,"ĠTransform":12619,"Ġtherapy":12620,"è°ĥçĶ¨":12621,"Ġmathematics":12622,"ĠHoly":12623,"ĠStar":12624,"ĠâĬ":12625,"Ġcooking":12626,"igate":12627,"Ġdelivered":12628,"square":12629,"Ġinitialize":12630,"Ġlosing":12631,"-sectional":12632,"GI":12633,"Ġlatter":12634,"ĠCore":12635,"Ġportfolio":12636,"ĠBet":12637,"upt":12638,"ĠView":12639,"{vmatrix":12640,"Ġturning":12641,"PH":12642,"Ġmechanism":12643,"pad":12644,"Ġturb":12645,"ĠCivil":12646,"_rel":12647,"ĠÂłĠÂł":12648,"Ġparabola":12649,"ois":12650,"Ġsubstance":12651,"éĤ":12652,"inction":12653,"...,":12654,"_linear":12655,".json":12656,"åħ¨":12657,"ĠChem":12658,"apse":12659,"Ġ<<":12660,"ertools":12661,"_bl":12662,"Ġcritic":12663,"ading":12664,"udio":12665,"Ġrounds":12666,"é¢ĺ":12667,"ĠOcc":12668,"solutions":12669,"ĠSales":12670,"Ġunable":12671,"yme":12672,"\"čĊ":12673,"*Note":12674,"Ġprinted":12675,"icted":12676,"Ġpreparation":12677,"hyd":12678,"ĊĊĊĊĊĊĊĊ":12679,"Ġtaxes":12680,"_non":12681,"ARY":12682,"CV":12683,"ders":12684,"pot":12685,"Ġrice":12686,"ĠWin":12687,"Ġdistributions":12688,"Ġnations":12689,"ĠPA":12690,"ĠWay":12691,".session":12692,"posing":12693,"IME":12694,"Ġdropped":12695,"Ġaccommod":12696,"[y":12697,"_edges":12698,"exponent":12699,"ĠObama":12700,"~~~~~~~~":12701,"ìĦ±":12702,"Ġmeets":12703,"setminus":12704,"Ġsoldiers":12705,"Every":12706,"unct":12707,"ĠExpl":12708,"ĠCreating":12709,"ĠSchools":12710,"ĠSuper":12711,".axhline":12712,"\\lim":12713,"ĠPan":12714,".from":12715,"rific":12716,"}}$$ĊĊ":12717,"Ġ$-\\":12718,"Implement":12719,"TA":12720,"ĠStudies":12721,"Ł©":12722,"Ġplanned":12723,"ĠFilter":12724,"Ġarrest":12725,"ĠHeight":12726,")!":12727,"ĠFrame":12728,"Ġstem":12729,"æ¸":12730,"Ġprints":12731,"Ġfighting":12732,"Ġdram":12733,"Ġfrag":12734,".stderr":12735,"Ġhazard":12736,"Ġcharged":12737,"lopes":12738,"DD":12739,"Ġrand":12740,"obile":12741,"ĠÃ·":12742,"nums":12743,"Ġmoral":12744,"Ġperfectly":12745,"Ġcopper":12746,"Ġwine":12747,"Ġìľ":12748,"Ġabsolutely":12749,"[::-":12750,"agraph":12751,"IB":12752,"_axis":12753,"Ġvital":12754,"_cur":12755,"Ġ]ĊĊ":12756,"()[":12757,"limate":12758,"/wiki":12759,"(values":12760,"ĠVector":12761,"_real":12762,"allelo":12763,"Ġelectro":12764,"Ġessay":12765,"Ġmanufacturing":12766,"ashes":12767,"ĠLab":12768,"Ġdealing":12769,"table":12770,"ĠMad":12771,"integral":12772,".*ĊĊ":12773,"ĠAdministration":12774,"ishment":12775,"Ġachievement":12776,"-left":12777,"]])ĊĊ":12778,"Ġunexpected":12779,"_neg":12780,"Ġexpenses":12781,"Ġ---Ċ":12782,"Ġusual":12783,"Ġshock":12784,"eller":12785,"_instance":12786,"_layer":12787,"Ġoriginally":12788,"åħ¸":12789,"claim":12790,"Ġdress":12791,"_columns":12792,"raq":12793,"Ġevening":12794,"Prove":12795,"å®¹":12796,"auge":12797,"ĠLink":12798,"Ġimagine":12799,"Ġapplicable":12800,"{dx":12801,"Ġweapons":12802,"ĠPur":12803,"Ġbeat":12804,"Ġcardinal":12805,"ala":12806,"ĠAssessment":12807,"_shift":12808,"ĠÐ³ÑĢÐ°Ð¼Ð¼":12809,"Ġclinical":12810,"¢«":12811,"Ġ;":12812,"ictor":12813,"Ġmassive":12814,"/hour":12815,"Ġstruggle":12816,"æŁ¥":12817,"Ġhyp":12818,"Ð¸ÑĤÑĮ":12819,"factor":12820,"Ġtrunc":12821,"ĠPopulation":12822,"Ġtickets":12823,")\\)":12824,"ulu":12825,"ighbors":12826,"ĠBE":12827,"ĠLittle":12828,"Ġcapacitor":12829,"å½¢":12830,"Ġtrail":12831,"Ġ{}\".":12832,"Ġmountain":12833,"æĦı":12834,"/j":12835,"ront":12836,"ithub":12837,"ĠPubl":12838,"Ġexpectations":12839,"ĠHawaii":12840,"Ġlake":12841,"ĠDifferent":12842,"Ġscan":12843,"ÑĢÐ¸":12844,"Ġoccasion":12845,"Ġinformed":12846,"Ġpert":12847,"module":12848,"_keys":12849,"ĠAx":12850,"Ġongoing":12851,"ĠÎ²":12852,"æĢģ":12853,".ceil":12854,"Ġtab":12855,".co":12856,"ulty":12857,"gorithm":12858,"ĠCapital":12859,"[row":12860,"ĠSuch":12861,"Ġ''":12862,"ĠLess":12863,"ibration":12864,"Ġcomputers":12865,"è®¤":12866,"ruit":12867,"ĠVariable":12868,"Â°,":12869,"ĠWithout":12870,"Ġcutting":12871,"ĠAngeles":12872,"è·¯":12873,"Ġtelling":12874,"Ġposit":12875,"Ġengaged":12876,"Ġdemonstrating":12877,"Ïī":12878,"##########Ċ":12879,"Ġcompr":12880,"-hour":12881,"Ġà¤¸":12882,"å¸¸":12883,"^t":12884,"Ġdz":12885,"Ġrevealed":12886,"Ġsole":12887,"full":12888,"Ġcommut":12889,"Ġtheme":12890,"(numbers":12891,"åľ°":12892,"Ġsongs":12893,"ĠTax":12894,"ĠNations":12895,"æİĴ":12896,"Ġnaturally":12897,"Ġasks":12898,"LECT":12899,"ĠAttributes":12900,"Ġflowers":12901,"Ġhappening":12902,"Ġconsideration":12903,"Ġrecipe":12904,"Ġliv":12905,"Ġgenes":12906,"Ġidentifying":12907,"/{":12908,"learning":12909,"ccos":12910,"rene":12911,"Will":12912,"_is":12913,"esides":12914,"Ġgenerating":12915,"å¹´":12916,"\\ln":12917,"éħį":12918,"Ġpole":12919,"į°":12920,"Ġreturning":12921,"Ġsad":12922,".normal":12923,".debug":12924,"Ġamazing":12925,"iated":12926,"Ġrapidly":12927,"(other":12928,"ĠGreek":12929,"ÂłÂłÂł":12930,"Ġfinds":12931,"/E":12932,"LU":12933,"Ġ$).ĊĊ":12934,"Ġreferences":12935,"ï¼īĊ":12936,"Ġclients":12937,"valuating":12938,"/k":12939,"Ġbanks":12940,"Ġeps":12941,"ĠVariance":12942,"Ġmodify":12943,"Ġlights":12944,"æī§è¡Į":12945,"ĠLabel":12946,"è¿Ļä¸ª":12947,"Ġstretch":12948,"will":12949,"exists":12950,"avorable":12951,"adv":12952,"icked":12953,"Although":12954,"pretation":12955,".scatter":12956,"game":12957,"Ġgenerates":12958,"door":12959,");Ċ":12960,"GET":12961,"ĠSpirit":12962,"ĠConservation":12963,"rr":12964,"Ġabstract":12965,"Position":12966,"ĠRange":12967,"ĠED":12968,"Ġquiet":12969,"wered":12970,"ĠConnect":12971,"][\"":12972,"Ġpound":12973,"Ġdraft":12974,"Ġdepos":12975,"(delta":12976,"prise":12977,"ju":12978,"|c":12979,"ĠSC":12980,"(lat":12981,"Ġagriculture":12982,"Don":12983,"wd":12984,"Ã¢":12985,"_scale":12986,"earing":12987,"_board":12988,"Last":12989,"ODE":12990,"ĮĢ":12991,"Ġow":12992,"ĠTimes":12993,"Ġalter":12994,"Take":12995,"ĠBasic":12996,"demic":12997,"arding":12998,"/âĪĤ":12999,"=[\"":13000,"Ġdiam":13001,"ĠKeyError":13002,"Ġfavorable":13003,"ê³¼":13004,"Ġexperiments":13005,"Ġhits":13006,"Ġintr":13007,"_cent":13008,"entials":13009,"amped":13010,"Search":13011,"elled":13012,"Ġarrived":13013,"ĠParse":13014,"_rot":13015,"Ġdice":13016,"asured":13017,"Ġconsumers":13018,"'}\")Ċ":13019,"bf":13020,"ĠSpe":13021,"(com":13022,"Ġperiodic":13023,"Ã£ÆĴ":13024,"ĠUpper":13025,"ä½įç½®":13026,"emon":13027,"login":13028,"Ġtransaction":13029,"Ġå°":13030,"ĠðŁ":13031,"įä½ľ":13032,"ictionaries":13033,"Ġcleaned":13034,"ĠNaN":13035,"lee":13036,"essages":13037,"Ġstrain":13038,"ĠâĪł":13039,"Ġaccessible":13040,"Ġdominant":13041,"Ġdurabilities":13042,"_squares":13043,"okens":13044,"Ġnewsp":13045,"ipeline":13046,"ensions":13047,"}\\,\\":13048,"Ġreflected":13049,"Ġfacing":13050,"ila":13051,"agen":13052,"ĠSea":13053,"_seq":13054,"ĠCartesian":13055,"_magnitude":13056,"derivative":13057,"Ġlinearly":13058,"iddleware":13059,"uke":13060,".wikipedia":13061,"Ġemployed":13062,"pie":13063,"/K":13064,"sol":13065,"Ġencouraged":13066,"æģ¯":13067,"ĠEV":13068,"ĠBer":13069,"ĠCourse":13070,"iability":13071,"}'.":13072,"Ġparamet":13073,"Ġchair":13074,"adients":13075,"bound":13076,"ĠTer":13077,"éĩĮ":13078,"Ġterror":13079,"Ġcats":13080,"earson":13081,"_hour":13082,"éĢī":13083,"æĹ¶éĹ´":13084,"ĠYears":13085,"BN":13086,"ih":13087,"Ġbasket":13088,"Ġplots":13089,"oked":13090,"Ġoffering":13091,"Ġfellow":13092,"allons":13093,"Ġconfusion":13094,"ĠFeatures":13095,"ivo":13096,"ĠCDF":13097,"_constant":13098,"IES":13099,"Ġintegrated":13100,"Ġchildhood":13101,"]))":13102,".seed":13103,"æıĲ":13104,"():":13105,"entry":13106,"ĠSon":13107,"Ġdrivers":13108,"æĶ¹":13109,"âľ":13110,"ĠLiter":13111,"ĠAdjust":13112,"ĠPlay":13113,"Ġimplementing":13114,"Ġstones":13115,"ubs":13116,"ariate":13117,"ĠPoisson":13118,"_items":13119,"Ġlunch":13120,"Ġreson":13121,"Ġroof":13122,"Ġintroduction":13123,"Ġcontradiction":13124,"Ġpizza":13125,"textit":13126,"Ġdisorder":13127,"Program":13128,"Ð²Ð¾":13129,"liers":13130,"unique":13131,"ignificant":13132,"_json":13133,".url":13134,"perm":13135,"oston":13136,"Ġboost":13137,".train":13138,"åĲ«":13139,"andidate":13140,"ĠÐ¸Ð·":13141,"Ġdecline":13142,"Ð¾Ð»ÑĮÐ·":13143,"microtext":13144,"Solution":13145,"[Ċ":13146,"ytes":13147,"ĠIO":13148,"_mon":13149,"orses":13150,".I":13151,"£¼":13152,"_sorted":13153,"ĉdef":13154,"Ġ\"/":13155,"âĢĶâĢĶ":13156,"Ïģ":13157,"Ġfrac":13158,"Ġsister":13159,"rob":13160,"ĠScale":13161,"Ð½ÑĭÑħ":13162,"Ġadequate":13163,"Ġvel":13164,"ĠPet":13165,"argest":13166,"Ġtermin":13167,"Ġmemo":13168,"Ġconsumed":13169,"Ġselecting":13170,"Ġchallenging":13171,"æ¯Ķ":13172,"ĠFinally":13173,"Ġacceptable":13174,"BD":13175,"ë¶":13176,"ĠJava":13177,"Ġsequential":13178,"good":13179,"}m":13180,"ĠMPa":13181,"à¤ķ":13182,"_def":13183,"ĠCE":13184,"Ġremoval":13185,"_content":13186,"Ġcommitment":13187,",d":13188,"Ġconscious":13189,"ĠValues":13190,"aclass":13191,"Ġreset":13192,"ricts":13193,"_critical":13194,"_double":13195,"Suppose":13196,"Ġextensive":13197,"-z":13198,"utch":13199,"\"Un":13200,"æľº":13201,"Ġsig":13202,"entence":13203,"ĠStaff":13204,"ĠAbout":13205,"Ġcontradict":13206,"æī¾":13207,"Ġpm":13208,"Ġdual":13209,"Ġsupplies":13210,"ingly":13211,"Ġgift":13212,"_win":13213,"Ġpassage":13214,"Ġ\"))Ċ":13215,".Date":13216,"æĹ¥":13217,"Ġalgorithms":13218,"Ġtowns":13219,"/D":13220,"ĠShort":13221,"Ð¿Ð¸Ñģ":13222,"Ġdedicated":13223,"Ġwildlife":13224,"asant":13225,".real":13226,"å¸Ĥ":13227,"(abs":13228,"Ġinsight":13229,"SI":13230,"Ġsoc":13231,"available":13232,"ĠArmy":13233,"Ġcubes":13234,"Ġofficers":13235,"Ġmoments":13236,".int":13237,"Ġchunk":13238,"Ġexpend":13239,"ĠAcademy":13240,"Ġelevation":13241,"ĠFre":13242,"Ġminds":13243,"_hash":13244,"Ġposterior":13245,"Ġcable":13246,"Ġpump":13247,"such":13248,"Ġendpoints":13249,"ÑħÐ¾Ð´":13250,".loc":13251,"uum":13252,"Ġrecre":13253,"ĠMel":13254,".gcd":13255,"Ġboat":13256,".\\(":13257,"Level":13258,"Ġshadow":13259,"onymous":13260,"agg":13261,"Ġcols":13262,"ĠCentre":13263,"note":13264,"ĠCOVID":13265,"Que":13266,"Ġphrase":13267,"ĠMuseum":13268,"Ġsenior":13269,"ĠAT":13270,"}\\|":13271,"Ġwhereas":13272,"Ġmembership":13273,"Ġsilver":13274,"Ġwestern":13275,"MSE":13276,"ĠSelf":13277,"rolled":13278,"ĠEll":13279,"Ġrepair":13280,"Ġscholars":13281,"ĠIraq":13282,"Week":13283,"Ġcleaning":13284,"Ġmolecules":13285,"_stats":13286,"Ġreads":13287,"Ġcapacitance":13288,"Ġ...ĊĊ":13289,"Ġpolitics":13290,"(index":13291,"Cost":13292,"bered":13293,"Ġexamine":13294,"Ġhtml":13295,"Ġgained":13296,"Ġissued":13297,"amilton":13298,"Ġcomfortable":13299,"tax":13300,"ĠPlant":13301,"Ġstronger":13302,"Ġtube":13303,"Ġaircraft":13304,"ented":13305,"Ġdep":13306,"ĠRock":13307,".Optional":13308,"\"Con":13309,"Ac":13310,"build":13311,"Ġrelax":13312,"Ġoptimizer":13313,"=['":13314,"End":13315,"Lambda":13316,"æ·":13317,"_channels":13318,"Ġconfirmed":13319,"Ġaddresses":13320,"Ġtrading":13321,"ĠMen":13322,"Ġinfinity":13323,"orial":13324,"Ġnorthern":13325,"-sided":13326,"criptions":13327,"heric":13328,"Ġradial":13329,"Ġconcaten":13330,"Ġprofessionals":13331,"_Q":13332,"ĠMaster":13333,"YPE":13334,"Ŀ¼":13335,"asis":13336,"ĠÏī":13337,"Ġcomposite":13338,"Art":13339,"RR":13340,"ĠHam":13341,"Process":13342,"ĠBased":13343,"je":13344,"ĠHind":13345,"redictions":13346,"ìĨ":13347,"isease":13348,"Ġdetermines":13349,"+y":13350,"(solution":13351,"cers":13352,"Ġip":13353,"Ġbone":13354,"ĠÐ¿ÐµÑĢ":13355,"pressed":13356,"ĠRadius":13357,"(['":13358,"ĠÑĩÐ¸Ñģ":13359,"Ġingredients":13360,"(area":13361,"ĠDid":13362,"Âłto":13363,"merican":13364,"Ġimprovements":13365,"Ġsuffering":13366,"ĠBehavior":13367,"Ġbars":13368,"ĠSplit":13369,"Ġupload":13370,"Ġstructural":13371,".'":13372,"Area":13373,"Product":13374,"Ġsouthern":13375,"Ġemotions":13376,"Direct":13377,"idade":13378,"Ġfeels":13379,"Ġprevention":13380,"ĠEnter":13381,"wan":13382,"_fields":13383,"Ġrotate":13384,"artswith":13385,"SW":13386,"Ġbath":13387,"ĠCard":13388,"âĢĺ":13389,"Ġfunctionality":13390,"Ġeverywhere":13391,"Ġevaluating":13392,"Ġexecuted":13393,"Ġreviews":13394,"Ġincred":13395,"income":13396,"Ġnumero":13397,"éĹ®":13398,"AE":13399,"ĠBern":13400,"Ġclothes":13401,"Ġpermanent":13402,"}\",":13403,"ady":13404,"Ġperforming":13405,"Ġinvestigation":13406,"Ġracial":13407,"Ġastr":13408,"Ġbranches":13409,"igenous":13410,".âĢĶ":13411,"aration":13412,"acle":13413,"angled":13414,"Ġbrings":13415,"Ġassumptions":13416,"Ġsubsets":13417,"Ġcopies":13418,"Ġwelcome":13419,"ĠYet":13420,"Ġarchitecture":13421,"è¢«":13422,"abits":13423,"Ġcovering":13424,"Ġwonderful":13425,"Ġsoup":13426,"Ġevil":13427,"Ð¸Ð²":13428,".fl":13429,"umping":13430,"angers":13431,"_eval":13432,"ĠNor":13433,"Ġauthorities":13434,"ĠìŀĪ":13435,"Ġearnings":13436,"Ġbonds":13437,"Ġstructured":13438,"timestamp":13439,"æĺİ":13440,"ĠSimple":13441,"Ġbullet":13442,"Ġelectronic":13443,"íĸ":13444,"verification":13445,"Ġvisitors":13446,".image":13447,"Ġhat":13448,"Ġmarker":13449,".compile":13450,"Ġartists":13451,"Ġconvolution":13452,"Ġbeauty":13453,"\"Original":13454,"PER":13455,"_sol":13456,"achment":13457,"Ġdeaths":13458,"Ġfeat":13459,"Ġshorter":13460,"allelogram":13461,"Vert":13462,"Ġdefining":13463,"positions":13464,"ĠBest":13465,"III":13466,"Ġlegislation":13467,"Ġcentre":13468,".core":13469,"Ġsomewhat":13470,".qu":13471,"Ġtaste":13472,"Ġther":13473,"Ġglo":13474,"ĠEss":13475,"Ġsubmit":13476,"ivities":13477,"card":13478,"Ġhence":13479,"Ġsubgroup":13480,"Ġsupplied":13481,"Ġlaunched":13482,"Ġpreserve":13483,"IVE":13484,"ivated":13485,"ĠScore":13486,"Ġcomposed":13487,"Module":13488,"Ġdropout":13489,"ĠGovern":13490,"Ġohms":13491,"ä¼ł":13492,"URE":13493,"tm":13494,"tra":13495,"é»":13496,"ulo":13497,"Ġorange":13498,"Ġadoles":13499,"Ġrelief":13500,"Ġfalling":13501,"Ġsons":13502,"Ġbases":13503,"æŃ¤":13504,"ĠRichard":13505,".current":13506,"Ġannually":13507,"offset":13508,"Ġdebate":13509,"æ³¨":13510,"à°":13511,"ĠSI":13512,"Ġminus":13513,".display":13514,"ĠìĿ´":13515,"RC":13516,"Ġbat":13517,"ĠAgain":13518,"Ġaims":13519,"ĠMer":13520,"(obj":13521,"ĠMater":13522,"æĵįä½ľ":13523,"ĠCelsius":13524,"Ġcontributes":13525,"Ġexplo":13526,"ìĿ¼":13527,"å½ĵåīį":13528,"Ġteen":13529,"arked":13530,"ĠCanadian":13531,"Eng":13532,"ĠLCM":13533,"agonals":13534,".route":13535,"Âłof":13536,"Ġmultiples":13537,"ĠApplication":13538,"_positive":13539,")\"Ċ":13540,"unning":13541,"Ġplain":13542,"Ġtemporary":13543,"ï¸":13544,"ĠEvent":13545,"Ġê³":13546,"(out":13547,"irds":13548,"Ġoverw":13549,"ččĊ":13550,"ĠÐĴ":13551,"cut":13552,"source":13553,"ĠZeal":13554,"âĤĥ":13555,"ĠStatement":13556,"jo":13557,"aped":13558,"Ġdefend":13559,"Ġarts":13560,"Ġnominal":13561,"raid":13562,"çĻ":13563,"Ġdos":13564,"ĠEND":13565,"Ġreliable":13566,"cii":13567,"æľŁ":13568,"Ġimmune":13569,"Ġsubtracting":13570,"ĠPE":13571,"_pr":13572,"interest":13573,"Ġtrapezoid":13574,"Ġcorners":13575,"median":13576,".choice":13577,"Ġalignment":13578,"icide":13579,"Ġshifts":13580,"Ġtea":13581,"olumb":13582,"ĠINV":13583,"mond":13584,"Ġstrongly":13585,"Ã¨":13586,"Ġwelfare":13587,"Ġgrew":13588,"within":13589,"Ġsatellite":13590,"_space":13591,"irement":13592,"numbers":13593,".axv":13594,"rio":13595,"ĠRGB":13596,"_phi":13597,"({\"":13598,"bury":13599,"isors":13600,"ĠEM":13601,"(lst":13602,"Ġexhaust":13603,"_cases":13604,"erman":13605,"{mA":13606,"Ġundert":13607,"WH":13608,"added":13609,"Ġfairly":13610,"_earth":13611,"RS":13612,"etry":13613,"apes":13614,"çİ¯":13615,"when":13616,"Ġles":13617,"anted":13618,"Ġimplicit":13619,"_frequency":13620,".edu":13621,"Call":13622,"ĠFlow":13623,"ĠFuture":13624,"ĠkW":13625,"Ġmarkers":13626,"Ġconverts":13627,"noon":13628,"æķ°åŃĹ":13629,"ĠRen":13630,"Ġdemonstrated":13631,"Ġestimator":13632,"Ġpreval":13633,"ATOR":13634,"Ġconnecting":13635,"_feet":13636,"ĠCircle":13637,"users":13638,"ĠFrequency":13639,"answer":13640,"_paths":13641,"Ġhyperbol":13642,"orce":13643,"Ġfashion":13644,"(simplified":13645,"Ġpercentages":13646,"IONS":13647,"frak":13648,"Ġregistered":13649,"Ġtiles":13650,"mathfrak":13651,"Ġagents":13652,"ĠMeta":13653,"Ġsmoking":13654,"Ġguys":13655,"ĠJews":13656,"Ġ-*-Ċ":13657,"çĬ":13658,"apple":13659,"\"New":13660,"ï¸ı":13661,"Ġcollaboration":13662,"ĠSn":13663,"Ġliteracy":13664,"=models":13665,"ancel":13666,"Ġcylind":13667,"Ġclassical":13668,"azine":13669,"Ġaddressed":13670,"ruption":13671,"}Â°\")":13672,"\">":13673,"sets":13674,"Øª":13675,"_average":13676,"temp":13677,"Ġtill":13678,"ĠkN":13679,"_dis":13680,"ELL":13681,"Ġmesh":13682,"stop":13683,"ĠJo":13684,"Ġ(-\\":13685,"ARNING":13686,"abeth":13687,"Ġstops":13688,"block":13689,"apy":13690,"Â°)":13691,"overrightarrow":13692,"brid":13693,".axvline":13694,"[self":13695,"Ġchicken":13696,"ucose":13697,"Ġelementary":13698,"_counter":13699,"Main":13700,"Ġdrain":13701,"password":13702,"çīĩ":13703,"ĠWal":13704,"Ġfiltered":13705,")}{(":13706,"ĠFrancisco":13707,"(array":13708,"ĠLabor":13709,"Ġsimplest":13710,".auth":13711,"heap":13712,"Ġversus":13713,"Ġlect":13714,"\":\"":13715,"Ð»Ð¾":13716,"Ġdriven":13717,"åĪĿ":13718,"Are":13719,"Ke":13720,"lie":13721,"etary":13722,"ĠSM":13723,"Ġconserv":13724,"Ġclassifier":13725,"ãĥ«":13726,"Even":13727,"Mod":13728,"ĠSV":13729,"ysical":13730,"Ġhistoric":13731,"enda":13732,"equivalent":13733,"\"In":13734,"'\\":13735,"ĠNY":13736,"Ġrealized":13737,"Jan":13738,"cule":13739,"ĠSometimes":13740,"Ġborrow":13741,"Ġ\"%":13742,"_match":13743,".tight":13744,"Ġultimately":13745,"aka":13746,"ĠImprove":13747,"\"Percentage":13748,"åħĪ":13749,"Ġstrike":13750,"Ġbelongs":13751,"Ġtur":13752,"igo":13753,"Ġelasticity":13754,"ĠStation":13755,"Ġattr":13756,"_format":13757,"caten":13758,"æ¡":13759,"iti":13760,"Ġinduced":13761,"ĠLatin":13762,"-scale":13763,".extend":13764,"ĠZealand":13765,"ħëł¥":13766,"_small":13767,"_payment":13768,"Ġ\\((":13769,"(response":13770,"Write":13771,"river":13772,"}})":13773,"Ġpaying":13774,"íķĺëĬĶ":13775,"Fl":13776,"gage":13777,"(sample":13778,"ĠnÃºmero":13779,".atan":13780,"Gu":13781,"Ġmanaging":13782,"(models":13783,"(co":13784,"GM":13785,".example":13786,"being":13787,"Ġmouse":13788,"ĠStock":13789,"Ġsimultaneously":13790,"Ġcmath":13791,"ĠSaturday":13792,"Ġtotally":13793,"rible":13794,"Ġvalidity":13795,"\"Area":13796,">=":13797,"ĠDev":13798,"Ġwinner":13799,"*Ċ":13800,"_en":13801,"pts":13802,"vertex":13803,".\")ĊĊĊ":13804,"ĠStruct":13805,"ĠAvoid":13806,"(integrand":13807,"Ġregul":13808,"Ġherself":13809,"Ġabsence":13810,".list":13811,"Ġignored":13812,"oned":13813,"Ġspeeds":13814,"late":13815,"Ġneur":13816,"Ġattitude":13817,"balance":13818,"Ġstudying":13819,"Ġtracking":13820,"Classifier":13821,"ĠRussia":13822,"Ġreform":13823,"plots":13824,"ĠPay":13825,"Ġequilateral":13826,"ngle":13827,"Height":13828,"fish":13829,"Ġfifth":13830,"edit":13831,"////////":13832,"æĽ´":13833,"#--------":13834,")_":13835,"}-":13836,"blank":13837,"Ġvulnerable":13838,".\")":13839,".ones":13840,"éĸ":13841,"Ġtower":13842,"incorrect":13843,"BO":13844,"atility":13845,"Ġct":13846,"ani":13847,"Ġnest":13848,"Ġexcluded":13849,"Ġclosing":13850,"Ġ[{":13851,"insic":13852,"Ġtrigger":13853,"âķĲ":13854,"ifting":13855,"ĠDer":13856,"ĠDays":13857,"parts":13858,"Ġarrangement":13859,"ibraries":13860,"Rep":13861,"ĠSN":13862,"Ġinvolvement":13863,"ç³":13864,"Current":13865,"ĠCamb":13866,"_triangle":13867,"_man":13868,"Ġentering":13869,"_ev":13870,".ac":13871,".),":13872,"ACE":13873,"_URL":13874,"direction":13875,"returns":13876,"Ġroutine":13877,"Ġchord":13878,"_pol":13879,"Ĥ¨":13880,"ashed":13881,"Ġeffectiveness":13882,"ugging":13883,"ä¹Ł":13884,"å±ŀæĢ§":13885,"ivid":13886,"ologists":13887,"ĠAsk":13888,"')(":13889,"ìĺ":13890,"minutes":13891,"Ġ%(":13892,"_newdoc":13893,"Ġengagement":13894,"çŁ¥":13895,"iscal":13896,"ĠBinary":13897,"Ġabilities":13898,"tery":13899,"urrences":13900,"fficiency":13901,"ĠScott":13902,"zon":13903,"åĪ¤":13904,"Ġhomogeneous":13905,"decode":13906,"OF":13907,"aÃ§Ã£o":13908,"orque":13909,"plicate":13910,"Ġneural":13911,"ali":13912,"uling":13913,"Ġrooms":13914,"ç»´":13915,"åĿĹ":13916,":]Ċ":13917,"ĠTher":13918,"accuracy":13919,"Ġtraject":13920,"Ġegg":13921,"amber":13922,"umeric":13923,"Ġbirthday":13924,"itanic":13925,"(Î¸":13926,"bc":13927,"Ġcentroid":13928,".trans":13929,"è¿Ĳ":13930,"ĠÏģ":13931,"_integer":13932,"Ġasymptotic":13933,"cp":13934,"Ùĩ":13935,"Ġfabric":13936,"Ġbicy":13937,"Ġcomplicated":13938,"Ġstationary":13939,"scale":13940,"Ġdrops":13941,"ĠMust":13942,"Cal":13943,"adjusted":13944,"_full":13945,"lux":13946,"ortion":13947,"ĠEs":13948,"_msg":13949,"ĠRevenue":13950,"Ġexplos":13951,"ä»»":13952,"Ġbottle":13953,"Ġdust":13954,"ÐµÐ³":13955,".color":13956,"Ġconstantly":13957,"ĠThanks":13958,".imshow":13959,"ĠChoose":13960,"Ġintellect":13961,"ILL":13962,"ranch":13963,"Ġvolumes":13964,".ĊĊĊĊ":13965,"embers":13966,"ãĤĬ":13967,"_FILE":13968,"Correct":13969,"anded":13970,"Ġunw":13971,"_delta":13972,"_pre":13973,"à¤¤":13974,"Ġgenerations":13975,"Ġeditor":13976,"Ġmaintained":13977,".parse":13978,"Ġlaugh":13979,"ĠAttribute":13980,"Ġincom":13981,"emo":13982,"gt":13983,"ifer":13984,"Ġsolved":13985,"Ġalleg":13986,"ìŀ¥":13987,"å®ļä¹ī":13988,"unicipal":13989,"mn":13990,"ati":13991,"âĢĻ,":13992,"regular":13993,"Ġdense":13994,"assuming":13995,"Ðĳ":13996,"pyright":13997,"Ġjur":13998,"ãĤī":13999,"ĠOhm":14000,"BE":14001,"_center":14002,"Ġflags":14003,"isa":14004,"Ġsharp":14005,"{mg":14006,"Ġedit":14007,"osh":14008,"_bits":14009,"Ġoperates":14010,"help":14011,"(expr":14012,"rog":14013,"aska":14014,"Well":14015,"ĠODE":14016,"Ġdiffers":14017,"ĠMinister":14018,"erts":14019,"ç§į":14020,"Ġconcerning":14021,")\",":14022,"TO":14023,"Ġdummy":14024,"uma":14025,"hedron":14026,"è¯Ń":14027,"_resistance":14028,"ione":14029,"Ġ$**:":14030,"Ġanch":14031,"(sub":14032,"Ġacute":14033,"relative":14034,"ĠPractice":14035,"¨ìĪĺ":14036,"Ġconfident":14037,"_degrees":14038,"Ġbeliefs":14039,"\"[":14040,"^m":14041,"gar":14042,"ĠFunctions":14043,"Ġsurve":14044,"lings":14045,"ossible":14046,"_capacity":14047,"elay":14048,"Ġgallon":14049,"Ġancest":14050,"ĠRain":14051,"_scaled":14052,"ĠHa":14053,"prop":14054,"Ġreserv":14055,"_vol":14056,"Ġbench":14057,"Widget":14058,"_case":14059,"_students":14060,"(radius":14061,"irls":14062,"ĠAgency":14063,"-world":14064,"stall":14065,"ĠPhase":14066,"_Z":14067,"ĠTemperature":14068,"(size":14069,"Ġmaximize":14070,"asters":14071,"Ġhasattr":14072,".floor":14073,"Ġkeeps":14074,"Ġgreatly":14075,"Ġcircul":14076,"ĠSat":14077,"Ġride":14078,"ĠNumerical":14079,"ĠBritain":14080,"Ġchronic":14081,"(\"%":14082,"Ġsusp":14083,"ĠìĿ´ë":14084,"craft":14085,"Ġdisposal":14086,"Ġpron":14087,"Ġbless":14088,"Ġindicator":14089,"Pass":14090,"seud":14091,"Ġjack":14092,"iece":14093,"()))Ċ":14094,"ORM":14095,"'}),čĊ":14096,"Profit":14097,"çĽ´":14098,"]}\")Ċ":14099,"csc":14100,"endent":14101,"Ġdinner":14102,"engine":14103,"Student":14104,"Ġconjugate":14105,"Ġentr":14106,"ĠApplying":14107,"ĠMedical":14108,"ĠGradient":14109,"Ġtissue":14110,"/en":14111,"ĠVelocity":14112,"Ġeveryday":14113,"ampaign":14114,"-K":14115,"Ġtiny":14116,"crement":14117,"Arg":14118,"_pressure":14119,"Ġprism":14120,".net":14121,"Divide":14122,"ĠRisk":14123,"Ġbeneficial":14124,"datetime":14125,"een":14126,"Ġdefense":14127,"Ġchecked":14128,".status":14129,"ëŀ":14130,"hell":14131,"Ġcorn":14132,"Ġofficer":14133,"è®¾ç½®":14134,"Ġfocal":14135,"ĠIndians":14136,".keras":14137,"ses":14138,"Ġthresh":14139,"Ġdifferently":14140,"Ġfrust":14141,"ìĬ¤íĬ¸":14142,"ĠCreek":14143,"yping":14144,"observed":14145,"æĪĳä»¬":14146,"magnitude":14147,"heres":14148,"Ġbc":14149,"Ġhall":14150,"egu":14151,"Ġfeasible":14152,"Ġrepresentative":14153,"pop":14154,"Ġlicense":14155,"Ġunus":14156,"inson":14157,"Ġbringing":14158,"Cho":14159,"agues":14160,"Ġdecade":14161,"Ġphotograph":14162,"ĠPlanning":14163,"pection":14164,"Ġchose":14165,"Ġidentification":14166,"Ġformatting":14167,"Ġpremium":14168,".u":14169,"nam":14170,"Ġbrowser":14171,"Ġoral":14172,"Ġresil":14173,"']:.":14174,".now":14175,"ymbolic":14176,"é«":14177,"Ġble":14178,"\"\"\"ĊĊĊ":14179,"exual":14180,"Ġanswered":14181,"Ġrestrictions":14182,"Ġ(âīĪ":14183,"ĠNever":14184,"ĠBoolean":14185,"Ġheating":14186,"Ġdifficulties":14187,"\"Is":14188,"iating":14189,"ivariate":14190,"Ġresistors":14191,"ĠLtd":14192,"Ġforming":14193,"Ġlogistic":14194,"Ġprecisely":14195,"\"Result":14196,".open":14197,"Ġera":14198,"ĠAff":14199,"_beta":14200,"ĠWaste":14201,"Ġstopping":14202,".randn":14203,"POST":14204,"Ġdisappe":14205,"ERR":14206,"Ġå¦Ĥ":14207,".search":14208,"_ĊĊ":14209,"hash":14210,"ĠChicago":14211,"Ġbasically":14212,"ABC":14213,"_epoch":14214,"ĉself":14215,"Ġpit":14216,"_move":14217,"Ġseeking":14218,"ĠAgriculture":14219,"Ġnutrients":14220,"Method":14221,"ĠLin":14222,"ĠGrowth":14223,"orest":14224,"(sys":14225,"ONE":14226,"(col":14227,"Ġmail":14228,"Ġearned":14229,"ç¼ĸ":14230,"çĬ¶":14231,"dat":14232,"Î¤":14233,"Ġfootball":14234,"Ġhardware":14235,"Ġsuffer":14236,"Ġpapers":14237,"Ġhurt":14238,"ĠTem":14239,"\\}$,":14240,"ĠAbsolute":14241,"_binary":14242,"Ġdetermining":14243,"Ġclaimed":14244,"ĠOtherwise":14245,"Ġexport":14246,"aks":14247,"Students":14248,"ĠReuse":14249,"ĠPoints":14250,"urable":14251,"ĠSlope":14252,"Ġneck":14253,"ĠMartin":14254,"µ¬":14255,"Ġdic":14256,"Ġ(*":14257,"Ġprogression":14258,"params":14259,"clusions":14260,"ECT":14261,"Theta":14262,"-cl":14263,"MC":14264,"nings":14265,"Ġtraveling":14266,"Normal":14267,"oil":14268,"Ġfiber":14269,"Ġrising":14270,"ĠÐ¶":14271,"ãģĵ":14272,"Ġprovider":14273,"ĠSu":14274,"ikelihood":14275,"ĠInterval":14276,"ĠkÎ©":14277,"conv":14278,"åĪ«":14279,"Ġmultiplied":14280,"è¶":14281,"}}^":14282,"Ġvisits":14283,"ĠPak":14284,"Ġprinting":14285,"Ġowned":14286,"OWN":14287,"ĠFacebook":14288,"Ġepisode":14289,"ĠCountry":14290,"åĬĽ":14291,"bits":14292,"degrees":14293,"ĠEffect":14294,"]))ĊĊ":14295,"Ġblo":14296,"Ġvideos":14297,"Ġitertools":14298,"Ġdose":14299,"Ġdraws":14300,"Ġassignments":14301,"Who":14302,"_view":14303,"ĠAllow":14304,"Ġnegot":14305,"Ġbuying":14306,"ĠPositive":14307,"Âłin":14308,"Ġoverhead":14309,"ilters":14310,"Ġdestroyed":14311,"ais":14312,"make":14313,"tree":14314,"quart":14315,"\"Ap":14316,"Only":14317,"Ġmerely":14318,"isdom":14319,"Ġdd":14320,"ĠPresent":14321,"ĠBL":14322,"Ġjoules":14323,"ynt":14324,"Ġdance":14325,"verified":14326,"_gain":14327,"Ġcallback":14328,"ori":14329,"Ġchemicals":14330,"Handler":14331,"ĠìĤ¬ìļ©":14332,"Ġyard":14333,"ĠLim":14334,"utrition":14335,"_ms":14336,"ĠZero":14337,"ĠParticip":14338,"Ġtrick":14339,"Ġhelper":14340,"gressive":14341,"ctr":14342,"Ġarrival":14343,"Ġanywhere":14344,"[r":14345,"_enc":14346,"Ġlun":14347,"Ġwhites":14348,"_NAME":14349,"_miles":14350,"-being":14351,"ĠAppend":14352,"Ġsurvive":14353,"_diameter":14354,"iene":14355,"Ðľ":14356,"ĠStop":14357,"Ġsignature":14358,"Ġpickle":14359,"rypted":14360,".utils":14361,"Ġavailability":14362,"ema":14363,"(state":14364,"ĠÐºÐ¾ÑĤ":14365,"ĠEastern":14366,"Tensor":14367,"_U":14368,"Ġbreaking":14369,"fold":14370,"Ġslopes":14371,"Ġ-->":14372,"Ġdynamics":14373,"Ġrom":14374,"Ġlhs":14375,"ĠArts":14376,",h":14377,"aret":14378,"ryption":14379,"vertical":14380,"åŃ¦":14381,"ĠTransport":14382,"ĠMarket":14383,".upper":14384,"AV":14385,"_address":14386,"ĠProtection":14387,"(arg":14388,"mask":14389,"Ġaccumul":14390,"Ġintro":14391,"pix":14392,"},{":14393,"ĠCOMM":14394,"Also":14395,"(\"\"":14396,"ĠTR":14397,"ĠMur":14398,"ĠFROM":14399,"Ġintake":14400,"Ġblind":14401,"Ġbaseline":14402,"oir":14403,"ĠEp":14404,"ĠYouth":14405,"arket":14406,"ĠâĪ«":14407,"æĮĩå®ļ":14408,"Ġbullying":14409,"ĠCou":14410,"fg":14411,"ĠLocation":14412,"Ġgraphs":14413,"isted":14414,"agog":14415,"Ġships":14416,"ĠComment":14417,"']}\")Ċ":14418,"-|----":14419,"hr":14420,"quir":14421,"Ġstreets":14422,
[...]
