{"version":"1.0","truncation":null,"padding":null,"added_tokens":[{"id":0,"content":"<|endoftext|>","single_word":false,"lstrip":false,"rstrip":false,"normalized":false,"special":true},{"id":1,"content":"<|pad|>","single_word":false,"lstrip":false,"rstrip":false,"normalized":false,"special":true},{"id":2,"content":"<|bos|>","single_word":false,"lstrip":false,"rstrip":false,"normalized":false,"special":true},{"id":3,"content":"<|system|>","single_word":false,"lstrip":false,"rstrip":false,"normalized":false,"special":true},{"id":4,"content":"<|user|>","single_word":false,"lstrip":false,"rstrip":false,"normalized":false,"special":true},{"id":5,"content":"<|assistant|>","single_word":false,"lstrip":false,"rstrip":false,"normalized":false,"special":true},{"id":6,"content":"<|think|>","single_word":false,"lstrip":false,"rstrip":false,"normalized":false,"special":true},{"id":7,"content":"<|/think|>","single_word":false,"lstrip":false,"rstrip":false,"normalized":false,"special":true},{"id":8,"content":"<|response|>","single_word":false,"lstrip":false,"rstrip":false,"normalized":false,"special":true},{"id":9,"content":"<|/response|>","single_word":false,"lstrip":false,"rstrip":false,"normalized":false,"special":true},{"id":10,"content":"<|tool|>","single_word":false,"lstrip":false,"rstrip":false,"normalized":false,"special":true},{"id":11,"content":"<|/tool|>","single_word":false,"lstrip":false,"rstrip":false,"normalized":false,"special":true},{"id":12,"content":"<|end_of_msg|>","single_word":false,"lstrip":false,"rstrip":false,"normalized":false,"special":true},{"id":13,"content":"<|reserved_0|>","single_word":false,"lstrip":false,"rstrip":false,"normalized":false,"special":true},{"id":14,"content":"<|reserved_1|>","single_word":false,"lstrip":false,"rstrip":false,"normalized":false,"special":true},{"id":15,"content":"<|reserved_2|>","single_word":false,"lstrip":false,"rstrip":false,"normalized":false,"special":true},{"id":16,"content":"<|reserved_3|>","single_word":false,"lstrip":false,"rstrip":false,"normalized":false,"special":true},{"id":17,"content":"<|reserved_4|>","single_word":false,"lstrip":false,"rstrip":false,"normalized":false,"special":true},{"id":18,"content":"<|reserved_5|>","single_word":false,"lstrip":false,"rstrip":false,"normalized":false,"special":true},{"id":19,"content":"<|reserved_6|>","single_word":false,"lstrip":false,"rstrip":false,"normalized":false,"special":true},{"id":20,"content":"<|reserved_7|>","single_word":false,"lstrip":false,"rstrip":false,"normalized":false,"special":true},{"id":21,"content":"<|reserved_8|>","single_word":false,"lstrip":false,"rstrip":false,"normalized":false,"special":true},{"id":22,"content":"<|reserved_9|>","single_word":false,"lstrip":false,"rstrip":false,"normalized":false,"special":true},{"id":23,"content":"<|reserved_10|>","single_word":false,"lstrip":false,"rstrip":false,"normalized":false,"special":true},{"id":24,"content":"<|reserved_11|>","single_word":false,"lstrip":false,"rstrip":false,"normalized":false,"special":true},{"id":25,"content":"<|reserved_12|>","single_word":false,"lstrip":false,"rstrip":false,"normalized":false,"special":true},{"id":26,"content":"<|reserved_13|>","single_word":false,"lstrip":false,"rstrip":false,"normalized":false,"special":true},{"id":27,"content":"<|reserved_14|>","single_word":false,"lstrip":false,"rstrip":false,"normalized":false,"special":true},{"id":28,"content":"<|reserved_15|>","single_word":false,"lstrip":false,"rstrip":false,"normalized":false,"special":true},{"id":29,"content":"<|reserved_16|>","single_word":false,"lstrip":false,"rstrip":false,"normalized":false,"special":true},{"id":30,"content":"<|reserved_17|>","single_word":false,"lstrip":false,"rstrip":false,"normalized":false,"special":true},{"id":31,"content":"<|reserved_18|>","single_word":false,"lstrip":false,"rstrip":false,"normalized":false,"special":true}],"normalizer":null,"pre_tokenizer":{"type":"Sequence","pretokenizers":[{"type":"Split","pattern":{"Regex":"(?i:'s|'t|'re|'ve|'m|'ll|'d)|[^\\r\\n\\p{L}\\p{N}]?\\p{L}+|\\p{N}+| ?[^\\s\\p{L}\\p{N}]+[\\r\\n]*|\\s*[\\r\\n]+|\\s+(?!\\S)|\\s+"},"behavior":"Isolated","invert":false},{"type":"ByteLevel","add_prefix_space":false,"trim_offsets":true,"use_regex":false}]},"post_processor":{"type":"ByteLevel","add_prefix_space":true,"trim_offsets":true,"use_regex":true},"decoder":{"type":"ByteLevel","add_prefix_space":true,"trim_offsets":true,"use_regex":true},"model":{"type":"BPE","dropout":null,"unk_token":null,"continuing_subword_prefix":null,"end_of_word_suffix":null,"fuse_unk":false,"byte_fallback":false,"ignore_merges":false,"vocab":{"<|endoftext|>":0,"<|pad|>":1,"<|bos|>":2,"<|system|>":3,"<|user|>":4,"<|assistant|>":5,"<|think|>":6,"<|/think|>":7,"<|response|>":8,"<|/response|>":9,"<|tool|>":10,"<|/tool|>":11,"<|end_of_msg|>":12,"<|reserved_0|>":13,"<|reserved_1|>":14,"<|reserved_2|>":15,"<|reserved_3|>":16,"<|reserved_4|>":17,"<|reserved_5|>":18,"<|reserved_6|>":19,"<|reserved_7|>":20,"<|reserved_8|>":21,"<|reserved_9|>":22,"<|reserved_10|>":23,"<|reserved_11|>":24,"<|reserved_12|>":25,"<|reserved_13|>":26,"<|reserved_14|>":27,"<|reserved_15|>":28,"<|reserved_16|>":29,"<|reserved_17|>":30,"<|reserved_18|>":31,"!":32,"\"":33,"#":34,"$":35,"%":36,"&":37,"'":38,"(":39,")":40,"*":41,"+":42,",":43,"-":44,".":45,"/":46,"0":47,"1":48,"2":49,"3":50,"4":51,"5":52,"6":53,"7":54,"8":55,"9":56,":":57,";":58,"<":59,"=":60,">":61,"?":62,"@":63,"A":64,"B":65,"C":66,"D":67,"E":68,"F":69,"G":70,"H":71,"I":72,"J":73,"K":74,"L":75,"M":76,"N":77,"O":78,"P":79,"Q":80,"R":81,"S":82,"T":83,"U":84,"V":85,"W":86,"X":87,"Y":88,"Z":89,"[":90,"\\":91,"]":92,"^":93,"_":94,"`":95,"a":96,"b":97,"c":98,"d":99,"e":100,"f":101,"g":102,"h":103,"i":104,"j":105,"k":106,"l":107,"m":108,"n":109,"o":110,"p":111,"q":112,"r":113,"s":114,"t":115,"u":116,"v":117,"w":118,"x":119,"y":120,"z":121,"{":122,"|":123,"}":124,"~":125,"¡":126,"¢":127,"£":128,"¤":129,"¥":130,"¦":131,"§":132,"¨":133,"©":134,"ª":135,"«":136,"¬":137,"®":138,"¯":139,"°":140,"±":141,"²":142,"³":143,"´":144,"µ":145,"¶":146,"·":147,"¸":148,"¹":149,"º":150,"»":151,"¼":152,"½":153,"¾":154,"¿":155,"À":156,"Á":157,"Â":158,"Ã":159,"Ä":160,"Å":161,"Æ":162,"Ç":163,"È":164,"É":165,"Ê":166,"Ë":167,"Ì":168,"Í":169,"Î":170,"Ï":171,"Ð":172,"Ñ":173,"Ò":174,"Ó":175,"Ô":176,"Õ":177,"Ö":178,"×":179,"Ø":180,"Ù":181,"Ú":182,"Û":183,"Ü":184,"Ý":185,"Þ":186,"ß":187,"à":188,"á":189,"â":190,"ã":191,"ä":192,"å":193,"æ":194,"ç":195,"è":196,"é":197,"ê":198,"ë":199,"ì":200,"í":201,"î":202,"ï":203,"ð":204,"ñ":205,"ò":206,"ó":207,"ô":208,"õ":209,"ö":210,"÷":211,"ø":212,"ù":213,"ú":214,"û":215,"ü":216,"ý":217,"þ":218,"ÿ":219,"Ā":220,"ā":221,"Ă":222,"ă":223,"Ą":224,"ą":225,"Ć":226,"ć":227,"Ĉ":228,"ĉ":229,"Ċ":230,"ċ":231,"Č":232,"č":233,"Ď":234,"ď":235,"Đ":236,"đ":237,"Ē":238,"ē":239,"Ĕ":240,"ĕ":241,"Ė":242,"ė":243,"Ę":244,"ę":245,"Ě":246,"ě":247,"Ĝ":248,"ĝ":249,"Ğ":250,"ğ":251,"Ġ":252,"ġ":253,"Ģ":254,"ģ":255,"Ĥ":256,"ĥ":257,"Ħ":258,"ħ":259,"Ĩ":260,"ĩ":261,"Ī":262,"ī":263,"Ĭ":264,"ĭ":265,"Į":266,"į":267,"İ":268,"ı":269,"Ĳ":270,"ĳ":271,"Ĵ":272,"ĵ":273,"Ķ":274,"ķ":275,"ĸ":276,"Ĺ":277,"ĺ":278,"Ļ":279,"ļ":280,"Ľ":281,"ľ":282,"Ŀ":283,"ŀ":284,"Ł":285,"ł":286,"Ń":287,"ĠĠ":288,"ĠĠĠĠ":289,"Ġt":290,"in":291,"Ġa":292,"he":293,"on":294,"re":295,"at":296,"er":297,"or":298,"Ġs":299,"Ġthe":300,"Ġ=":301,"en":302,"ĠĠĠ":303,"al":304,"es":305,"Ġc":306,"is":307,"it":308,"Ġf":309,"ion":310,"ĊĊ":311,"Ġ\\":312,"Ġp":313,"an":314,"Ġo":315,"le":316,"Ġw":317,"ar":318,"ĠĠĠĠĠĠĠĠ":319,"ing":320,"Ġd":321,"Ġm":322,"Ġ$":323,"Ġb":324,"Ġin":325,"ed":326,"Ġan":327,"ro":328,"Ġof":329,"ac":330,"ic":331,"ut":332,"Ġto":333,"**":334,"ent":335,"im":336,"Ġand":337,"Ġ(":338,"el":339,"Ġn":340,"st":341,"--":342,"ex":343,"et":344,"Ġre":345,"ou":346,"ĠĠĊ":347,"ĠĠĠĠĠĠĠ":348,"as":349,"om":350,"ot":351,")Ċ":352,"ation":353,"ct":354,"Ġl":355,"ul":356,"Ġis":357,"Ġh":358,"ol":359,":Ċ":360,"ur":361,"am":362,"il":363,"Ġfor":364,"ig":365,"Ġth":366,"Ġ-":367,"um":368,"iv":369,"de":370,"Ġ+":371,"if":372,"00":373,"$$":374,"Ġ#":375,"ĠT":376,"ĠC":377,"us":378,"int":379,"ĠI":380,"Ġg":381,"rac":382,"ext":383,"Ġv":384,"ce":385,"Ġe":386,".ĊĊ":387,"qu":388,"ĠA":389,"un":390,"``":391,"ĠS":392,"ate":393,"id":394,"ad":395,"\"\"":396,"ow":397,"Ġst":398,"}{":399,"frac":400,"text":401,"Ġy":402,"----":403,"se":404,"th":405,"ge":406,"est":407,"ir":408,"ay":409,"ly":410,"Ġr":411,"Ġ|":412,"ist":413,"ment":414,"##":415,"Ġbe":416,"ers":417,"res":418,"Ġcon":419,"ith":420,"..":421,"pl":422,"ple":423,"ĠP":424,"**:":425,"ap":426,"ab":427,"ch":428,"ve":429,"Ġde":430,"igh":431,"rint":432,"Ġon":433,"Ġas":434,"ĠĠĠĠĠĠĠĠĠĠĠ":435,"put":436,"od":437,"Ġwith":438,"Ġpro":439,"os":440,"Ġthat":441,"ver":442,"ri":443,"nt":444,"10":445,"âĢ":446,"ĠR":447,"ight":448,"urn":449,"ity":450,"ĠM":451,"ue":452,"pe":453,"ort":454,"ĠF":455,".Ċ":456,"Ġ\"":457,"ĠE":458,"and":459,"ĠD":460,"Ġare":461,"Ġal":462,"Ġit":463,"$$Ċ":464,"Ġcom":465,"elf":466,"ain":467,")ĊĊ":468,"rom":469,"Ġex":470,"Ġ{":471,"ĠO":472,"Ġor":473,"ĠB":474,"Ġus":475,"čĊ":476,"Ġwh":477,"ult":478,"Ġ*":479,"Ġint":480,"her":481,"__":482,"```":483,"ĠN":484,"ĠThe":485,"up":486,"\"\"\"":487,"Ġx":488,"em":489,"tim":490,"ess":491,"ies":492,"lo":493,"Ġ'":494,"turn":495,"Ġk":496,"ive":497,"print":498,"):Ċ":499,"==":500,"our":501,"ath":502,"end":503,"ore":504,"Ġreturn":505,"age":506,"ect":507,"(f":508,"Ġat":509,"ĠL":510,"Ġif":511,"art":512,"ial":513,"ft":514,"Ġwe":515,"port":516,"pt":517,"Ġby":518,"ame":519,"ĠH":520,"ine":521,"ns":522,"py":523,"ĠW":524,"ode":525,"iz":526,"pro":527,"ant":528,"Ġhe":529,"The":530,"cul":531,"ill":532,"Ġfrom":533,"per":534,"20":535,"--------":536,"ĠG":537,"Ġse":538,"Ġ[":539,"Ġnot":540,"ass":541,"####":542,"red":543,"ak":544,"alcul":545,"ction":546,"Ġ\"\"\"":547,"act":548,"ld":549,"Ġval":550,"ub":551,"times":552,"eg":553,"oc":554,"estion":555,"wer":556,"Ġch":557,"),":558,"ag":559,"val":560,"ure":561,"Qu":562,"Ġnum":563,"ical":564,"ew":565,"orm":566,"ds":567,"Ġres":568,"12":569,"Ġsh":570,"Ġun":571,"utput":572,"Ġle":573,"Ġtr":574,"ance":575,"ave":576,"Ġim":577,"ff":578,"_s":579,"dot":580,"{\\":581,"_c":582,"nswer":583,"Question":584,"ber":585,"Ġ$\\":586,"Ġself":587,"\",":588,"Ġyou":589,"nd":590,"def":591,"'s":592,"....":593,"ust":594,"plement":595,"Ġ/":596,"rt":597,"op":598,"Ġthis":599,"ile":600,"thon":601,"all":602,"ĠĠĠĠĠĠĠĠĠĠĠĠĠĠĠ":603,"\")Ċ":604,"ĠV":605,"_t":606,"cdot":607,"Answer":608,"are":609,"ang":610,"one":611,"ĠIm":612,"ta":613,"ition":614,"ost":615,"alculate":616,"ount":617,"ime":618,"ud":619,"ard":620,"ind":621,"Ġpl":622,"15":623,"out":624,"100":625,"Ġwhe":626,"og":627,"Ġcan":628,"ast":629,"ip":630,"plementation":631,"ata":632,"Ġper":633,"_d":634,"ep":635,"(\"":636,"ax":637,"',":638,"python":639,"ould":640,"25":641,"Ġ\"\"\"Ċ":642,"cl":643,"able":644,"ans":645,"ated":646,"}$":647,"ase":648,"Code":649,"ĠImplementation":650,"_p":651,"ĠOutput":652,"Ġall":653,"}Ċ":654,"ens":655,"^{":656,"con":657,"Ġwas":658,"ide":659,"ear":660,"ere":661,"Ġro":662,"Ġhave":663,"Ġdef":664,"ord":665,"ations":666,"str":667,"erm":668,"qrt":669,"ĠU":670,"self":671,"):":672,"du":673,"_m":674,"Ġme":675,"Ġab":676,"Ġform":677,"âĢĻ":678,"av":679,"(x":680,"cc":681,"iven":682,"Ġprint":683,"ues":684,"sqrt":685,"oint":686,"ric":687,"ary":688,"right":689,"ach":690,"ib":691,"}}":692,"_n":693,"Ġen":694,"ich":695,"Ġstr":696,"ress":697,"Ġusing":698,"ents":699,"Ġap":700,"19":701,"his":702,"_f":703,"====":704,"ange":705,"ace":706,"Ġcont":707,"ell":708,"ug":709,"ution":710,"Âł":711,"ual":712,"Ġad":713,"pon":714,"]Ċ":715,"der":716,"ack":717,"Ġequ":718,"ck":719,"$,":720,").":721,"ther":722,"000":723,"ome":724,"ter":725,"ror":726,"ĠJ":727,"Ġj":728,"Ġsp":729,",Ċ":730,"Ġwor":731,"Ġnp":732,"ire":733,"ign":734,"Ġhas":735,"ence":736,"Ġdo":737,"Ġ**":738,"left":739,"18":740,"ĠâĢ":741,"Ġcl":742,"prox":743,"Ġqu":744,"16":745,"tal":746,"iff":747,"ok":748,"\")":749,"Ġ&":750,":.":751,"ph":752,"ĠIn":753,"Ġsc":754,"Ġ\\,":755,"enc":756,"Ġwill":757,"ample":758,".s":759,"ize":760,"form":761,"########":762,"arg":763,"Ġne":764,"ke":765,"Ġfun":766,"ict":767,"irst":768,"ĠEx":769,"inal":770,"Ġ$$":771,"ject":772,"$$ĊĊ":773,"ator":774,"ates":775,"_{":776,"Ġwhich":777,"14":778,"Ġtime":779,"Ġ<":780,"Ġsy":781,"ong":782,"ions":783,"Ġel":784,"pi":785,"Ġar":786,"ari":787,"ous":788,"ĠSt":789,"Ġ>":790,"ra":791,"50":792,"30":793,"low":794,"math":795,"ite":796,"(n":797,"Ġmat":798,"Ð¾":799,"11":800,"the":801,"Ġco":802,"Ġso":803,"Ġtheir":804,"ify":805,"Ġdis":806,"Ġthey":807,"ific":808,"Ġvalue":809,"_l":810,"Ġbut":811,"Ġtotal":812,"pute":813,"('":814,"ree":815,"ice":816,"we":817,"ma":818,"Ġyour":819,"Ġresult":820,"eng":821,"Ġnumber":822,"Ð°":823,"ry":824,"ert":825,"Ġone":826,"und":827,"Ġ==":828,"vel":829,"ĠK":830,"ake":831,"ĠĠĊĊ":832,"Ġcol":833,"ound":834,"ild":835,"Ġup":836,"**:Ċ":837,"Ġout":838,"irc":839,"ative":840,"ract":841,"ays":842,"cent":843,"its":844,"____":845,"Ġ|Ċ":846,"otal":847,"(\\":848,"Ġspe":849,"Ġgo":850,"ĠCom":851,"Ðµ":852,"ia":853,"Ġsol":854,"ility":855,"Ġmod":856,"ĠCalculate":857,"ise":858,"row":859,"com":860,"erv":861,"cre":862,"impl":863,"approx":864,"ĠĠĠĠĠĠĠĠĠĠĠĠ":865,"rix":866,"hat":867,"Ġi":868,"cept":869,"........":870,"aram":871,"wo":872,"mat":873,"13":874,"```ĊĊ":875,")^":876,"Ġvalues":877,"ĠÐ":878,"Ġpart":879,"ely":880,"Ġman":881,"Ġpos":882,"_b":883,"Ġother":884,"Ġ$,":885,"ĠY":886,"_val":887,"Ġinto":888,"rue":889,"ĠĠĠĠĊ":890,"Ġâ":891,"ie":892,"import":893,"Ġfunction":894,"io":895,"24":896,"Ġ:":897,"Ġdata":898,"Ġmore":899,"Ġdiff":900,"Ġbet":901,"ype":902,"))Ċ":903,"Ġdist":904,"ors":905,"ray":906,"Ġprob":907,"Ġmin":908,"result":909,"}\\":910,"ĠCon":911,"Ġind":912,"ength":913,"Ġpoint":914,"ient":915,"ula":916,"Ġsu":917,"urre":918,"Ġpre":919,"_{\\":920,"ings":921,"(self":922,"rib":923,"60":924,"Ġmet":925,"ks":926,"ose":927,"âĢĻs":928,"ail":929,"Ġwhen":930,"sum":931,"ool":932,"{m":933,"ener":934,"ater":935,"ied":936,"ä¸":937,"hes":938,"aus":939,"ory":940,"les":941,"so":942,"iel":943,"))":944,"vert":945,"Ġimport":946,"ating":947,"gr":948,"Ġz":949,"Ġmath":950,"ute":951,"pect":952,"Ġcomm":953,"Ġcomp":954,"Ġsum":955,"Ġyear":956,"17":957,"app":958,"own":959,"dition":960,"Ġwhere":961,"mathb":962,"Ġnew":963,"200":964,"Ġob":965,"Ġlo":966,"Ġinter":967,"Ġrequ":968,"}\")Ċ":969,"ces":970,"ments":971,"ys":972,"Ġgr":973,"Ġver":974,"led":975,"Ġformula":976,"ĠThis":977,"Ġli":978,"Ġtwo":979,"Ġfirst":980,"],":981,"ef":982,"_r":983,"Ġwhat":984,"Ġev":985,"Ġrel":986,"cess":987,"ency":988,"ugh":989,"urrent":990,"theta":991,"()Ċ":992,"Ġabout":993,"ince":994,"Ġlist":995,"oth":996,"40":997,"ĊĊĊ":998,"Ġeach":999,"Ġwere":1000,"Ġacc":1001,"^{-":1002,"(t":1003,"Ġcor":1004,"Ġthere":1005,"requ":1006,"Ġset":1007,"Ġget":1008,"Ġwho":1009,"Ġthan":1010,"Ġcalculate":1011,"Ġdiffere":1012,"lect":1013,"te":1014,"rit":1015,")$":1016,"Ġover":1017,"Ð¸":1018,"ities":1019,"\\text":1020,"Ġsub":1021,"ll":1022,"ps":1023,"Ġno":1024,"Ġstud":1025,"}{\\":1026,"Ġfe":1027,"nce":1028,"':":1029,"angle":1030,"Ġthem":1031,"Ġany":1032,"Ġte":1033,"ĠNone":1034,"Ġop":1035,".g":1036,"ian":1037,"ec":1038,"Ġhow":1039,"Ġwork":1040,"ÑĤ":1041,"ning":1042,"ower":1043,"Ġhis":1044,"ix":1045,"()":1046,"Ġwould":1047,"ob":1048,"ÑĢ":1049,"Ġpe":1050,"els":1051,"ption":1052,"Ġrange":1053,"Ġexp":1054,"ove":1055,"Ġfact":1056,"error":1057,"Ġcount":1058,"Ġgiven":1059,"ability":1060,"Ġits":1061,"Ġelse":1062,"fter":1063,"75":1064,"For":1065,"Ġ\\\\":1066,"stit":1067,"hus":1068,"ĠCh":1069,"ï¼":1070,"Ð¾Ð":1071,"^\\":1072,"Ġkn":1073,"Ġneed":1074,"aw":1075,"(s":1076,"Ġvari":1077,"In":1078,"Ġterm":1079,"Ġag":1080,"========":1081,"quad":1082,"aramet":1083,"circ":1084,"stem":1085,"ey":1086,"eturn":1087,"elta":1088,"')Ċ":1089,"à¤":1090,"duct":1091,"rror":1092,"heck":1093,"Ġact":1094,".,":1095,"ink":1096,"ween":1097,"ss":1098,"ov":1099,"?ĊĊ":1100,"ĠIf":1101,"ish":1102,"Ġalso":1103,"ick":1104,"ren":1105,"ular":1106,"},":1107,"tt":1108,"Ġdes":1109,"cos":1110,"ause":1111,"loat":1112,"Ġbec":1113,"âĢĿ":1114,"Ð½":1115,"ĠFor":1116,"Ġuse":1117,"ible":1118,"ins":1119,"This":1120,"Ġrem":1121,"Ġsup":1122,"sing":1123,"olum":1124,"ĠIt":1125,"Ġline":1126,"itial":1127,"pos":1128,"ark":1129,"Ġsome":1130,"log":1131,"als":1132,"roup":1133,"ople":1134,"23":1135,"atio":1136,"Ġinteg":1137,"ield":1138,"Ġbetween":1139,"rough":1140,"Ġonly":1141,"ures":1142,"ffic":1143,"45":1144,"Ġbo":1145,"Ġam":1146,"Ġdec":1147,"Error":1148,"'t":1149,"ational":1150,"}^":1151,"Ġem":1152,"ĠĊ":1153,"Ġmax":1154,"\"\"\"Ċ":1155,"Ġreg":1156,"ãģ":1157,"Ġprov":1158,":ĊĊ":1159,"Ġtrans":1160,"Ñģ":1161,"adi":1162,"ĠReturn":1163,"rect":1164,"ons":1165,"Ġdet":1166,"ĠĠĠĠĠ":1167,"/s":1168,"Ġ->":1169,"lem":1170,"28":1171,"amb":1172,"Ġmy":1173,"Ġpr":1174,"Ġshould":1175,"Ġour":1176,"from":1177,"Ġspec":1178,"gh":1179,"ood":1180,"(d":1181,"to":1182,"old":1183,"ern":1184,"Ġcons":1185,"yp":1186,"matrix":1187,"alse":1188,"round":1189,"_i":1190,"vi":1191,"erg":1192,"33":1193,"Ġ\\(":1194,"Ġcalcul":1195,"ude":1196,"Ġbeen":1197,"ident":1198,"''":1199,"Ġhad":1200,"\":":1201,"čĊčĊ":1202,"_in":1203,"ased":1204,"Ġthese":1205,"hod":1206,"ices":1207,"ĠPro":1208,"imum":1209,"Ġma":1210,"Ġconf":1211,"Ġdiv":1212,"22":1213,"resent":1214,"sin":1215,"Ġunder":1216,"Ġcre":1217,"ollow":1218,"Ġph":1219,"da":1220,"fore":1221,"vers":1222,"pha":1223,"Ġequation":1224,"aining":1225,"36":1226,"Ġincl":1227,"irect":1228,"Ġpeople":1229,"Ġlike":1230,"Ġrec":1231,"plic":1232,"ars":1233,"Ġsecon":1234,"ired":1235,"}(":1236,"mathbf":1237,"Ġclass":1238,"Ġthen":1239,"ape":1240,"ified":1241,"ĠâĢľ":1242,"Ġmay":1243,"})":1244,"Ġsystem":1245,"90":1246,"Ġright":1247,"Ġchild":1248,"Ġass":1249,"$.":1250,"ough":1251,",\\":1252,"{b":1253,"ally":1254,"Ġtest":1255,"ches":1256,"Ġarea":1257,"Ġpol":1258,"(a":1259,"Thus":1260,"ĠReturns":1261,"St":1262,"Ġcurrent":1263,"ĠX":1264,"bers":1265,"80":1266,"ĠAr":1267,"Ġoff":1268,"chool":1269,"Ġ$.":1270,"Ġthrough":1271,"Ġang":1272,"}\")":1273,"Ġele":1274,"Ġsolution":1275,"ature":1276,"arameters":1277,"\")ĊĊ":1278,"Ġboth":1279,"27":1280,"Ġatt":1281,"air":1282,"Ġfrequ":1283,"Ġinput":1284,"Ġrep":1285,"ases":1286,"Ġlength":1287,"hed":1288,"ĠCompute":1289,"Ġì":1290,"Ġ($":1291,"ffect":1292,"ĠTrue":1293,"ng":1294,"iginal":1295,"ĠRe":1296,"Ġgener":1297,"very":1298,"Ġfollow":1299,"35":1300,"ne":1301,"çļ":1302,"min":1303,"Ġfind":1304,"iss":1305,"time":1306,"çļĦ":1307,"co":1308,"Ġsm":1309,"99":1310,"Ġmust":1311,"ines":1312,"olog":1313,"igma":1314,"cal":1315,"ĠĠĠĠĠĠĠĠĠ":1316,"Ġdoes":1317,"imal":1318,"here":1319,"Ġused":1320,"Ġstart":1321,"(-":1322,"Ġsame":1323,"ambda":1324,"ification":1325,"Ġend":1326,"Ġlog":1327,"32":1328,"ĠExample":1329,"array":1330,"Ġed":1331,"ision":1332,"hip":1333,"Ġafter":1334,"Ġsa":1335,"omet":1336,"\"Ċ":1337,"gram":1338,"Ġyears":1339,"eta":1340,"uc":1341,"name":1342,"ply":1343,"ull":1344,"uct":1345,"read":1346,"respon":1347,"Ġ`":1348,"Ġsym":1349,"ined":1350,"Ġadd":1351,"\",Ċ":1352,"reat":1353,"_w":1354,"plt":1355,"line":1356,"for":1357,"Ġsign":1358,"Ġsuch":1359,"stant":1360,"ting":1361,".p":1362,"gs":1363,"Ġmany":1364,"Ġac":1365,"_st":1366,"Ġerror":1367,"ets":1368,"ically":1369,"ics":1370,"ork":1371,"Ġbecause":1372,"Ġproblem":1373,"ci":1374,"Ġent":1375,".d":1376,"ives":1377,"ega":1378,"ages":1379,"________":1380,"velop":1381,"Ġext":1382,"21":1383,"implies":1384,"Ġwhile":1385,"26":1386,"Ġ%":1387,"pend":1388,"ubstit":1389,"ĠHe":1390,"ours":1391,"Ġstep":1392,"']":1393,"abel":1394,"Ġhel":1395,"Ġbu":1396,"Ġstand":1397,"Ġher":1398,"equ":1399,"([":1400,"itive":1401,"bo":1402,"olution":1403,"_per":1404,"(m":1405,"Ġincre":1406,"}_":1407,"[i":1408,"Ġmult":1409,"Ġmost":1410,"Ġjust":1411,"ER":1412,"rice":1413,"ral":1414,"Ġstate":1415,"Ġrate":1416,"Ġcompute":1417,"uring":1418,"Ġfrequency":1419,"Ġder":1420,"Ġ$:":1421,"Ġmodel":1422,"olume":1423,"pr":1424,"Ġinv":1425,"Ġname":1426,"Ġcondition":1427,"ression":1428,"pected":1429,"arch":1430,"Ġcost":1431,"Ġdifferent":1432,"ced":1433,"ĠUn":1434,"Ġknow":1435,"ĠGiven":1436,"Ġmon":1437,"//":1438,"ides":1439,"Ġtry":1440,"}}{":1441,"class":1442,"egin":1443,"Â²":1444,"Ġcent":1445,"idth":1446,"Ð»":1447,"Ġfl":1448,"Ġ$$Ċ":1449,"ization":1450,"ples":1451,"oss":1452,"Ġfile":1453,"ality":1454,"Ġfactor":1455,"Ġcomple":1456,"ont":1457,"part":1458,"Ð¼":1459,"ĠAn":1460,".f":1461,".c":1462,"Ġmethod":1463,"alth":1464,"]ĊĊ":1465,"ĠQ":1466,"ful":1467,"mer":1468,"hen":1469,"Ġlen":1470,"add":1471,"Ġmake":1472,"ots":1473,"1000":1474,"ank":1475,"mon":1476,"istance":1477,"Ġtri":1478,"aph":1479,"Ġ__":1480,"Ġloc":1481,"ho":1482,"ized":1483,"Ġsim":1484,"ness":1485,"$:":1486,"._":1487,"Ġdr":1488,"['":1489,"erson":1490,",}":1491,"Ġra":1492,"begin":1493,"ross":1494,"Ġorder":1495,"ĠWe":1496,"Ġchar":1497,"(l":1498,"ON":1499,"ward":1500,"Ġ\\\\Ċ":1501,"bol":1502,"Ġsur":1503,"Ġgroup":1504,"Ġback":1505,"Ġref":1506,"arget":1507,"umber":1508,".m":1509,"ĠĠĠĠĠĠĠĠĠĠ":1510,"{,}":1511,"70":1512,"imes":1513,"Ġshe":1514,"Ġmean":1515,"(c":1516,"64":1517,"verage":1518,"ubl":1519,"='":1520,").ĊĊ":1521,"_value":1522,"get":1523,"ï¼Į":1524,"ormal":1525,"uch":1526,"other":1527,"utes":1528,"pert":1529,".t":1530,"IN":1531,"{bmatrix":1532,"Ġdistance":1533,"alpha":1534,"-b":1535,"ĠSh":1536,"Ġcar":1537,"ule":1538,"Ġ(-":1539,"Ġshow":1540,"Ġoper":1541,"ĠÎ":1542,"Ġser":1543,"Ġtext":1544,"Ġprocess":1545,"ĊĠĠĠĠĊ":1546,"oy":1547,"andom":1548,"ains":1549,"=\"":1550,"formation":1551,"$$\\":1552,"29":1553,"])Ċ":1554,"ier":1555,"AT":1556,"ential":1557,"_h":1558,"{c":1559,"ife":1560,"wn":1561,"_x":1562,">>":1563,"Ġinf":1564,"ually":1565,"ergy":1566,"omin":1567,"ale":1568,"att":1569,"Ġread":1570,"ĠVal":1571,"Ġsqu":1572,"Ġeven":1573,"$.ĊĊ":1574,")(":1575,"ĠVer":1576,"Ġu":1577,"Ġevery":1578,"Ġfil":1579,"Ġpass":1580,"...":1581,"---":1582,"(b":1583,"Given":1584,"Ġpoints":1585,"_to":1586,"aking":1587,"ym":1588,"Ġproduct":1589,"(p":1590,"True":1591,"Ġobject":1592,"atch":1593,"Â°":1594,"Ġcould":1595,"\\pi":1596,"-s":1597,"Ġdevelop":1598,"Ġsee":1599,"Ġpercent":1600,"ault":1601,"mu":1602,"not":1603,"ural":1604,"_g":1605,"Ġlong":1606,"met":1607,"48":1608,"ven":1609,"Ġwater":1610,"olve":1611,"Ġsecond":1612,"Ġdeterm":1613,"Ġdi":1614,"ero":1615,"Ġhand":1616,"{k":1617,"ames":1618,"_y":1619,"åı":1620,"append":1621,"Ġwell":1622,"ateg":1623,"So":1624,"ĠĠĠĠĠĠ":1625,"Ġschool":1626,"Ġradi":1627,"Ġhelp":1628,"arn":1629,"Ġ_":1630,"_o":1631,"day":1632,"Com":1633,"lock":1634,"ists":1635,"word":1636,"ash":1637,"Ġmass":1638,"500":1639,"),Ċ":1640,"ock":1641,"ily":1642,"Ġkey":1643,"Ġoutput":1644,"Ġhigh":1645,"Ġexcept":1646,"ms":1647,")čĊ":1648,"Ġfr":1649,"ĠAd":1650,"lambda":1651,"ask":1652,"total":1653,"Ġtem":1654,"åĪ":1655,"Ġpar":1656,"_name":1657,"Ġplay":1658,")}":1659,"_k":1660,"Ġnon":1661,"version":1662,"Ġratio":1663,".ex":1664,"æķ":1665,"Substit":1666,"Ġ+=":1667,"Ġbel":1668,"Ex":1669,"()ĊĊ":1670,"ĠAl":1671,"effic":1672,"raction":1673,"rain":1674,"ĠList":1675,"\\frac":1676,"ES":1677,"ared":1678,"Ġident":1679,"bin":1680,"arent":1681,"Ġderiv":1682,"Ġpower":1683,"que":1684,"sigma":1685,"Ġcheck":1686,"Ġbl":1687,"Ġcap":1688,"plot":1689,"Ġlevel":1690,"ãĢ":1691,".append":1692,"Ġcm":1693,"itt":1694,"Ġfound":1695,"Ġinclud":1696,"ĠSe":1697,"itude":1698,"Ġ$(":1699,"Ġrequired":1700,"Ġposition":1701,"Con":1702,"67":1703,"Ġcomput":1704,"ection":1705,"ner":1706,"uting":1707,"ĠĠĠĠĠĠĠĠĠĠĠĠĠ":1708,"ĠAs":1709,"_re":1710,"ĠFalse":1711,"95":1712,"ĨĴ":1713,"Ġsmall":1714,"Ġav":1715,"uth":1716,"Ġleft":1717,"Ġins":1718,"par":1719,"{x":1720,"Ġangle":1721,"atter":1722,"Ġway":1723,"ĠCor":1724,"ote":1725,"Ġrow":1726,"Ġprogram":1727,"Ġthink":1728,"Ġside":1729,"Ġstudents":1730,"Ġappro":1731,"ector":1732,"Ġans":1733,"Ġq":1734,"][":1735,"atic":1736,"agn":1737,"Ġstandard":1738,"_v":1739,"34":1740,"Ġraise":1741,"Ġweight":1742,"ided":1743,"{d":1744,"Ġdat":1745,"Ġfloat":1746,"Ġmulti":1747,"05":1748,"ider":1749,".n":1750,"iod":1751,"Ġvalid":1752,"vent":1753,"Ġcorrect":1754,"ever":1755,"Ġvery":1756,"Ġwant":1757,"Ġinst":1758,"ulation":1759,"ited":1760,"Ġden":1761,"ĠâĢĵ":1762,"Ġest":1763,"Ġenergy":1764,"Ġpartic":1765,"Ġ$.ĊĊ":1766,"AR":1767,"ĠDef":1768,"Ġrespon":1769,"65":1770,"Ġinitial":1771,"_id":1772,"Ġreal":1773,"Ðº":1774,"ton":1775,"Ġsize":1776,"Ġcontin":1777,"Ġdirect":1778,"Ġbeing":1779,"anc":1780,"Ġday":1781,"_de":1782,"ards":1783,"ean":1784,"\\%":1785,"Ġexample":1786,"proxim":1787,"erest":1788,"urs":1789,"Delta":1790,"ten":1791,"Ġsk":1792,"Using":1793,"Ġdown":1794,"Ġsat":1795,"phi":1796,"}$,":1797,"Ġeffect":1798,"bs":1799,"Ġgu":1800,"85":1801,"Ġtyp":1802,"Ġthree":1803,"Ġbefore":1804,"olv":1805,"ĠConvert":1806,"erence":1807,"])":1808,"Ġchildren":1809,"eter":1810,"Ġë":1811,"Ñĭ":1812,"gan":1813,"Ġmem":1814,"://":1815,"ĠPl":1816,"ats":1817,"Ġdig":1818,"Ġmatrix":1819,"37":1820,"Ġposs":1821,"Ġoriginal":1822,"ann":1823,"Ġheight":1824,"gre":1825,"Ġlook":1826,"index":1827,"ĠArgs":1828,"Ġconstant":1829,"Ġprobability":1830,"What":1831,"valu":1832,"Ġdisc":1833,"ĠInt":1834,"Ġsupport":1835,"ĠâĨĴ":1836,"Ġstring":1837,"Ġgood":1838,"mod":1839,"\\left":1840,"ĠHow":1841,"ĠZ":1842,"Ġserv":1843,"oun":1844,"ems":1845,"ately":1846,"\\,\\":1847,"ocity":1848,"OR":1849,"Ġnumbers":1850,".get":1851,"Ġexpl":1852,"pre":1853,"_A":1854,"Ġhim":1855,"EN":1856,"Ñĥ":1857,"Ġnumpy":1858,"land":1859,"Ġocc":1860,"Ġchange":1861,"ts":1862,"Ġindex":1863,"Ġagain":1864,"set":1865,"Ġthose":1866,"place":1867,"Ġrun":1868,"ãĤ":1869,"Ġâī":1870,"iron":1871,"æķ°":1872,"Ġperson":1873,"Ġtype":1874,"oci":1875,"|--------":1876,"Ġ}":1877,"aces":1878,"isf":1879,"Ġrepresent":1880,"/m":1881,"ouse":1882,"_pro":1883,"ĠWhat":1884,"ribution":1885,"Ġmed":1886,".r":1887,"ource":1888,"ior":1889,"any":1890,"Ġprodu":1891,"Ġdid":1892,"mathbb":1893,"redict":1894,"Ġcal":1895,"akes":1896,"ordin":1897,"__(":1898,".com":1899,"ublic":1900,"quence":1901,"yn":1902,"Ġcommun":1903,"ants":1904,"Ġsaid":1905,"Ġ(\"":1906,"value":1907,"ST":1908,"ctions":1909,"Ġabs":1910,"ather":1911,"Ġlast":1912,"responds":1913,"ional":1914,"'Ċ":1915,"_e":1916,"ration":1917,"ival":1918,"partial":1919,"Ġnow":1920,"Ġke":1921,"ĠAp":1922,"Ġquestion":1923,"ominator":1924,"ĠDe":1925,"aint":1926,".l":1927,"Ġbase":1928,"38":1929,"cri":1930,"Ġresults":1931,"amp":1932,"Ġ>>>":1933,"Ġmuch":1934,"ĠTh":1935,"ĠÃ":1936,"_data":1937,"****":1938,"play":1939,"Ġcirc":1940,"ety":1941,"\"ĊĊ":1942,"Ġterms":1943,"num":1944,"ccess":1945,"ables":1946,"Ġdon":1947,"ww":1948,"ìĿ":1949,"Ġown":1950,"Ġpop":1951,"chn":1952,"lass":1953,"Ġax":1954,"ane":1955,"hing":1956,"Ġspeed":1957,"iver":1958,"rop":1959,"Ġredu":1960,"stand":1961,"Ġtake":1962,"iles":1963,"ody":1964,"Ġnumer":1965,"rol":1966,"raw":1967,"Ġpath":1968,"ĠVerify":1969,")ĊĊĊ":1970,"rite":1971,"Ġmonth":1972,"{N":1973,"To":1974,"Ġbre":1975,"leq":1976,"Ġplace":1977,"[\"":1978,"Ġarray":1979,"Ġhours":1980,"arge":1981,"âĢĻt":1982,"Ġapproxim":1983,"44":1984,"ä»":1985,"imens":1986,"(Ċ":1987,"idual":1988,"{C":1989,"55":1990,"ek":1991,"where":1992,"loor":1993,"Ġdays":1994,"Ġcase":1995,"point":1996,"ivers":1997,"uple":1998,"Ġexper":1999,"ĠNew":2000,"Ġmade":2001,"rans":2002,"31":2003,"pec":2004,"Ġcolum":2005,"{A":2006,"Ġbr":2007,"Ġduring":2008,"ĠValue":2009,"Ġverify":2010,"Ġelif":2011,"itle":2012,"Ġinformation":2013,"Ġcalculation":2014,"åħ":2015,"Ġlim":2016,"omega":2017,"_a":2018,"ĠYou":2019,"Ġproject":2020,"96":2021,"float":2022,"ade":2023,"ensity":2024,"Ġ\\$":2025,"Ġhealth":2026,"Ġmeas":2027,"ology":2028,"Ġuser":2029,"Ġinc":2030,"inter":2031,"ument":2032,"_size":2033,"ah":2034,"beta":2035,"Ġcur":2036,"Ġvi":2037,"Ġvis":2038,"Ġprof":2039,"Let":2040,"ĠĠĠĠĠĠĠĠĠĠĠĠĠĠ":2041,"over":2042,".sqrt":2043,"Ġcle":2044,"Ġconstr":2045,"Ġworld":2046,"Ġunits":2047,"Ġcharact":2048,"Total":2049,"ital":2050,"Ġ.":2051,"Ġconversion":2052,"Ġactiv":2053,"amma":2054,"ptional":2055,"arning":2056,"Ġsatisf":2057,"actor":2058,"Ġdifference":2059,"viron":2060,"Ġsimpl":2061,"ponent":2062,"resh":2063,"face":2064,"Ġgrow":2065,"Ġlead":2066,"Ġopen":2067,"ead":2068,"Ġless":2069,"Ġdecimal":2070,"Ġfam":2071,"æľ":2072,"Ġpositive":2073,"Pro":2074,"arm":2075,"way":2076,"{p":2077,"_B":2078,"Ġinterest":2079,"init":2080,"Ġrelations":2081,"Ġ-\\":2082,"66":2083,"Ġforce":2084,"Ġanal":2085,"98":2086,"_list":2087,"verse":2088,"egative":2089,"Ġvert":2090,"max":2091,"åĲ":2092,"Ġlife":2093,"Ġimage":2094,"ÂłÂł":2095,"01":2096,"ĠThere":2097,"Ġtop":2098,"Ġart":2099,"ĠRes":2100,"Ġparameters":2101,"Ġet":2102,"ism":2103,"ilities":2104,"Ġvolume":2105,"elocity":2106,"Since":2107,"ik":2108,"Ġsquare":2109,"AN":2110,"{(":2111,"Ġnext":2112,"Ġwithin":2113,"AL":2114,"(r":2115,"work":2116,"((":2117,"Ñı":2118,"ience":2119,"amples":2120,".\"\"\"Ċ":2121,"(y":2122,"Ġvol":2123,"Ġcommon":2124,"ĠThey":2125,"ĠParameters":2126,"():Ċ":2127,"key":2128,"Ġmain":2129,"Ġsl":2130,"ger":2131,"âĢĶ":2132,"ĠInd":2133,"Ġsing":2134,"Ġfinal":2135,"_path":2136,"Ġcoeffic":2137,"iter":2138,"Ġwhy":2139,"args":2140,"sh":2141,"{R":2142,"Ġallow":2143,"Ġexact":2144,"alk":2145,"Ġhead":2146,"Ġtarget":2147,"Ġ<=":2148,"Ġpropert":2149,"))ĊĊ":2150,"è¿":2151,"Ġequal":2152,"Ġconn":2153,"Ġroot":2154,"istic":2155,"Ġnormal":2156,"Ġaverage":2157,"Ġround":2158,"ilon":2159,"ained":2160,"=True":2161,"Ġcall":2162,"Ġprice":2163,"Ġmark":2164,"(A":2165,"atures":2166,"Ġsort":2167,"Ġanswer":2168,"78":2169,".sh":2170,"arrow":2171,"ĠBut":2172,"Ġmov":2173,"plit":2174,"ding":2175,"ĠAnd":2176,"SE":2177,"Ġhere":2178,"Ġear":2179,"plication":2180,"Ġ@":2181,"ason":2182,"rem":2183,"ole":2184,"Ġperiod":2185,"Ġwithout":2186,"bar":2187,"ĠDefine":2188,"Ġrelationship":2189,"Ġfield":2190,"Ġfollowing":2191,"ĠTotal":2192,"rel":2193,"39":2194,"LE":2195,"Ġgre":2196,"ĉĉ":2197,"Ġeduc":2198,"ln":2199,"meric":2200,"Ġinteger":2201,"ales":2202,"inary":2203,"Ġexpected":2204,".array":2205,"Ġcreate":2206,"ams":2207,"],Ċ":2208,"iving":2209,"Ġradius":2210,"iction":2211,"Substituting":2212,"Ġstill":2213,"Ġaddition":2214,"Ġcalculated":2215,"serv":2216,"\\)":2217,"ways":2218,"ense":2219,"Ġsolve":2220,"Ġdetermine":2221,"of":2222,"49":2223,"vironment":2224,"We":2225,"alf":2226,"{n":2227,"Ġarg":2228,"Ġvelocity":2229,"Ġtimes":2230,"{s":2231,"Ġhum":2232,"ott":2233,"bols":2234,"essage":2235,"ances":2236,"Ġplt":2237,"Ġbased":2238,"Ġelement":2239,"Ġvector":2240,"120":2241,"outh":2242,"Ġelect":2243,".st":2244,"Ð²":2245,"af":2246,":čĊ":2247,"Ġpossible":2248,"ling":2249,"ively":2250,"ients":2251,"ÑĢÐ°":2252,"Ġcho":2253,"ãĥ":2254,"_ex":2255,"ĠCorresponds":2256,"Ġbeh":2257,"Ġimp":2258,"}^{":2259,"erial":2260,"oid":2261,"Ġmaximum":2262,"çĶ":2263,"Ġpercentage":2264,"Ġsequence":2265,"If":2266,"Ġsince":2267,"idd":2268,"300":2269,"Ġrandom":2270,"Ġnet":2271,"-d":2272,"fty":2273,"Ġaround":2274,"ift":2275,"150":2276,"42":2277,"Ġlaw":2278,").Ċ":2279,"eration":2280,"IC":2281,"input":2282,"Ġå":2283,"odel":2284,"eps":2285,"Ġexpression":2286,"area":2287,"rame":2288,"infty":2289,"ception":2290,"irection":2291,"ron":2292,"Ġmeans":2293,"Ġdel":2294,"Ġthough":2295,"let":2296,"180":2297,"view":2298,"Ġelements":2299,"type":2300,"ividual":2301,"ee":2302,"Ġsomet":2303,"date":2304,"ields":2305,"less":2306,"idence":2307,"47":2308,"{V":2309,"Ġminutes":2310,"].":2311,"Ġgreat":2312,"order":2313,"ries":2314,"_rate":2315,"Ġtechn":2316,"\\theta":2317,"Ġpresent":2318,"ike":2319,"ritical":2320,"Ġsignific":2321,"yl":2322,"_se":2323,"use":2324,"arr":2325,"crib":2326,"Ġreport":2327,"umer":2328,"aving":2329,"Ġword":2330,"ves":2331,"Ġstat":2332,")/":2333,"uss":2334,"ious":2335,"Ġamount":2336,"Ġfin":2337,"Ġlet":2338,"Ġbest":2339,"ered":2340,"Ġwrit":2341,"Ġfood":2342,"Ġdenominator":2343,"\\sqrt":2344,"ãĢĤ":2345,"Ġold":2346,"man":2347,"Ġpract":2348,"grees":2349,"Ġmove":2350,"Ġlight":2351,"68":2352,"Ġbuild":2353,"Ġ!":2354,"bal":2355,"Ġcolor":2356,"aset":2357,"oh":2358,"ery":2359,"iled":2360,"Ġmill":2361,"ixed":2362,"aps":2363,"Ġimportant":2364,"ocial":2365,"ences":2366,"ploy":2367,"ogr":2368,"ĠâĢ¢":2369,"Ġchang":2370,"Ġcr":2371,"Ġunit":2372,"_length":2373,"ĠAmeric":2374,"Ġenc":2375,"fig":2376,"vec":2377,"np":2378,"0000":2379,"orn":2380,"ĠOr":2381,"ond":2382,"Ġsay":2383,"ĠWh":2384,"tage":2385,"ming":2386,"Ġpot":2387,"Ġarr":2388,"Ġbas":2389,"ird":2390,"ands":2391,"Ġbook":2392,"Ġplan":2393,"Ġsample":2394,"Ġloss":2395,"Ġcare":2396,"valid":2397,"ĠValueError":2398,"hemat":2399,"core":2400,"Ġparent":2401,"Â·":2402,"Ġ(\\":2403,"Ġvariable":2404,"ailable":2405,"{P":2406,"Ġmeters":2407,"indow":2408,"íķ":2409,"Ġide":2410,"IT":2411,"lection":2412,"wise":2413,"ython":2414,"Ġmight":2415,"ĠNo":2416,"Ġdx":2417,"Ġpay":2418,"Ġsuccess":2419,"br":2420,"fo":2421,"ensor":2422,"Ġexist":2423,"pm":2424,"ĠCo":2425,"_count":2426,"tion":2427,"Ġusage":2428,"Ġann":2429,"uration":2430,"There":2431,"ugg":2432,"_time":2433,"Ġperform":2434,"Ġnode":2435,"oll":2436,"Ġconfir":2437,"RE":2438,"Ġleast":2439,"iness":2440,"son":2441,"Ġconvert":2442,"rad":2443,"An":2444,"lope":2445,"lose":2446,"Ġla":2447,"just":2448,"]:Ċ":2449,"geq":2450,"æĸ":2451,"_str":2452,"Ġcoordin":2453,"ission":2454,"ique":2455,"ä½":2456,"Ġdesign":2457,"Ġinterval":2458,"Ġwidth":2459,"orrect":2460,"',Ċ":2461,"ium":2462,"lim":2463,"Ġpur":2464,"inc":2465,"weight":2466,"ords":2467,"Ġbound":2468,")}{":2469,"Ver":2470,"$Ċ":2471,"Ġhist":2472,"Ġcour":2473,"åŃ":2474,"Ġiss":2475,"âĢĵ":2476,"Ġspecific":2477,"It":2478,"?Ċ":2479,"Ġfraction":2480,"Ġkg":2481,"Ġunderstand":2482,"Ch":2483,"ÑĮ":2484,"ories":2485,"ponents":2486,"Calculate":2487,"ved":2488,"Ġstruct":2489,"Ġtrue":2490,"Ġhig":2491,"ä¸ª":2492,"Ġseries":2493,"Ġlinear":2494,"Ġindividual":2495,"ring":2496,"ires":2497,"46":2498,"*x":2499,"Ġspace":2500,"Ġgeneral":2501,"_con":2502,")\\":2503,".S":2504,"Ġ//":2505,"[str":2506,"Ġfull":2507,"Ġcell":2508,"pace":2509,"ources":2510,"omen":2511,"omial":2512,"acy":2513,"ention":2514,"_ch":2515,"Ġrese":2516,"Ġpost":2517,"ounds":2518,"AC":2519,"ĠTo":2520,"oub":2521,"ĠâīĪ":2522,"acher":2523,"ived":2524,"ecute":2525,"Ġcode":2526,"Ġorgan":2527,"56":2528,"Ġlab":2529,"load":2530,"ustom":2531,"erc":2532,"pty":2533,"Ġimpro":2534,"Ġpres":2535,"Ġanother":2536,"Ġens":2537,"\",čĊ":2538,"ttps":2539,"}$$ĊĊ":2540,"-t":2541,"Ġsingle":2542,"None":2543,"88":2544,"mega":2545,"cont":2546,"_values":2547,"Ġcontrol":2548,"77":2549,"olds":2550,"ç»":2551,"Ġseconds":2552,"[:":2553,"Ġos":2554,"(X":2555,"Ġindic":2556,"_C":2557,"perature":2558,"):čĊ":2559,"imin":2560,"head":2561,"ises":2562,"Ġsteps":2563,"Ġmagn":2564,"}$.":2565,"angu":2566,"isk":2567,"ares":2568,"ured":2569,"ges":2570,"be":2571,"ptions":2572,"ä¸Ģ":2573,"oin":2574,"uction":2575,"ID":2576,"äº":2577,"Ġes":2578,"ends":2579,"{M":2580,"Ġzero":2581,"ĠÃĹ":2582,"Ġbus":2583,"ental":2584,"400":2585,"Ġclos":2586,"Ġload":2587,"-f":2588,"wh":2589,"Ġpress":2590,"Ġrequest":2591,"url":2592,"Ġturn":2593,"Ġdistribution":2594,"Ġprovided":2595,"First":2596,"Ġrece":2597,"_min":2598,"ering":2599,"rip":2600,"ĠWhen":2601,"')":2602,"Ġ!=":2603,".pi":2604,"ished":2605,"(result":2606,"conom":2607,"uthor":2608,"æĺ":2609,"az":2610,"Ġlarge":2611,"ĠCheck":2612,"df":2613,"Ð´":2614,"ĠIs":2615,"Ñĩ":2616,"à¥":2617,"Ġlocal":2618,"Ġpublic":2619,"ĠCre":2620,"Ġincluding":2621,"72":2622,"ilar":2623,"-c":2624,"Ġgover":2625,"ored":2626,"Ġcharacter":2627,"ĠCount":2628,"Ġdue":2629,"Ġdefined":2630,"Int":2631,"comes":2632,"$)":2633,"cond":2634,"Ġbreak":2635,"Ġfour":2636,"Ġminimum":2637,"_sum":2638,"unction":2639,"med":2640,"Ġlabel":2641,"ayer":2642,"Ġpredict":2643,"ĠSo":2644,"Ġage":2645,"Ġquad":2646,"Ġlearning":2647,"Ġdefin":2648,"Ġprot":2649,"Ġlow":2650,"oment":2651,"ilt":2652,"ills":2653,"ĠâĪ":2654,"Ġsides":2655,"cer":2656,"Ġtoo":2657,"Ġbetter":2658,"Ġdimens":2659,"nment":2660,"ene":2661,".add":2662,"cle":2663,"isc":2664,"atural":2665,"hem":2666,"Ġ--------":2667,"ĠAnswer":2668,"Ġstudy":2669,"ĠĠĠĠĠĠĠĠĊ":2670,"Ġadv":2671,"vious":2672,"Ġcolumn":2673,"uit":2674,"ither":2675,"Ġsit":2676,"asing":2677,"acc":2678,"insert":2679,"ĠStep":2680,"param":2681,"avel":2682,"orth":2683,"ieve":2684,".w":2685,"ised":2686,"Ġincrease":2687,"ending":2688,"ysis":2689,"abl":2690,"Ġdivis":2691,"Ġkm":2692,"Ġthings":2693,"Ġlarg":2694,"Ġsignificant":2695,"imate":2696,"ĠQuestion":2697,"agon":2698,"Ġdevelopment":2699,"Ġenvironment":2700,"Ġbody":2701,"ĠSince":2702,"Ġà¤":2703,"odes":2704,"è¡":2705,"ĠAt":2706,"ittle":2707,"}\")ĊĊ":2708,"{cm":2709,"Ġappe":2710,"Ġgoing":2711,"rime":2712,"etic":2713,"dd":2714,"height":2715,"43":2716,"til":2717,"Ġdefault":2718,"\\end":2719,"ttp":2720,"ION":2721,"Ġavailable":2722,"Ġsaf":2723,"Ġmatch":2724,"ware":2725,"Ġevalu":2726,"implify":2727,"Ġpair":2728,"Ġalways":2729,"å®":2730,"97":2731,"Compute":2732,"Ġ$-":2733,"igure":2734,"ango":2735,"Ġshape":2736,"Ġfeet":2737,"ĠUse":2738,".âĢĿ":2739,",\"":2740,"Ġcalled":2741,"å¤":2742,"Ġ?":2743,"DE":2744,"Ġdf":2745,"Ġtable":2746,"\"{":2747,"lease":2748,"ĠPer":2749,"-st":2750,"ording":2751,"uck":2752,"jor":2753,"57":2754,"Ġconditions":2755,"False":2756,"Ġhome":2757,"Ġphys":2758,"peed":2759,"Ġflow":2760,"agement":2761,"stance":2762,"Ġmodels":2763,"02":2764,"action":2765,"Ġassum":2766,"ÐµÐ½":2767,"{v":2768,"delta":2769,"ĠCl":2770,"Ġobserv":2771,"Ġ[]Ċ":2772,"ĠBo":2773,"Ġoften":2774,"Ġge":2775,"Ġ``":2776,"ÏĢ":2777,"Ġkeep":2778,"Ġnegative":2779,"Ġcomplex":2780,"è¯":2781,"={":2782,"Ġgame":2783,"ser":2784,"Ġprovide":2785,"ĠEn":2786,"Ġlower":2787,"div":2788,"ators":2789,".b":2790,"ivalent":2791,"ĠSolve":2792,"pose":2793,"List":2794,"ags":2795,"âĤ":2796,"values":2797,"Ġabove":2798,"_type":2799,"Ġ>=":2800,"Ġwords":2801,"oles":2802,"org":2803,"Ġlearn":2804,"unc":2805,"uture":2806,"Ġwhether":2807,"_num":2808,"Ġask":2809,"Ġeng":2810,"floor":2811,"Ġrest":2812,"alle":2813,"ended":2814,"rack":2815,"Ġinclude":2816,"ĠÑģ":2817,".e":2818,"_test":2819,".h":2820,")$,":2821,"with":2822,"-l":2823,"Ġtriangle":2824,"Ġfeel":2825,"tical":2826,"Ġmaterial":2827,"ones":2828,"rho":2829,"}$.ĊĊ":2830,"yg":2831,"\":Ċ":2832,"ml":2833,"Ġblock":2834,"_max":2835,"Ġpopulation":2836,"ĠLe":2837,"\"]":2838,"ivity":2839,"54":2840,"iversity":2841,"Ġsomething":2842,"Ġ{Ċ":2843,"olor":2844,"thing":2845,"Ġexpress":2846,"çĶ¨":2847,"Ġlik":2848,"AM":2849,"oriz":2850,"depend":2851,"\"S":2852,"|Ċ":2853,"ĠComm":2854,"orem":2855,"As":2856,"Ġinches":2857,"ait":2858,"tract":2859,"{F":2860,"AS":2861,"ected":2862,"(k":2863,"Ġhuman":2864,"ĠEng":2865,"oney":2866,"ison":2867,"Ġmathemat":2868,"Ġshort":2869,"jango":2870,"Ġê":2871,"08":2872,"Ġlimit":2873,"Ġbeg":2874,"by":2875,"eleration":2876,"Ġmar":2877,"Ġret":2878,"ember":2879,"Ġrot":2880,"Ġfew":2881,"Ġagainst":2882,"250":2883,"user":2884,"fer":2885,"Wh":2886,"integ":2887,"Ġoptim":2888,"lu":2889,"Ġpotential":2890,"oot":2891,"Ġview":2892,"eterm":2893,"oad":2894,"ids":2895,"Ġput":2896,"Ġaut":2897,"aster":2898,"------------":2899,"ĠÐ¿":2900,"ĠTe":2901,"Ġstudent":2902,"Ġdegrees":2903,"Ġknown":2904,"Ġaccess":2905,"list":2906,"ler":2907,"Ġsw":2908,"(v":2909,"ped":2910,"bability":2911,"Ġtraining":2912,"Ġrequire":2913,")**":2914,"Ġdirection":2915,"Ġquadr":2916,"åĩ":2917,"ĠLet":2918,"ĠPh":2919,"Ġcy":2920,"ĠOptional":2921,"Ġpo":2922,"_j":2923,"Ġgrad":2924,"rist":2925,"Ġmot":2926,"Ġproperty":2927,":\",":2928,"\"A":2929,"Ġleg":2930,"icle":2931,"press":2932,"ĠThus":2933,"anguage":2934,"Ġalpha":2935,"Ġsocial":2936,"Ġmen":2937,"ession":2938,"81":2939,"ĠAll":2940,"lobal":2941,"my":2942,"(num":2943,"usion":2944,"_ratio":2945,"Ġinvest":2946,".set":2947,"ready":2948,"AB":2949,"Ġresponse":2950,"ĠGener":2951,"Ġneeded":2952,".execute":2953,"au":2954,"Ġdepend":2955,"Ġcontinu":2956,"Ġland":2957,"Ġreally":2958,"'re":2959,"Ġmis":2960,"RO":2961,"_result":2962,"Ġaccount":2963,"().":2964,"Ġtemperature":2965,"Ġalong":2966,"race":2967,"oms":2968,"centage":2969,"tan":2970,"52":2971,"comm":2972,"iply":2973,"Ġbro":2974,"Ġhouse":2975,"Ġ--":2976,"Ġsurface":2977,"file":2978,"Ġconsider":2979,"abilities":2980,"uff":2981,"Ġair":2982,"_com":2983,"Ġmaking":2984,"ĠTest":2985,"Ġcoefficient":2986,"Ġhalf":2987,"Ð¿":2988,"Ġæ":2989,"âĢ¦":2990,"Ġ'''":2991,"Ġdone":2992,"Ġ$[":2993,"Ġeas":2994,"58":2995,"rate":2996,".\"":2997,"orizon":2998,"olving":2999,"ĠThese":3000,"uments":3001,"}}{\\":3002,"Ġdem":3003,"Ġfamily":3004,"sec":3005,"Ġevent":3006,"ores":3007,"axis":3008,"iding":3009,"abs":3010,"ĠUS":3011,"How":3012,"Ġvoltage":3013,"ocus":3014,"Ġcome":3015,"Ġcontext":3016,"Ġlittle":3017,"Ġmeet":3018,"aring":3019,"\"M":3020,"format":3021,"icy":3022,"-h":3023,"Ġbehav":3024,"ĠHowever":3025,"monstr":3026,".\")Ċ":3027,"Ġhapp":3028,"Ġred":3029,"back":3030,"ted":3031,"Ġstates":3032,"ream":3033,"tern":3034,"Ġacross":3035,"Ð¾Ð²":3036,"ĠÐ²":3037,"Ġcannot":3038,"Field":3039,"aper":3040,"ibility":3041,"plied":3042,"year":3043,"ĠCO":3044,"ertain":3045,"_file":3046,"Ġscore":3047,"Ġgraph":3048,"position":3049,"ĠUsing":3050,"125":3051,"rade":3052,"ails":3053,"41":3054,"ury":3055,"lected":3056,"(i":3057,"_cost":3058,"Ġapproach":3059,"Ġareas":3060,"æĺ¯":3061,"Ġfore":3062,"len":3063,"Ġintegral":3064,"Ġconsist":3065,"Ġfollows":3066,"Ġnever":3067,"#Ċ":3068,"igen":3069,"{-":3070,"ules":3071,"Ġrespect":3072,"itor":3073,"Ġpatter":3074,"side":3075,"Ġcommunity":3076,"Ġrule":3077,"92":3078,"Ġbi":3079,"Ġdensity":3080,"\"R":3081,"Ġstop":3082,"Ġdoesn":3083,"ogn":3084,"Ġcenter":3085,"Ġben":3086,"Ġdemonstr":3087,"Ġequals":3088,"åº":3089,"Ġut":3090,"Verification":3091,"ename":3092,"Ġ['":3093,"ĠException":3094,"yle":3095,"object":3096,"Ġgives":3097,"Ġmoment":3098,"Ġderivative":3099,"Ã©":3100,"]:":3101,"Ġplaces":3102,"data":3103,"'m":3104,"ictionary":3105,"76":3106,"nces":3107,"Ġlines":3108,"Ġfree":3109,"ĠMan":3110,"arameter":3111,"UR":3112,"Ġuntil":3113,"pecial":3114,"Ġteacher":3115,"ceed":3116,"Ġ(?":3117,"_factor":3118,"Ġneeds":3119,"(z":3120,"Ġwhole":3121,")\",Ċ":3122,"Ġcross":3123,"ailed":3124,"Ġcub":3125,"rea":3126,"Ġintern":3127,"image":3128,"Ġalready":3129,"Ġuses":3130,"Ġable":3131,"hs":3132,"Al":3133,"ĠOn":3134,"Ġnear":3135,"Ġ...":3136,"arth":3137,"ils":3138,"Ð¹":3139,"ĠAss":3140,"\\n":3141,"06":3142,"Ġ&=":3143,"_point":3144,"Ġcircle":3145,"Ġparticular":3146,"{kg":3147,"grid":3148,"Ġfac":3149,"Ġvariables":3150,"alt":3151,"{S":3152,"Ġdefinition":3153,"Ġconfig":3154,"Ġperm":3155,",\\!":3156,"root":3157,"sp":3158,"_of":3159,"ze":3160,"dx":3161,"$:Ċ":3162,"{E":3163,"Ġque":3164,"Ġhigher":3165,"Ġaxis":3166,"04":3167,"pth":3168,"Ġtre":3169,"Ġresearch":3170,"ably":3171,"Ġscal":3172,".re":3173,"Ġweek":3174,"ping":3175,".x":3176,"yd":3177,"Ġscale":3178,"Ġvers":3179,"Ġgive":3180,"Ġdescrib":3181,".D":3182,"{L":3183,"por":3184,"Ġitem":3185,"Ġeducation":3186,"pri":3187,"eros":3188,"')ĊĊ":3189,"tes":3190,"Â³":3191,"duc":3192,"gamma":3193,"Ġcourse":3194,"Ġrad":3195,"ĠâĢĶ":3196,"etime":3197,"Ġnatural":3198,"Ġsympy":3199,"ox":3200,"Ġquant":3201,"lower":3202,"(input":3203,"ĠBe":3204,"Ġbelow":3205,"Ġcapac":3206,"OT":3207,"Ġdoc":3208,"\"\"\"ĊĊ":3209,"Ġdev":3210,"ithm":3211,"Ġ(?,":3212,"Ġhard":3213,"ĠGod":3214,"Ġpressure":3215,"olar":3216,"Omega":3217,"ĠFr":3218,"resents":3219,"ĠFirst":3220,"Ġapproximately":3221,"])ĊĊ":3222,"cript":3223,".org":3224,"Ġderived":3225,"å°":3226,"come":3227,"Ġ?)\",Ċ":3228,"olute":3229,"Ġequations":3230,"leg":3231,"dt":3232,"Ġdelta":3233,"ystem":3234,"Ġmultiple":3235,"ological":3236,"Ġcomb":3237,"_index":3238,"ĠShe":3239,"'(":3240,"Ġeconom":3241,"orizontal":3242,"Ġcult":3243,"Ġtrain":3244,"You":3245,"}:":3246,"Ġpri":3247,"Ġothers":3248,"Ġdataset":3249,"ëĭ":3250,"ai":3251,"Ġ\\)":3252,"Ġrequires":3253,"iddle":3254,"{a":3255,"{g":3256,".log":3257,"Ġmeasure":3258,"Ġremain":3259,"rightarrow":3260,"loc":3261,"inct":3262,"Ġaddress":3263,"æĪ":3264,"size":3265,"Ġformat":3266,"ĠNumber":3267,"ÑģÑĤ":3268,"Ġcontains":3269,"Ġwin":3270,"gree":3271,"{pmatrix":3272,"Ġnecess":3273,"Ġsimilar":3274,"Ġsepar":3275,"Ġgovernment":3276,"ING":3277,"ï¼ļ":3278,"Convert":3279,"$ĊĊ":3280,"Ġsays":3281,"Ġmus":3282,"Ġclear":3283,"Ġfri":3284,"Ġprom":3285,"Ġbal":3286,"\\begin":3287,"Ġquestions":3288,"Ġfar":3289,"Ġyoung":3290,"âĪ":3291,"ET":3292,"Ġtransform":3293,"Ġgroups":3294,"\"P":3295,"ging":3296,"Ð·":3297,"Ġach":3298,"aken":3299,"Ġapply":3300,".shape":3301,"(data":3302,"Ġcoordinates":3303,"box":3304,"No":3305,"_P":3306,"Ġfunctions":3307,"Ġ\\{":3308,"ĠThen":3309,"Ġrisk":3310,"Ġprec":3311,"ameter":3312,"Ġgrowth":3313,"Ġactual":3314,"84":3315,"Ġlot":3316,"ledge":3317,"orld":3318,"_sh":3319,"Ġsorted":3320,"Ġprime":3321,"allel":3322,"ĠCent":3323,"ED":3324,"ograph":3325,"Ġdoub":3326,"lood":3327,"ĠQu":3328,"Th":3329,"Ġ{'":3330,"åĽ":3331,"Ġbecome":3332,"fit":3333,"Ġaction":3334,"Ġsource":3335,"arc":3336,"align":3337,"IS":3338,"-m":3339,"93":3340,"UT":3341,"new":3342,"Ġmessage":3343,"ĠMin":3344,"return":3345,"{H":3346,"Ġsymbols":3347,"ĠInitial":3348,"Ġport":3349,"stitution":3350,"osition":3351,"Ġspecial":3352,"reshold":3353,"exp":3354,"Ġwomen":3355,"Ġfuture":3356,"ĠâĢĺ":3357,"-based":3358,"-p":3359,"Un":3360,"reen":3361,"Ġcountry":3362,"omain":3363,"veral":3364,"Ġcontinue":3365,"Ġmajor":3366,"/h":3367,"=None":3368,"Ġsure":3369,"gether":3370,"Ġtogether":3371,"plies":3372,"Ġdate":3373,"Ġid":3374,"Ġparticip":3375,"main":3376,"Ġcaus":3377,"uro":3378,"\".":3379,"Ġcustom":3380,"implified":3381,"********":3382,"Ġtax":3383,"Ġworking":3384,"è®":3385,".py":3386,"Ġmaint":3387,"Ġtor":3388,"www":3389,"Ġproblems":3390,"CT":3391,"ĠTr":3392,"Ġgot":3393,"ĠShow":3394,"cription":3395,"94":3396,"Ġtreat":3397,"cd":3398,"Ġmiles":3399,"Ġ\"\"\"ĊĊ":3400,"uary":3401,"epsilon":3402,"But":3403,"Ġcontent":3404,"Ġbusiness":3405,"ypot":3406,"Ġbit":3407,"ĠCreate":3408,"Ġpat":3409,"Ġchanges":3410,"aff":3411,"Ġrect":3412,"_T":3413,"urther":3414,"Ġtree":3415,"Ġcomputed":3416,"Ġcontain":3417,"Ġoption":3418,"Ġsent":3419,"Im":3420,"ĠAny":3421,")^{":3422,"Substitute":3423,"mail":3424,"ush":3425,"izes":3426,"_prime":3427,"off":3428,"86":3429,"}.Ċ":3430,"Ġcritical":3431,"tau":3432,"*(":3433,"03":3434,"Ġeither":3435,"Ġeffic":3436,"book":3437,"hel":3438,"ination":3439,"ĠFe":3440,"dependent":3441,"rict":3442,"Ġdraw":3443,"Ġcombin":3444,"Ġanalysis":3445,"AP":3446,";Ċ":3447,"Ġcorrespon":3448,".__":3449,"Ġconsum":3450,"Ġ,":3451,"\"C":3452,"\"D":3453,"2000":3454,"width":3455,"Ġimpact":3456,"_total":3457,"aste":3458,"Ġbig":3459,"Ġinstr":3460,"ĠWith":3461,"Ġsimple":3462,"lement":3463,"Ġdevi":3464,"Ġaway":3465,"une":3466,"ĠApply":3467,"_S":3468,"Ġsugg":3469,"ina":3470,"ribute":3471,"Re":3472,"(st":3473,"Ġbool":3474,"Ġstrateg":3475,"no":3476,"Ġfocus":3477,"ometric":3478,"tml":3479,"empt":3480,"Ġrespons":3481,"Ġfactors":3482,"ope":3483,"test":3484,"izer":3485,"Ġaffect":3486,"(e":3487,"Ġcateg":3488,"icro":3489,"Ġannual":3490,"Ġnumerator":3491,"II":3492,"Ġstructure":3493,",âĢĿ":3494,"aut":3495,"Ġð":3496,"_z":3497,"_area":3498,"Ġemploy":3499,"Ġjob":3500,"section":3501,"Ġbenef":3502,"ĠThat":3503,"hi":3504,"Ġmillion":3505,"HE":3506,"ifies":3507,"Ġmarket":3508,"bit":3509,"Ġdigits":3510,"Ġreason":3511,"Ap":3512,"gor":3513,"Ġdisplay":3514,"{B":3515,"Ġvia":3516,"Ġcases":3517,"63":3518,"'ll":3519,"ohn":3520,"etermine":3521,"Ġequivalent":3522,"ĠStud":3523,"Ġreturns":3524,"ilit":3525,"ram":3526,"ĠSchool":3527,"Ġdigit":3528,"ighb":3529,"ĠChrist":3530,"Res":3531,"ĠSp":3532,"87":3533,"Ġassoci":3534,"instance":3535,"oding":3536,"Ġframe":3537,"Val":3538,"(\"\\":3539,"ĠÂ":3540,"ynomial":3541,"Ġant":3542,".\"ĊĊ":3543,"Ġrepresents":3544,"lib":3545,"Ġmatches":3546,"ĠAct":3547,"Ġexactly":3548,"join":3549,"Ġmoney":3550,"Ġhaving":3551,"ĠNot":3552,"elling":3553,"ley":3554,"600":3555,"Ġmm":3556,"Ġmembers":3557,"Ġseveral":3558,"Ġproport":3559,"Ġamong":3560,"{r":3561,"Ġfall":3562,".ĊĊĊ":3563,"89":3564,"Ġsolutions":3565,"ĠCont":3566,"aily":3567,"CO":3568,"Ġworks":3569,"most":3570,"atrix":3571,"ians":3572,"aim":3573,"åĬ":3574,"Ġbox":3575,"ND":3576,"âĢľ":3577,"Ġexperience":3578,"ĠAmerican":3579,"now":3580,"Ġpie":3581,"Ġmonths":3582,"iency":3583,"Ġcomponents":3584,"den":3585,"Ġcertain":3586,"Ġbegin":3587,"Ġempty":3588,"aries":3589,"ĠDo":3590,"Ġslope":3591,"ĠBy":3592,"Ġparts":3593,"ising":3594,"ĠCan":3595,"original":3596,"ĠState":3597,"62":3598,"ENT":3599,"ols":3600,"ĠTime":3601,"ĠSet":3602,"path":3603,"Ġsearch":3604,"Ġcomplete":3605,"portun":3606,"Ġconstraint":3607,"Ġplayer":3608,"icult":3609,"(g":3610,"adius":3611,"mathcal":3612,"Ġteam":3613,"Ġetc":3614,"clud":3615,"atives":3616,"ä¸º":3617,"Ġprim":3618,"Ġoperations":3619,"_D":3620,"Ġtheta":3621,"ĠSc":3622,"(h":3623,"Ġinstance":3624,".sin":3625,"Ġdecre":3626,"53":3627,"/(":3628,"gress":3629,"Ġtw":3630,"Ġmethods":3631,"Ġmakes":3632,"]]":3633,"ĠData":3634,"Ġdivision":3635,"https":3636,"Ġlater":3637,"(theta":3638,"Ġ)Ċ":3639,"Ġgrid":3640,"éĩ":3641,"eff":3642,"_train":3643,"psilon":3644,"Ġproper":3645,"label":3646,"Ġhom":3647,"placement":3648,"ref":3649,"ctor":3650,"Ġunique":3651,"board":3652,"Ġwon":3653,"ips":3654,"apt":3655,"[-":3656,"Ġsubject":3657,"ĠForm":3658,"ĠGr":3659,".nd":3660,"Ġpage":3661,"Ġresistance":3662,"Ġways":3663,"!ĊĊ":3664,"lev":3665,"}(\\":3666,"sv":3667,"Ġiter":3668,"å¼":3669,"AD":3670,"Ġsec":3671,"Ġenough":3672,"ĠMay":3673,"wards":3674,"ication":3675,"æī":3676,"Ġparameter":3677,"ĠSum":3678,"aves":3679,"=(":3680,"ĠOne":3681,"Ġlikely":3682,"Ġmap":3683,"Ġprevious":3684,"Ġoccur":3685,"fect":3686,"07":3687,"eries":3688,"aged":3689,"Ġremaining":3690,"_price":3691,"rices":3692,"IM":3693,"osp":3694,"æł":3695,"ottom":3696,"_un":3697,"$-":3698,"bl":3699,"apping":3700,"rimin":3701,"ĠFind":3702,"default":3703,".plot":3704,"izing":3705,"nder":3706,"Ġsin":3707,"Ġwindow":3708,"Ġtypes":3709,"neq":3710,"(len":3711,"since":3712,"Ġgen":3713,"ulti":3714,"urity":3715,"%Ċ":3716,"Ġpast":3717,"roll":3718,"irl":3719,"rap":3720,"Ġlanguage":3721,"åĢ":3722,"ĠUniversity":3723,"rm":3724,"astic":3725,"Ġnames":3726,"Step":3727,"Ġshows":3728,"Ġseg":3729,"Ġsatisfies":3730,"ĠPython":3731,"ister":3732,"Ġonce":3733,"Ġfeatures":3734,"Ġyield":3735,".T":3736,"=False":3737,"Ġimprove":3738,"_co":3739,"':Ċ":3740,"Ð³":3741,"ĠBl":3742,"Ġbinary":3743,"Ġheat":3744,"{D":3745,"Ġtf":3746,"Therefore":3747,"51":3748,"Ġface":3749,"encies":3750,"When":3751,"[int":3752,"_L":3753,"po":3754,"Ġcos":3755,"Ġboard":3756,"uel":3757,"uted":3758,"Ġ${":3759,"urt":3760,"Ġthing":3761,"ibr":3762,"Ġservice":3763,"enn":3764,"wargs":3765,"Ġtuple":3766,"ĠEarth":3767,"Ġconc":3768,"PI":3769,"rs":3770,"{align":3771,"Ġstatement":3772,"69":3773,"Ġshare":3774,"Ġregular":3775,"|\\":3776,"inci":3777,"gy":3778,"\\right":3779,"ĠAfter":3780,"ried":3781,"Ġidentity":3782,"'ve":3783,"aching":3784,"59":3785,"mid":3786,"posed":3787,"Ġplot":3788,"Ġearly":3789,"Ġbar":3790,"{cases":3791,"Ġacceleration":3792,"ĠDis":3793,"Ġcommand":3794,"Ġstrong":3795,"Ġactivities":3796,"Frame":3797,"Ġrelative":3798,"Ġphysical":3799,"olumn":3800,"_new":3801,"Ġquadratic":3802,"ump":3803,"Ġ..":3804,"sel":3805,"Ġsqrt":3806,"Time":3807,"Ġclean":3808,"Ġloop":3809,"item":3810,"Ġ|ĊĊ":3811,"Ġaccept":3812,",y":3813,"leep":3814,"ĠEm":3815,"Ġintegers":3816,"ĠAdd":3817,"hood":3818,"(np":3819,"$),":3820,"Ġprofit":3821,"Ġadjust":3822,"Ġproduction":3823,"venue":3824,"Ġoptions":3825,"Ġhistory":3826,"åľ":3827,"fully":3828,"','":3829,"Ã£":3830,".is":3831,"Ġsystems":3832,"aced":3833,"oper":3834,"ä¸Ń":3835,"ĠCol":3836,"Ġí":3837,"Ġsuper":3838,"Ġcity":3839,"ĠAB":3840,"Ġwrite":3841,"Or":3842,"argin":3843,"Ġmid":3844,"Ġmathematical":3845,"Ġmode":3846,"items":3847,"ache":3848,"Ġdiscuss":3849,"level":3850,"irt":3851,"Ġdistinct":3852,"Ġcoll":3853,"UL":3854,"Ġhour":3855,"imeter":3856,"ĠSup":3857,"Ġcut":3858,"Ġlevels":3859,"Ġey":3860,"Ġentire":3861,"cale":3862,"Ġkind":3863,"Ã¡":3864,"hest":3865,"Ġsuggest":3866,"Ġdict":3867,"_rad":3868,"ĠPart":3869,"_for":3870,"Ġtrad":3871,"Ġ$)":3872,"åŃĹ":3873,"ariance":3874,"Ġmodule":3875,"itch":3876,"Ġitems":3877,"Ġpd":3878,"Ġnorm":3879,"Ġopportun":3880,"olved":3881,"Cl":3882,"AG":3883,"Ġblack":3884,".con":3885,"{y":3886,":`":3887,"ÑĢÐ°Ð¼":3888,")\")Ċ":3889,"Ġvariance":3890,"\"),Ċ":3891,"_error":3892,".M":3893,"ving":3894,"urch":3895,"ĠPre":3896,"_dict":3897,"Ġvarious":3898,"plain":3899,"79":3900,"binom":3901,"ension":3902,"selves":3903,"Ġtyping":3904,"request":3905,"Ġdise":3906,"ook":3907,"iate":3908,"though":3909,"Ġensure":3910,"Ġtalk":3911,"ĠÐº":3912,".path":3913,"Ġglobal":3914,"ourn":3915,"\"F":3916,"itted":3917,"Ġinstead":3918,"mber":3919,"Ġapp":3920,"ĠReg":3921,"IL":3922,"(w":3923,"Ġball":3924,"Ġmagnitude":3925,"Ġbecomes":3926,"Ġ('":3927,"Ġappropri":3928,"He":3929,"Ġindust":3930,"ipal":3931,"\\r":3932,"Ġsatisfy":3933,"iew":3934,"oretical":3935,"cm":3936,"lor":3937,"ening":3938,"bed":3939,"Ġestim":3940,"ĠDes":3941,"'.":3942,"aches":3943,"eh":3944,"Ġservices":3945,"ĠSubstit":3946,"igns":3947,"reg":3948,"Ġadditional":3949,"ĠDr":3950,"Ġft":3951,".exp":3952,"Ġexplain":3953,"Ġlat":3954,"09":3955,"800":3956,"]$":3957,"Ġparents":3958,"Ġcreated":3959,"Ġthird":3960,"li":3961,"Ġpolit":3962,".ndarray":3963,"ender":3964,"Ġupper":3965,"Ġpack":3966,"augh":3967,"æĹ":3968,"Ġground":3969,"initial":3970,"Ġaccur":3971,"light":3972,"Ġedge":3973,"Ġdirectly":3974,"Ġoperation":3975,"lish":3976,"agonal":3977,"ĠCounty":3978,"Ġ[\"":3979,"utive":3980,"Ġcompany":3981,"Ġmu":3982,"ief":3983,"Ġnums":3984,"è¾":3985,"Ġsigma":3986,"Ġbin":3987,"^n":3988,"ĠEduc":3989,"Ġactually":3990,"**ĊĊ":3991,"Ġfre":3992,"ymbols":3993,"iform":3994,"Ġregion":3995,"CD":3996,"Ġcontaining":3997,"74":3998,"cap":3999,"ĠEqu":4000,"Ġprovides":4001,"360":4002,"{f":4003,"71":4004,"}%":4005,"Ġrecord":4006,"Ġrecent":4007,"Ġrather":4008,"Ġisinstance":4009,"Ġholds":4010,"Ġpattern":4011,"(B":4012,"anced":4013,"pret":4014,"ulate":4015,"ĠDep":4016,"Ġbir":4017,"Ġprevent":4018,"255":4019,"Ġgreater":4020,"ĠÏ":4021,"ĊĊĊĊ":4022,"ĠMon":4023,"bra":4024,"ken":4025,"Ġbeta":4026,"nc":4027,"Ġhold":4028,"reng":4029,"quare":4030,"Ġresources":4031,"Ġcou":4032,"avor":4033,"ç¬":4034,"Ġfixed":4035,"ĠType":4036,"Ġlin":4037,"Ġcomponent":4038,"Ġupon":4039,"Ġanaly":4040,"}_{\\":4041,"uation":4042,"Ġclose":4043,"ÑĢÐ°Ð¼Ð¼":4044,"Ġdifficult":4045,"Ġess":4046,"Ð½Ñĭ":4047,"ĠIN":4048,"ĠUnited":4049,"Ġimplement":4050,"Ġauthor":4051,"Ġtheorem":4052,")čĊčĊ":4053,"Ġseen":4054,"}$$":4055,"cles":4056,"Ġexc":4057,"Ġspecies":4058,"plicit":4059,"-in":4060,".cos":4061,"Ġfive":4062,".čĊ":4063,"count":4064,"ä¸Ģä¸ª":4065,"ĠFrom":4066,"ethod":4067,"ĠGe":4068,"ently":4069,"Ġ{}":4070,")]":4071,"Ġestabl":4072,"Ġkil":4073,"Ġdrop":4074,"å¯":4075,"Ġplant":4076,"Ġstory":4077,"dec":4078,"Ġcolle":4079,"sc":4080,"ĠCar":4081,"Ġtell":4082,"sub":4083,"())Ċ":4084,"Ġknowledge":4085,"Ġforward":4086,"Ġdeviation":4087,"Ġcoefficients":4088,"ĠSim":4089,"Ġcompar":4090,"ened":4091,"Ġpers":4092,"rodu":4093,"Ġtoday":4094,"Ġdictionary":4095,"73":4096,"Ġexec":4097,"ideo":4098,"Ġtakes":4099,"Act":4100,"oice":4101,"Ġtaken":4102,"Ġbehavior":4103,"ĠAg":4104,"psi":4105,"me":4106,"Ġreading":4107,"ada":4108,"Solve":4109,"atus":4110,"Ġcolumns":4111,"na":4112,"Ġdest":4113,"Ġpolynomial":4114,"conds":4115,"earch":4116,"æľī":4117,"ĠPr":4118,"ners":4119,"Ġphot":4120,"Ġcorresponding":4121,"_term":4122,"Ġbuilding":4123,"Ġtim":4124,"ĠDict":4125,"_deg":4126,"abase":4127,"Ġnecessary":4128,"US":4129,"Ġcause":4130,"Ġcup":4131,"éĢ":4132,"Ġill":4133,"metic":4134,"vey":4135,"Ġapplication":4136,"(N":4137,"83":4138,"eth":4139,"Ġskills":4140,"Ġlink":4141,"Ġeffective":4142,"otes":4143,"emp":4144,"{T":4145,"ÐµÑĤ":4146,"ifference":4147,"Ġfurther":4148,"ĠComp":4149,"Ġhorizontal":4150,"cular":4151,"lation":4152,"Ġcard":4153,"Ġproducts":4154,"Ġprior":4155,"ectors":4156,"Ġsys":4157,"Ġincreases":4158,"|---":4159,"110":4160,"oman":4161,"ado":4162,"ha":4163,"Ġmanagement":4164,"Ġangles":4165,"Ġavoid":4166,"istics":4167,"ĠÐ½":4168,"ìĹ":4169,"Ġcame":4170,"aging":4171,"Ġwhite":4172,"Ġquality":4173,"Ġdeb":4174,"iment":4175,"ĠMed":4176,"Ġflu":4177,"Ġfiles":4178,"urb":4179,"ĠSolution":4180,"Ġrelated":4181,"ĠTuple":4182,"Ġgas":4183,"-to":4184,"OL":4185,"Ġeff":4186,"By":4187,"ä¹":4188,"err":4189,"ference":4190,"Ġradians":4191,"Ġsett":4192,"(str":4193,"iqu":4194,".symbols":4195,"Ð°Ð½":4196,"61":4197,"æ³":4198,"Ġindependent":4199,"ĠNational":4200,"Ð¾Ð»":4201,"EL":4202,"ĠPlan":4203,"ĠRa":4204,"_\\":4205,"Node":4206,"Ġapproximation":4207,".in":4208,"Ġfund":4209,"Ġviol":4210,"Ġissues":4211,"ager":4212,"-n":4213,"atory":4214,"}$:":4215,"Ġprinci":4216,"OD":4217,"ithmetic":4218,"eq":4219,"Ġsignal":4220,"Ġrows":4221,"ully":4222,"Ġobjects":4223,"andid":4224,"uly":4225,"ĠLaw":4226,"ĠJan":4227,"Ġhypot":4228,"Ġlove":4229,"lete":4230,"Ġassert":4231,"_input":4232,"Ġnetwork":4233,"Ġalgor":4234,"ĠInput":4235,".sub":4236,"Ġthought":4237,"91":4238,"dered":4239,"col":4240,"ĠAm":4241,"Ġdepth":4242,"pecially":4243,"ifier":4244,"ario":4245,")]Ċ":4246,"ÑĪ":4247,"Ġwar":4248,"istor":4249,"({":4250,"ĠTrans":4251,"Ġchall":4252,"Ġcapacity":4253,"ĠMy":4254,"ìĿ´":4255,"Sh":4256,"Ġcosts":4257,"orted":4258,"_dir":4259,"ocal":4260,"Ġrecogn":4261,"_number":4262,"Ġsem":4263,"imals":4264,"Ġlayer":4265,"Ð±":4266,"Ġdoing":4267,"Ġrepresentation":4268,"82":4269,"ube":4270,"Ġcharge":4271,"Ġdam":4272,"åĮ":4273,"Ġexists":4274,"-------":4275,".random":4276,"Ġsci":4277,"Ġversion":4278,"Ĥ¹":4279,"At":4280,"Name":4281,"oring":4282,"Ġlarger":4283,"ĠNe":4284,"Ġspecified":4285,"uild":4286,"^{\\":4287,"Ð¾Ð´":4288,"andard":4289,".title":4290,"Ġassign":4291,"aximum":4292,"Ġconnect":4293,"nown":4294,"Ġconcept":4295,"Ġlive":4296,"Ġpractice":4297,"ervation":4298,"ãģ®":4299,"Ġassess":4300,"ociety":4301,"IV":4302,"Ġps":4303,"Ġrole":4304,"chan":4305,"Ġproperties":4306,"Ġmor":4307,"rown":4308,"osed":4309,"rie":4310,"Ġgrav":4311,"âĢ¢":4312,"raft":4313,"ĠJohn":4314,"arts":4315,"Ġitself":4316,"grad":4317,"ĠStates":4318,"Ġ((":4319,"Ġappropriate":4320,"æį":4321,"Ġroots":4322,"Ġfeed":4323,"Ġsave":4324,"-\\":4325,"ript":4326,"Ġfig":4327,"riter":4328,"Ġclaim":4329,"ĠClass":4330,".C":4331,"Ã³":4332,"Ġaccording":4333,"eral":4334,"-w":4335,"ober":4336,"Ġreduce":4337,"ĠDirect":4338,"Ġdimensions":4339,"Ġ({":4340,"Ġminim":4341,"ĠUp":4342,"ĠUs":4343,"Ġscript":4344,"Ġcir":4345,"Ġstarting":4346,"Ġmeaning":4347,")*":4348,"Ġobt":4349,"Ġdoll":4350,"**.ĊĊ":4351,"incipal":4352,"Ġscient":4353,"Ġrev":4354,"Ġsix":4355,"_score":4356,"ites":4357,"{t":4358,"Ġdiameter":4359,"expected":4360,"Ġrecomm":4361,"Ġpriv":4362,"Ġregard":4363,"Ġevents":4364,"struct":4365,"bre":4366,"Ġincludes":4367,"Out":4368,"ii":4369,"ĠAf":4370,"Ġstre":4371,"ê°":4372,"And":4373,"Ñħ":4374,"_by":4375,"Ġreview":4376,"Ġeffort":4377,"_th":4378,"minist":4379,"Solving":4380,"Ġ\"\"":4381,"Ġever":4382,"Ġincreasing":4383,"rand":4384,"Ġstatus":4385,"{J":4386,"ÂłÂłÂłÂł":4387,"Ġsal":4388,"oph":4389,"ĠMe":4390,")}Ċ":4391,"ÐµÑĢ":4392,"Ġlay":4393,"Now":4394,"'ĊĊ":4395,"_form":4396,"ops":4397,"_fe":4398,"Not":4399,"æŀ":4400,"ung":4401,"Ġadded":4402,"Ġinequ":4403,".show":4404,"Ġdidn":4405,"è¡¨":4406,"]:ĊĊĊ":4407,"igit":4408,"Ġabsolute":4409,"ĠAcc":4410,"ĠOp":4411,"Ġsimplified":4412,"aid":4413,"ĠPar":4414,"Ġcontact":4415,"Ġhar":4416,"aly":4417,"ĠSub":4418,"Ġfeature":4419,"EM":4420,"Ġweights":4421,"ĠPol":4422,"_M":4423,"Ġneighb":4424,"à¤¾":4425,"IR":4426,".\\":4427,"ä¸į":4428,"(S":4429,"room":4430,")':":4431,"}}Ċ":4432,"Ġconduct":4433,"Ġmind":4434,"Ġparallel":4435,"Ġç":4436,"Ġfamil":4437,"Ġ)ĊĊ":4438,"Ġwr":4439,"Ġexpect":4440,"Ġ'''Ċ":4441,"Ġsection":4442,"å½":4443,"(P":4444,"Ġinside":4445,"Ġidentify":4446,"Ġ[-":4447,"Ġyet":4448,"Ġconcent":4449,"_text":4450,"åį":4451,"plotlib":4452,"Ġoccurs":4453,"Ġfail":4454,"mp":4455,"Ġperformance":4456,"Ġchoice":4457,"Ġoptimal":4458,"Ġdeath":4459,"urope":4460,">Ċ":4461,"atively":4462,"sup":4463,"Ġconv":4464,"ĠGet":4465,"Ġdegree":4466,"Ġissue":4467,"Ġlabels":4468,"Ad":4469,"Ġstress":4470,"Ġpaper":4471,"eks":4472,"ĠRem":4473,"lex":4474,"Ġmissing":4475,"uler":4476,"{Total":4477,"Ġrules":4478,"_F":4479,"123":4480,"Ġvertical":4481,"_weight":4482,"With":4483,"Ġsymbol":4484,"output":4485,"Ġir":4486,"Ġoutside":4487,"Ġactivity":4488,"Ġodd":4489,"Ġroom":4490,"Ġtask":4491,"igin":4492,"\\}":4493,"ĠÐ¸":4494,"Ġtook":4495,"Ġverification":4496,"Ġclosed":4497,"Ġdt":4498,"Ġcharacters":4499,"mit":4500,"Ar":4501,"~~":4502,"Ġeigen":4503,"icial":4504,"ĠPoint":4505,"ble":4506,"_distance":4507,"Ġdocument":4508,"artment":4509,"era":4510,"ana":4511,"Ġlambda":4512,"è¡Į":4513,"_mass":4514,"posite":4515,"Ġ($\\":4516,".de":4517,"ĠCal":4518,"Ġexperi":4519,"Ġbill":4520,"Ġnote":4521,"Ġsense":4522,"Ġones":4523,"hol":4524,"Ġrepe":4525,"fraction":4526,"ĠEnglish":4527,"mic":4528,"ilter":4529,"Ġdy":4530,"_points":4531,"ĠGu":4532,"(T":4533,"kg":4534,"Ð°ÑĤ":4535,"Ġunderstanding":4536,"ãĢģ":4537,"undred":4538,"ĠServ":4539,"IG":4540,"Ġkin":4541,"start":4542,"Ð¾Ð³":4543,"eters":4544,"_height":4545,"bon":4546,"Ġdomain":4547,"ributes":4548,"ĠHealth":4549,"}{(":4550,"Ġderive":4551,"ynam":4552,"riminant":4553,"ĠÐ´":4554,"plate":4555,"Ġdemand":4556,"Ġperfect":4557,"Ġrunning":4558,"process":4559,"ĠComput":4560,"}/":4561,"Ġdaily":4562,"Ġsomeone":4563,"Ġargument":4564,"ground":4565,".name":4566,"Ġhowever":4567,"xt":4568,"force":4569,"adians":4570,"(u":4571,"img":4572,"ëĬ":4573,"Ġimages":4574,"Ġinverse":4575,"Ġsymmet":4576,"ĠSome":4577,"prob":4578,"flow":4579,"Ġfilter":4580,"anks":4581,"Ġmach":4582,"Ġimplementation":4583,"Ġ\"__":4584,"*}Ċ":4585,"Ġliter":4586,"Ġselect":4587,"Ġthemselves":4588,"ached":4589,"_the":4590,"PS":4591,"Ġelectric":4592,"ounded":4593,"Ġenumer":4594,"Ġespecially":4595,"Ġidea":4596,"Ð¾ÑĢ":4597,"Le":4598,"upper":4599,"ultiply":4600,"ernal":4601,"assert":4602,"asks":4603,"Ġscipy":4604,"Ġstaff":4605,"ĠInter":4606,"Ġce":4607,"ij":4608,"Ġpairs":4609,"**.":4610,"Ġstreng":4611,"ëĭ¤":4612,"mall":4613,"Ġtechnology":4614,"åĨ":4615,"Ġgetting":4616,"åĢ¼":4617,"Ġpersonal":4618,"Ġupdate":4619,"ama":4620,"ĠRep":4621,"Ġremov":4622,"_line":4623,"Ġbags":4624,"cret":4625,"åħ¥":4626,"åĪĹ":4627,"oes":4628,"idered":4629,"uf":4630,"{O":4631,"_inter":4632,"ancy":4633,"Ġseem":4634,"ildren":4635,"cel":4636,"Ġnational":4637,"Ġcells":4638,"ellow":4639,"Ġcv":4640,"{W":4641,"arams":4642,"Ġschools":4643,"Key":4644,"'''Ċ":4645,"Ġwritten":4646,"Ġsens":4647,"ĠST":4648,"Ġconsidered":4649,"Ġreference":4650,"Ġphase":4651,"udget":4652,"Ġcopy":4653,"Ġthreshold":4654,"\\l":4655,"abor":4656,"using":4657,"Ġconfidence":4658,"ÐµÐ»":4659,"Ġvertex":4660,"Ġgreen":4661,"Ġnight":4662,"Is":4663,"oo":4664,"Note":4665,"ìŀ":4666,"Ġsite":4667,"Ġarithmetic":4668,"Ġfit":4669,"Ġdimension":4670,"solution":4671,")):Ċ":4672,"cast":4673,"Simplify":4674,"Ġengine":4675,"{l":4676,"amed":4677,"Se":4678,"Ġconstruct":4679,"Ġgl":4680,"Ġtorch":4681,"åľ¨":4682,"uk":4683,"Ġwalk":4684,"Ġsets":4685,"Ġcountries":4686,"riangle":4687,"Ġusually":4688,"Ġinflu":4689,"CH":4690,"oud":4691,"Ġstack":4692,"Ã£o":4693,"xy":4694,".\")ĊĊ":4695,"Ġaltern":4696,"Ġ[[":4697,"(total":4698,"Ġcred":4699,"Ġcomes":4700,"rid":4701,"Ġè":4702,"Ġtaking":4703,"Ġwave":4704,"arest":4705,"eline":4706,"_N":4707,"gebra":4708,"plus":4709,"ĠAng":4710,"âĢĻre":4711,"Ġsav":4712,"Ġincome":4713,"Ġpolicy":4714,"Ġord":4715,"clusion":4716,"Ġvs":4717,"Ġbad":4718,"ran":4719,"{Z":4720,"ĠDetermine":4721,"ĠWorld":4722,"Ġbasis":4723,"Ġmetric":4724,"Ġachieve":4725,"åĩº":4726,"Ġbuilt":4727,"angular":4728,"oon":4729,"Ġroad":4730,"2020":4731,"Ġ{\"":4732,"idden":4733,"Ġwent":4734,"Ġsales":4735,"Ġconver":4736,"Ġhttps":4737,"Ġbelieve":4738,"Ġsoft":4739,"Ġbatch":4740,"Ġcamp":4741,"å¾":4742,"_state":4743,"Ġemail":4744,"plications":4745,"-by":4746,"{h":4747,"Ġblood":4748,"ĠMar":4749,"Ġtitle":4750,"^*":4751,"Ġenumerate":4752,"\"Total":4753,"\"N":4754,"Pa":4755,"Ġeffects":4756,"ĠEach":4757,"Ġgirl":4758,"Ġincluded":4759,"erive":4760,"Ġcover":4761,"iting":4762,"Ġprograms":4763,".next":4764,"}[":4765,"valuate":4766,"Ġotherwise":4767,"Ġwall":4768,"Ġletter":4769,"}x":4770,"--Ċ":4771,"Ġquick":4772,"unk":4773,"angles":4774,"Ġforms":4775,"Ġadult":4776,"Ġinterv":4777,"-g":4778,"æĿ":4779,"_percent":4780,"rounded":4781,"Ġbalance":4782,"ĠEurope":4783,"rows":4784,"ios":4785,"ilib":4786,"Ġmatter":4787,"Ġplane":4788,"ĠRun":4789,"ĠCity":4790,"Ð¾ÑĤ":4791,"Ġsmaller":4792,"Ġlogger":4793,"ä»¥":4794,"rium":4795,".z":4796,"ĠID":4797,"UN":4798,"(),":4799,"tr":4800,"which":4801,"fficient":4802,"_date":4803,"Ġfront":4804,"ched":4805,"Ġdisease":4806,"ĠWest":4807,"cing":4808,"Ġshall":4809,"_equ":4810,"Pl":4811,"</":4812,"Ġanything":4813,"Ġpartial":4814,"Ġtra":4815,"Ġremains":4816,"Ġfields":4817,"Ġdeal":4818,"ilename":4819,"exact":4820,"Ġteachers":4821,"Ġexponent":4822,"ataset":4823,"ball":4824,"Ġevidence":4825,"unch":4826,"Set":4827,"Ġheart":4828,"Ġwriting":4829,"Ġassociated":4830,"Ġvertices":4831,"Ġapplied":4832,"ĠShould":4833,"ĠNote":4834,"Ġ[Ċ":4835,"[:,":4836,"Ġattack":4837,"001":4838,"ancial":4839,"Data":4840,"Ã§":4841,"Ġremainder":4842,"{in":4843,"ĠPath":4844,"åı¯":4845,"On":4846,"Ind":4847,"ports":4848,"_out":4849,"fort":4850,"Ġdu":4851,"_width":4852,"Ġrotation":4853,"ĠDec":4854,"Ġche":4855,"_pos":4856,"Equ":4857,"çĽ":4858,"sequ":4859,"Ġbasic":4860,"Ġguess":4861,"HS":4862,"xi":4863,"())":4864,"zz":4865,"Ġmemory":4866,"ĠPa":4867,"range":4868,"Ġappear":4869,"/mol":4870,"change":4871,"used":4872,"Ġshift":4873,"elt":4874,"vest":4875,"Ġexam":4876,"\"]Ċ":4877,"Ġsound":4878,"/d":4879,"ë¡":4880,"Ġaff":4881,"relation":4882,"Ġcircum":4883,"10000":4884,"Ġ#Ċ":4885,"ĠEducation":4886,"Ġliving":4887,"Ġtreatment":4888,"ius":4889,"Actually":4890,"ëĬĶ":4891,"icular":4892,"tters":4893,"ĠExpress":4894,"Ġlonger":4895,"Ġinequality":4896,"Ġmatplotlib":4897,"Ġsex":4898,"Ġattempt":4899,"_at":4900,"Ġsimplify":4901,"_int":4902,"abels":4903,"ĠDiv":4904,"Ġdatetime":4905,"var":4906,"ĠRec":4907,"±»":4908,"ĠPe":4909,"_div":4910,"Right":4911,"ilibrium":4912,"ĠYear":4913,"ych":4914,"ÐºÐ¸":4915,"2012":4916,"5000":4917,"Īĺ":4918,"Ġdirectory":4919,"Ġalmost":4920,"oken":4921,"ulations":4922,"ĠAb":4923,"orks":4924,")$.":4925,"Ġpict":4926,"Ġalgorithm":4927,"ractions":4928,"Ġlooking":4929,"Ġconsistent":4930,"ivative":4931,"Ġtensor":4932,"_H":4933,"ĠMat":4934,"Ġsun":4935,"ffff":4936,"Ġmoving":4937,"Ġconfirming":4938,"Ġnature":4939,"Ġimm":4940,"Ġconfirms":4941,"_qu":4942,"airs":4943,"arter":4944,"_angle":4945,"(int":4946,"\\mathbf":4947,"ters":4948,"Ġarguments":4949,"|---|---":4950,"ĠRed":4951,"Ent":4952,"anger":4953,"_key":4954,"Ġneg":4955,"_valid":4956,"Ġsamples":4957,"ĠOF":4958,"oke":4959,"\",\"":4960,"Ġgenerate":4961,"([[":4962,"arser":4963,"pol":4964,"ishing":4965,"Ġincreased":4966,"Ġtradition":4967,"ĠAfric":4968,"kwargs":4969,"Ġreach":4970,"Ġbottom":4971,"otient":4972,"[n":4973,"_set":4974,"Then":4975,"Ġstore":4976,"From":4977,")$.ĊĊ":4978,"mar":4979,"2010":4980,"gen":4981,"Ġgain":4982,"Ġpurch":4983,"Ġtravel":4984,"']Ċ":4985,"_from":4986,"Ġmusic":4987,"hib":4988,"æ³ķ":4989,"ĠAtt":4990,"icks":4991,"Ġindices":4992,"_idx":4993,"Ġmultiply":4994,"Ġmiddle":4995,"attr":4996,"Ġtrack":4997,"128":4998,"stitute":4999,"Ġpositions":5000,"ername":5001,":\")Ċ":5002,"ĠAssum":5003,")$$ĊĊ":5004,"_R":5005,"Ġnumerical":5006,"ĠSouth":5007,"ĠYork":5008,"101":5009,"Ġcarry":5010,"Ġign":5011,"æĸĩ":5012,"ĠNorth":5013,"Ġmaterials":5014,"ĠJust":5015,"RL":5016,"Ġcompet":5017,"pir":5018,".grid":5019,"icles":5020,"dated":5021,"Ġeconomic":5022,"MS":5023,"ĠSecond":5024,"Ġfriends":5025,"Ġpick":5026,"###":5027,"[j":5028,"ĠOct":5029,"Ġscreen":5030,".html":5031,"æİ":5032,"Ġdecl":5033,"Ġfoot":5034,"ĠRead":5035,"ë¥":5036,"ĠCommun":5037,"ĠRight":5038,"Ġlocation":5039,"CC":5040,"zero":5041,"ees":5042,"Ġrelation":5043,"Ġ$$\\":5044,"Ġvisual":5045,".L":5046,"ued":5047,"__\":Ċ":5048,"Ġ\\(\\":5049,"Ġvectors":5050,"{e":5051,"Ġmember":5052,"(D":5053,"Ġstarted":5054,"Ġindividuals":5055,"()čĊ":5056,"Ġdifferences":5057,"ponential":5058,"Ġstock":5059,"All":5060,"Ġchoose":5061,"]čĊ":5062,"equiv":5063,"ĠTherefore":5064,"ĠExplain":5065,"hold":5066,"quared":5067,"Ġexceed":5068,"Ġexpand":5069,"Ġnodes":5070,"Ġste":5071,"\\cos":5072,"che":5073,"ĠDE":5074,"_mean":5075,"Ġreduction":5076,"Ġproduce":5077,"ese":5078,"(C":5079,"_X":5080,"Ġefficiency":5081,"Ġshown":5082,"Ġsafety":5083,"ĠHis":5084,"2018":5085,"Ġextrem":5086,"ernel":5087,"cience":5088,"Ġinterpret":5089,"Ġsplit":5090,"ĠSaf":5091,"Ġsafe":5092,"Ġaud":5093,"ĠArt":5094,"ustain":5095,"Ġproportion":5096,"ariable":5097,"Ġbring":5098,"Return":5099,"ensive":5100,"Ġ[(":5101,"-step":5102,"å®ļ":5103,"Ġyields":5104,"$):":5105,"ĠApr":5106,"\\,":5107,"-e":5108,"}ĊĊ":5109,"acter":5110,"energy":5111,"do":5112,"Ġbuy":5113,"Ġnothing":5114,"bose":5115,"ĠHere":5116,"ĠMr":5117,"2017":5118,"down":5119,"ament":5120,"ĠWill":5121,"Ġerrors":5122,"ĠProgram":5123,"\\sin":5124,"Ġblue":5125,"ampl":5126,"Ġhy":5127,"sg":5128,"OC":5129,"acing":5130,"SS":5131,"Ġcycle":5132,"perty":5133,"Ġreverse":5134,"Ġstats":5135,"Ġasked":5136,"Ġseems":5137,"Ġactive":5138,"ĠIntern":5139,"Ġsquares":5140,"Ġresulting":5141,"ĠEd":5142,"2016":5143,"Ġcontinuous":5144,"opt":5145,"Ġdeep":5146,"Ġimag":5147,"De":5148,"ĠOther":5149,"Ġprogress":5150,"Ġability":5151,".sum":5152,"Ġreceived":5153,"ä¼":5154,"di":5155,"}_{":5156,"_loss":5157,"ĠGo":5158,"256":5159,"=[":5160,"Ð¸ÑĤ":5161,"rast":5162,"2005":5163,"ansion":5164,"avg":5165,"Ġtemp":5166,"isions":5167,"Ġclasses":5168,"Ġseed":5169,"Ġmotion":5170,"DF":5171,"Ġdecision":5172,"Ġsimply":5173,"\\_":5174,"joy":5175,"umul":5176,"Hz":5177,"æĸ¹":5178,"Ġremove":5179,"ĠMarch":5180,"mary":5181,"-year":5182,"Ġprep":5183,"Ġsubs":5184,"_vals":5185,"/\\":5186,"ĠDist":5187,"Ġarticle":5188,"Ġhttp":5189,"ae":5190,"Ġcomputer":5191,"wers":5192,"ged":5193,"Ġincorrect":5194,".P":5195,"ìĦ":5196,"Ġpounds":5197,"Ġonline":5198,"Ġtesting":5199,"ÑĨ":5200,"hern":5201,"arily":5202,"Ġbooks":5203,"Ġcompared":5204,"Ġsegment":5205,"å¯¹":5206,"Ġdeveloped":5207,"rest":5208,"æĢ":5209,"{G":5210,"hesis":5211,"Ġtransfer":5212,"_year":5213,"Ġnut":5214,"Ġconnected":5215,"Ġdetermined":5216,"Ġcentral":5217,"Ġoptional":5218,"ç´":5219,"Ġdog":5220,"_cont":5221,"Ġleading":5222,"Ġmechan":5223,"Ġprobably":5224,"240":5225,"æĹ¶":5226,"issions":5227,"Ġgeometric":5228,"Ġmultiplication":5229,"Ġobserved":5230,"_class":5231,"Ġencour":5232,"ĠArea":5233,"ĠStr":5234,"$).":5235,"ricult":5236,"ĠPres":5237,"ĠNet":5238,"keys":5239,"Ġwaste":5240,"Ġ=========":5241,"_diff":5242,"product":5243,"UM":5244,"Ġintrodu":5245,".diff":5246,"Ġfalse":5247,".F":5248,"ĠAug":5249,"rup":5250,"Ġpolitical":5251,"ths":5252,"Ġchem":5253,"Ġedges":5254,"Ġscores":5255,"ĴĮ":5256,"sim":5257,"ï¼ī":5258,"Ġhistor":5259,"Ġvisit":5260,"_theta":5261,"Ġ$),":5262,"ç±»":5263,"OW":5264,"Ġmedia":5265,"ĠVerification":5266,"2011":5267,"erve":5268,"dots":5269,"Ġlargest":5270,"Ġ}ĊĊ":5271,"ï¼Ī":5272,"/w":5273,"eful":5274,"_matrix":5275,"dict":5276,"||":5277,"}$$Ċ":5278,"odels":5279,"ica":5280,"}^{\\":5281,"Ġbits":5282,"pan":5283,"Ġfarm":5284,"Ġautom":5285,"Ġisn":5286,"Ġeasy":5287,"Ġeverything":5288,"Ġrank":5289,"known":5290,"Ġangular":5291,"requency":5292,"ðŁ":5293,"Ġdescribed":5294,"Ġpiece":5295,"Ġcubic":5296,"Ġvideo":5297,"Ġextract":5298,".items":5299,"_sq":5300,"lear":5301,"annel":5302,"{K":5303,".yl":5304,"Ġroll":5305,"Sum":5306,"Ġ$$ĊĊ":5307,"anged":5308,"_volume":5309,"Ġfire":5310,"Ġconfiguration":5311,"Ġdouble":5312,"Ġrights":5313,"Ġallows":5314,"cending":5315,"hers":5316,"Ġcorresponds":5317,"Ð½Ð°":5318,"ãĢĤĊ":5319,"{km":5320,"Ġprotect":5321,"ĠPy":5322,"Ġplants":5323,"å±":5324,"Ġdiscount":5325,"Ġpix":5326,":,":5327,"Ġallowed":5328,"}}$":5329,"ĠOb":5330,"ìł":5331,"Ġprop":5332,"TT":5333,"2015":5334,"Ġbecame":5335,"mean":5336,"Ġessential":5337,"ML":5338,"å¹":5339,"_side":5340,"IF":5341,"jac":5342,"oly":5343,"Ġstrings":5344,"Ġdatabase":5345,"ĠBrit":5346,"active":5347,"Ġstudies":5348,"_sub":5349,"ATION":5350,"ĠAc":5351,"ë¡ľ":5352,"ceil":5353,"Ġpassed":5354,"ĠDepartment":5355,"Ġprofess":5356,"\"Error":5357,"Ġrates":5358,"Ð¸Ðµ":5359,"åĽŀ":5360,"Ġtransformation":5361,"Ġselected":5362,"Ġexisting":5363,"Ġlack":5364,"Ġenter":5365,"ĠDi":5366,"Ġprimary":5367,"go":5368,"Ġweeks":5369,"Ġsuff":5370,"fe":5371,"_model":5372,"ĠValid":5373,"iters":5374,"Ġpubl":5375,"igation":5376,"Ġreflect":5377,"inspace":5378,"íķĺ":5379,"local":5380,"Ġindicates":5381,"Ġmicro":5382,"rier":5383,"Ġmeasures":5384,"simplified":5385,"ĠFraction":5386,"Ġ\",":5387,"current":5388,"Cont":5389,"-value":5390,"Ġnull":5391,"_cm":5392,"'d":5393,"Ġrelig":5394,"Ġuniform":5395,"ĠPlot":5396,"})^":5397,"Ġcat":5398,"ĠIndia":5399,"ibrary":5400,"éĹ":5401,"ĠHigh":5402,"fl":5403,"avelength":5404,"Ġorigin":5405,"Ġcurve":5406,"!!":5407,"uman":5408,"Ġdrug":5409,"ĠRaises":5410,"top":5411,"ĠWork":5412,"(M":5413,"ransform":5414,"è¾ĵ":5415,"ì§":5416,"Ġcandid":5417,"inite":5418,"rec":5419,"Ġsupply":5420,"144":5421,"\\%Ċ":5422,"Ġexplicit":5423,"Ġcommit":5424,"anging":5425,"_speed":5426,"Form":5427,"urrence":5428,"\"T":5429,"Ġconnection":5430,"{mm":5431,"Ġfill":5432,"Ġago":5433,"Ġtro":5434,"first":5435,"IP":5436,"ty":5437,"amental":5438,"och":5439,"_initial":5440,"ĠDevelop":5441,"Ġpi":5442,"irit":5443,"Ġentry":5444,"ĠDem":5445,"ĠEl":5446,"_node":5447,"ìĿĦ":5448,"string":5449,"mb":5450,"Ġheav":5451,"Ġagree":5452,"Ġexerc":5453,"Ġinvolved":5454,"ĠAC":5455,"Ġattention":5456,"Ġcapt":5457,"emale":5458,"crease":5459,"ypes":5460,"Ġ~":5461,"Ġhundred":5462,"timal":5463,"Ġindustry":5464,"Find":5465,"'),":5466,"ĠÑĤ":5467,"Ġsequ":5468,"Ġshowing":5469,"Ġpython":5470,"ĠSystem":5471,"\\),":5472,"anges":5473,"_with":5474,"actions":5475,"ĠLa":5476,"ä¾":5477,"Ġfractions":5478,"ĠSubstituting":5479,"ocket":5480,".linspace":5481,"ĠWar":5482,"Ġimmed":5483,"Ġnearest":5484,"Ð¶":5485,"Ġscen":5486,".se":5487,"Ġslow":5488,"Ġcapital":5489,"åī":5490,"ydro":5491,"numer":5492,"ĠWhile":5493,"Ġhost":5494,"pendicular":5495,"http":5496,"Ġtrying":5497,"Ġalgebra":5498,"^x":5499,"Ġé":5500,"2014":5501,"*a":5502,"ĠFl":5503,"aight":5504,"cup":5505,"è¦":5506,"Ġscience":5507,"ĠHz":5508,"Ġwebs":5509,"Ġgoal":5510,"ivil":5511,"Ġlogging":5512,"Ġlives":5513,"ilk":5514,"Ġspeak":5515,"Ġstrategy":5516,".write":5517,".left":5518,"Ġcategory":5519,"ĠNow":5520,"obj":5521,"Ġmovement":5522,"Ġtheory":5523,"arting":5524,"ias":5525,"Ġfast":5526,"ĠYour":5527,"lier":5528,"ratio":5529,"amount":5530,"Ġboundary":5531,"Ġpan":5532,"Ġpref":5533,"Ġcombined":5534,"(R":5535,".read":5536,"Ġmix":5537,"TH":5538,"ĠKey":5539,"Ġfloor":5540,"ĠCurrent":5541,".pyplot":5542,"ĠAmerica":5543,"æį®":5544,"Ġhands":5545,"sect":5546,"-S":5547,"Ġzip":5548,"ĠGroup":5549,"Ġusers":5550,"105":5551,"Ġsubt":5552,"åĪĨ":5553,"Ġarch":5554,"ulum":5555,"atur":5556,"!Ċ":5557,"CA":5558,"ĠEq":5559,"Ġregression":5560,"Ġdesigned":5561,"Ġfinancial":5562,"-hand":5563,"istory":5564,"_prob":5565,"vare":5566,"Ġheld":5567,"Ġlos":5568,"Ġgall":5569,"2013":5570,"Ġmoves":5571,"Ġextra":5572,"_ro":5573,"strip":5574,"Apply":5575,"Ġexamples":5576,"¦Ĥ":5577,"Ġson":5578,"NA":5579,"âĢ¦âĢ¦":5580,".)":5581,"\")čĊ":5582,"OS":5583,"distance":5584,"ĠAND":5585,"apter":5586,"linear":5587,"Ġevaluate":5588,"ĠII":5589,"inalg":5590,"dent":5591,"erior":5592,"Ġtang":5593,"ributed":5594,"2019":5595,"Cons":5596,"Ġthroughout":5597,"Ġsleep":5598,"Ġcircuit":5599,"omb":5600,".right":5601,"ashing":5602,"Ġtold":5603,"ecause":5604,"ĠURL":5605,"Ġmargin":5606,"Ġquite":5607,"ĠSee":5608,"Ġaware":5609,"abit":5610,"]}":5611,".\"Ċ":5612,"2006":5613,"Ġ)":5614,"}}}":5615,"olumns":5616,"Final":5617,"Ġcook":5618,"ĠHand":5619,"ĠLear":5620,"Ġcollect":5621,"chi":5622,"Ġelimin":5623,"()ĊĊĊ":5624,"One":5625,"amin":5626,"ĠJune":5627,"matches":5628,"ponse":5629,"ĠFile":5630,"Ġten":5631,"Ġcounts":5632,"Ġpow":5633,"cons":5634,"varepsilon":5635,"Ġcop":5636,"ĠGeneral":5637,"Ġcounter":5638,".zeros":5639,"ìĹĲ":5640,"Ġreported":5641,"Ġtrig":5642,"ĠÏĢ":5643,"Ġargs":5644,"copy":5645,"#[":5646,"OM":5647,"base":5648,"Ġcontribution":5649,"900":5650,"160":5651,"Ġstay":5652,".y":5653,"Type":5654,"BC":5655,"ros":5656,"Ġestimate":5657,"edge":5658,"Ġbroad":5659,"Ġbul":5660,"mathrm":5661,"ournal":5662,"\"Ex":5663,"crete":5664,"vector":5665,"]#":5666,".data":5667,"--|--------":5668,"update":5669,"Ġleaders":5670,")')Ċ":5671,"Ġfair":5672,"ÐºÐ°":5673,"Ġê°":5674,"clude":5675,"ĠChar":5676,"Ġmonthly":5677,"Ġwait":5678,"-M":5679,"ìĿĺ":5680,"ĠCost":5681,"_cl":5682,"333":5683,"à¤¾à¤":5684,"-Ċ":5685,"urtle":5686,"Ġmomentum":5687,"2009":5688,"ĥ½":5689,"ĠPrint":5690,"ĠApril":5691,"ederal":5692,".xlabel":5693,"Ġbytes":5694,"Ġaccom":5695,"åĪ°":5696,"Ġdivisors":5697,"Ġrob":5698,"ĠJanuary":5699,"_and":5700,"rated":5701,"hens":5702,"Ġfavor":5703,"Ġstri":5704,"ÐµÐ¼":5705,"Ġ$|":5706,"Ġgrams":5707,"Ġlost":5708,"ades":5709,"ĠGenerate":5710,"Ġoil":5711,"ĠDay":5712,"ĠFinal":5713,"225":5714,"*,":5715,"_string":5716,"âĸ":5717,"Ġhous":5718,"Ġarc":5719,":**":5720,"Ġship":5721,"rangle":5722,"Ġinform":5723,"Ġeducational":5724,"Ġveh":5725,"_res":5726,"Ñİ":5727,"Ġthous":5728,"Ġeveryone":5729,"à¥į":5730,"Ġinit":5731,"Ġconservation":5732,"ç½":5733,".linalg":5734,"coming":5735,"Ġfamilies":5736,"asure":5737,"oltage":5738,".ylabel":5739,"method":5740,"åĴĮ":5741,"Ġcam":5742,"½æķ°":5743,"...ĊĊ":5744,"Ġprivate":5745,"Ġgard":5746,"ë¥¼":5747,"Ġmother":5748,"ä»¶":5749,"(L":5750,"ĠAlso":5751,"_col":5752,"Ġprojects":5753,"ymbol":5754,"Ġbirth":5755,"Ġseason":5756,"eget":5757,"2023":5758,"Ġmeeting":5759,"âĤĤ":5760,"à¥įà¤":5761,"OP":5762,"eli":5763,"]]Ċ":5764,"olves":5765,"imit":5766,"Ġletters":5767,"Ġdiagonal":5768,"Ġweb":5769,"Ġmag":5770,"orage":5771,"åĲį":5772,"haps":5773,"Ġbehind":5774,"Ġchalleng":5775,"Ġprecision":5776,"Ġwrong":5777,"Ġinputs":5778,"Ġmodern":5779,"Ġfight":5780,"Ġfriend":5781,"_df":5782,"ĠÐ¼":5783,"levant":5784,"Ġeat":5785,"Ġcreating":5786,"ĠSept":5787,"ining":5788,"ĠTHE":5789,"Ġraw":5790,"Ġ---":5791,"Ġdollars":5792,"oul":5793,"After":5794,"Ġreturned":5795,"Ġcompare":5796,"Ġ----------Ċ":5797,"rial":5798,"riction":5799,"Ġcomparison":5800,"))čĊ":5801,"aa":5802,"clus":5803,"Ġequilibrium":5804,"ÃŃ":5805,"\\phi":5806,"Ġuseful":5807,"Ġsession":5808,"Ġcompan":5809,"Char":5810,".split":5811,"Ġphi":5812,"Ġgets":5813,"cil":5814,"Ġearth":5815,"Â·m":5816,"]:.":5817,"Ġcomment":5818,"\"\\":5819,"ĠEast":5820,"iam":5821,"`,":5822,"Ġconstruction":5823,"625":5824,"_url":5825,"mission":5826,"pite":5827,"Ġsn":5828,"Value":5829,"Ġtick":5830,"Ġanimals":5831,"Ġimplies":5832,"Ġmess":5833,"ĠCenter":5834,"Ġtests":5835,"ru":5836,"æŀľ":5837,"(value":5838,"Ġgrade":5839,"water":5840,"Ġpurpose":5841,"ĠUnion":5842,"\"(":5843,"Ġrectangle":5844,"efficient":5845,"Ġstraight":5846,"oder":5847,"Ġsociety":5848,"Ġìŀ":5849,"pass":5850,"Ġtherefore":5851,"2008":5852,"Ġ\"Ċ":5853,"_bound":5854,"auss":5855,".radians":5856,"Ġbeginning":5857,"itation":5858,"cores":5859,"ino":5860,"asons":5861,"Ġmodul":5862,"Ġgamma":5863,"group":5864,".rand":5865,"è¿Ķ":5866,"(-\\":5867,"Ġ-=":5868,"Ġmention":5869,"ĠAD":5870,"points":5871,"Ġactions":5872,"Ġpaint":5873,"erences":5874,"(list":5875,"Ġtowards":5876,"Ġhandling":5877,"Ġinternal":5878,"ç®":5879,"inder":5880,"nes":5881,"ĠMain":5882,"Ġenjoy":5883,"pression":5884,"Ġshots":5885,"ools":5886,"ÃĹ":5887,"Ġinvalid":5888,"ĠSk":5889,"Ġspread":5890,"Ġopposite":5891,"Ġhighest":5892,"Ġreduced":5893,"{u":5894,"while":5895,"'],":5896,"ĠExpected":5897,"rought":5898,"AY":5899,"Sub":5900,"æĮ":5901,"Ġpoor":5902,"Ġkeys":5903,");":5904,"ĠSur":5905,"ĠMark":5906,"Ġoverall":5907,"mass":5908,"nect":5909,"Ġmask":5910,"ĠHouse":5911,"Ġidentical":5912,"Ġsus":5913,"âĪļ":5914,".Data":5915,"het":5916,"):.":5917,"ugar":5918,"ĠSw":5919,"_dec":5920,"})Ċ":5921,"ĠInteg":5922,"\"E":5923,"')čĊ":5924,"example":5925,"Ġaccuracy":5926,"cluding":5927,"Ġprocesses":5928,".A":5929,"_range":5930,"(se":5931,"Ġrecurs":5932,"SON":5933,"anch":5934,"})\")Ċ":5935,"Ġhealthy":5936,"nu":5937,"çİ":5938,"Ġbegan":5939,"Ġsoil":5940,"ĠSch":5941,"_solution":5942,"tered":5943,"ç¬¦":5944,"PE":5945,"\\lfloor":5946,"ĠMc":5947,"Ð¾Ð¼":5948,"ãĤĴ":5949,"ĠGerm":5950,"Ġfont":5951,"split":5952,"}$ĊĊ":5953,"-axis":5954,"Ġampl":5955,"unt":5956,")$:":5957,"å¸":5958,"Ġalone":5959,"Ġmedical":5960,"Ġrock":5961,"(*":5962,"Ġsil":5963,"ulated":5964,"Ġoffer":5965,"ä¿":5966,"body":5967,"ĠOver":5968,"length":5969,"ä½¿":5970,"ifically":5971,"Ġserver":5972,"Ġum":5973,"Ġhot":5974,"Ġproduced":5975,"Ġadminist":5976,"Ġdisplacement":5977,"ĠProv":5978,"ä¸ĭ":5979,"ìļ":5980,"PL":5981,"Ġcomputation":5982,"Ð°ÑĢ":5983,"Ġleave":5984,"ĠConstant":5985,"FF":5986,"ÂłĊĊ":5987,"ucl":5988,"more":5989,"istry":5990,"åıĸ":5991,")[":5992,"ĠJuly":5993,"Ġquantity":5994,"è¦ģ":5995,"Ġsmallest":5996,"Per":5997,"ilitary":5998,"Ġsurv":5999,"Ġdevice":6000,".figure":6001,"ĠStandard":6002,"Ġbenefits":6003,"actors":6004,"Ġsetting":6005,"Ġsaw":6006,"Ġter":6007,"ĠEnt":6008,"Ġaspect":6009,"Ġoutcomes":6010,"ufact":6011,"Op":6012,"Ġteaching":6013,"ux":6014,"(request":6015,"correct":6016,"eras":6017,"ĠExtract":6018,"ategory":6019,"Ġsuccessful":6020,"Ġgames":6021,"Ġideas":6022,"ĠRel":6023,"Ġmedian":6024,"ĠSm":6025,"velocity":6026,"Ġforces":6027,"Ġtools":6028,"æŃ":6029,"poses":6030,"empty":6031,"Ġfigure":6032,"ao":6033,"Ġverbose":6034,"Ġsecurity":6035,"ĠGover":6036,"Ġemot":6037,"else":6038,"Ġlabor":6039,"åºı":6040,"inear":6041,"Ġmaintain":6042,"efore":6043,"abet":6044,"aj":6045,"Ġfilename":6046,"graph":6047,"ĠAust":6048,"Ġreceive":6049,"Ġtasks":6050,"Ġrepresenting":6051,"ĠName":6052,"ieved":6053,"\\rfloor":6054,"Ġwhose":6055,"Ð½Ð¾":6056,"Ġfollowed":6057,"Ġhandle":6058,"Ġhit":6059,"{max":6060,"code":6061,"django":6062,"learn":6063,"Ð¸Ñģ":6064,"Ġsources":6065,"Ġdamage":6066,"ickness":6067,"can":6068,"Ġprocessing":6069,"edom":6070,"ĠìĿ":6071,"igits":6072,"Ġwind":6073,"Ġrefer":6074,"ĠComputes":6075,"Ġexponential":6076,"ĠError":6077,"*y":6078,"Ġgradient":6079,"140":6080,"Ġdry":6081,"Ġculture":6082,"erved":6083,"CE":6084,"Ġsituation":6085,"rc":6086,"Ġcompleted":6087,"Ġpara":6088,"åĩ½æķ°":6089,"Ġconstraints":6090,"::":6091,"zing":6092,"actual":6093,"Ġrestr":6094,"_product":6095,"[\\":6096,"Dict":6097,"}Â°":6098,"Ġpermut":6099,"Ġbrain":6100,"odule":6101,"Ġtoward":6102,"_or":6103,"Ġlists":6104,"-|--------":6105,"^T":6106,"uccess":6107,"ĠLog":6108,"ropy":6109,"ogle":6110,"Ġpassword":6111,"Ġopportunity":6112,"Ġfailed":6113,"Ġenvironmental":6114,"(fig":6115,"iet":6116,"Ġmole":6117,"Ġtransport":6118,"Ġmist":6119,"like":6120,"irm":6121,"æķ°æį®":6122,"Ġstrength":6123,"Ġequip":6124,"intercept":6125,"doc":6126,"Ġappears":6127,"Ġpain":6128,"Ġcharg":6129,"}$Ċ":6130,"Ġemerg":6131,"Ġ\\Ċ":6132,"Ġclimate":6133,"¤º":6134,"ĠInitialize":6135,"Ġparticularly":6136,"Ġmental":6137,"Ġdetails":6138,"Ġadding":6139,"Ġpad":6140,"Ġnorth":6141,"Ġdtype":6142,"Yes":6143,"Ġconcentration":6144,"otic":6145,"ster":6146,")|":6147,"Ġtransition":6148,"Phi":6149,"Ġsometimes":6150,"ATE":6151,"langle":6152,"Ġep":6153,"dis":6154,"Ġdomin":6155,"Ġtrees":6156,"ĠÑ":6157,"ĠKing":6158,"Ġtens":6159,"Ġinner":6160,"Ġreaction":6161,"ç§":6162,"Ġstarts":6163,"ĠAnn":6164,"Ġthinking":6165,"Ġjud":6166,"Ġpopular":6167,"urg":6168,"plier":6169,"Ġoperator":6170,"Ph":6171,"(True":6172,"çĤ¹":6173,"Ġpractices":6174,"itational":6175,"_dim":6176,"çī":6177,"agnitude":6178,"1200":6179,"Ġlies":6180,"Ġstation":6181,"(max":6182,"{ft":6183,"Ġ'{":6184,"overline":6185,"Ġmachine":6186,"apped":6187,"Ġ\"\\":6188,"target":6189,"ĠJew":6190,"Ġintersection":6191,"Rightarrow":6192,"EST":6193,"ĊĠĠĠĠĠĠĠĠĊ":6194,"3600":6195,"Ġexpansion":6196,"Ġclient":6197,"[x":6198,"Ġox":6199,"æĪĲ":6200,"Ġcollection":6201,"Ġgoes":6202,"create":6203,"uge":6204,"Ġprincipal":6205,"Ġgenerally":6206,"vas":6207,"izations":6208,"cat":6209,"equation":6210,"enced":6211,"abla":6212,"Ġaim":6213,"ĠHar":6214,"Ġvariety":6215,"ĠProject":6216,".error":6217,"^k":6218,"omic":6219,"Ġlogar":6220,"ows":6221,"secutive":6222,"Ġinternational":6223,".DataFrame":6224,"ham":6225,"ously":6226,"ĠÎ¼":6227,"ĠčĊ":6228,"Ġ\"\"\"čĊ":6229,"ĠIndian":6230,"Ġpen":6231,"lands":6232,"Count":6233,"mark":6234,"olean":6235,"Ġcombination":6236,"train":6237,"ayout":6238,"Ġdepart":6239,"ouncil":6240,"}\\)":6241,"Ġthus":6242,"éĩı":6243,"cember":6244,"}}}{":6245,"atform":6246,"Ġfat":6247,"Ġwatch":6248,".j":6249,"tely":6250,"350":6251,"è¿ĶåĽŀ":6252,"Ġhope":6253,"idents":6254,"ĠAPI":6255,"response":6256,"itiz":6257,"uctions":6258,"cape":6259,"Ġrevenue":6260,"boxed":6261,"PA":6262,"Ġurl":6263,"Ġcommunities":6264,"æľĢ":6265,",b":6266,"Test":6267,"\\Delta":6268,"enuse":6269,"ĠMore":6270,"Ġscientific":6271,"oe":6272,"Ġenh":6273,"âģ":6274,"Ġsoon":6275,"1500":6276,"Ġtown":6277,"æ¯":6278,"tee":6279,"Ġphone":6280,"Ã³n":6281,"Ġremember":6282,"700":6283,"Ġdark":6284,"Ġcentury":6285,"Ġsustain":6286,"apan":6287,"ĠMass":6288,"roy":6289,"rome":6290,"_E":6291,"plex":6292,"ille":6293,"avers":6294,"Ġwood":6295,"^(":6296,"etch":6297,"tty":6298,"ĠOriginal":6299,"Ġprinciple":6300,"ê³":6301,"}'":6302,"Ġmoles":6303,"Ñī":6304,"aught":6305,"Ġinvestment":6306,"/n":6307,"_part":6308,"_image":6309,"attle":6310,"det":6311,"Ġbank":6312,"iling":6313,"Ġtruth":6314,"Ġcompound":6315,"Ġserious":6316,"lin":6317,"ĠPublic":6318,"Ġimg":6319,"Ġfuel":6320,"jacent":6321,"Ġbey":6322,"ĠCour":6323,"Ġwanted":6324,"under":6325,"Ġdead":6326,"Ġintegration":6327,"ĠOut":6328,"Ġcontract":6329,"Ġspring":6330,"Ġflo":6331,"Gamma":6332,"rical":6333,"erent":6334,"Ġinsert":6335,"Ġfundamental":6336,"Ġepsilon":6337,"/c":6338,"Ġpadd":6339,"uster":6340,"750":6341,"umerator":6342,"Ġbeyond":6343,"Ġgiving":6344,"Ġveget":6345,"ĠBoard":6346,"Ġbed":6347,"ìĬ":6348,"_im":6349,"Ġcriter":6350,"Ġpred":6351,"ĠJes":6352,"Ġrelationships":6353,"Ġideal":6354,"term":6355,"]$,":6356,"ometry":6357,"Ġofficial":6358,"ruct":6359,"preci":6360,"Input":6361,"iation":6362,"Ġchain":6363,"Ġgenerated":6364,"Ġ-------":6365,"(figsize":6366,"ny":6367,"(re":6368,"Ġeyes":6369,"ĠRound":6370,"Ġfilm":6371,"unds":6372,"Ġsolid":6373,"see":6374,"net":6375,"¸°":6376,"ampling":6377,"Ġlimited":6378,"Ġdb":6379,"Ġopportunities":6380,"{total":6381,"Ġdescription":6382,"Acc":6383,"-D":6384,"ĠTheorem":6385,"Ġfully":6386,"olid":6387,"aign":6388,"ĠRef":6389,"ooth":6390,"Ġjson":6391,"idx":6392,"Ġquery":6393,".âĢĿĊĊ":6394,"130":6395,"Consider":6396,")}{\\":6397,"Class":6398,"New":6399,"/L":6400,"{X":6401,"ditional":6402,"Ġstage":6403,"estyle":6404,"Ġnotation":6405,"Ġfactorization":6406,"ĠÎ©":6407,"ĠEst":6408,"äºİ":6409,"Ġhimself":6410,"Ġthreat":6411,"ĠModel":6412,"ĠScience":6413,"Ñĸ":6414,"Ġpayment":6415,"Ġinn":6416,"Ġscaling":6417,"ãĤĭ":6418,"Ġpy":6419,"Ġdynam":6420,"OST":6421,"za":6422,"_det":6423,"poss":6424,"Ġlif":6425,"è½":6426,"Ġcompletely":6427,"Ġformed":6428,"_add":6429,"Ġworkers":6430,"Ġnews":6431,"Ð¾Ð±":6432,"Ġoccup":6433,"Ġdur":6434,"Ġmer":6435,"2004":6436,"_pred":6437,"rypt":6438,"Integ":6439,"Ġsettings":6440,"IST":6441,"blem":6442,"bruary":6443,"ä½¿çĶ¨":6444,"Î¸":6445,"greg":6446,"rons":6447,"ester":6448,"åħĥ":6449,"_q":6450,".ch":6451,"Ġlate":6452,"plan":6453,".mean":6454,"env":6455,"Ġomega":6456,"lements":6457,"Ġforest":6458,"aur":6459,"Ġplaced":6460,"Ġwebsite":6461,"Ġcompanies":6462,"Ġcoordinate":6463,"_ind":6464,"urance":6465,"ĠSpec":6466,".pop":6467,"Ġalign":6468,"ĠResearch":6469,"Ġminute":6470,"ev":6471,"icip":6472,"450":6473,"ÑĢÐµ":6474,"Ġrat":6475,"Ġeast":6476,"Ġmg":6477,"ĠDon":6478,"umb":6479,"uzz":6480,"à¸":6481,".cont":6482,"fr":6483,"-',":6484,"_info":6485,"Ġ-*":6486,"Ġcoming":6487,"rench":6488,"State":6489,"Ġskin":6490,"\\|":6491,"andas":6492,"ĠBlack":6493,"Ġcommunication":6494,"PR":6495,"(name":6496,"Ġfish":6497,"ìĪĺ":6498,"Ġreject":6499,"Ġvalidation":6500,"Ġevaluation":6501,"Ġstated":6502,"ĠDerive":6503,"Ġband":6504,"dom":6505,"Ġperpendicular":6506,"dy":6507,"Ġâī¤":6508,"gn":6509,"ëł":6510,"Ġwoman":6511,"vere":6512,"ĠBoth":6513,"Ġcorrelation":6514,"Ġperimeter":6515,"Ġensures":6516,"Ġwid":6517,"åº¦":6518,"Ġtoken":6519,"é¡":6520,"è¿Ļ":6521,"TS":6522,"Ġyourself":6523,"ympt":6524,"Gener":6525,"ĠPR":6526,"Ġdivisible":6527,"ovember":6528,"åĲİ":6529,"Ġfather":6530,"Ġsold":6531,"ĠRE":6532,"}]":6533,"(F":6534,"Ġchanged":6535,"lam":6536,"Ġremoved":6537,"alysis":6538,"Ġbeaut":6539,"ĠTechn":6540,"{Q":6541,".assert":6542,"big":6543,"Ġstream":6544,"Ġrequirements":6545,"Ġcombinations":6546,"center":6547,"Ġproced":6548,"ĠMost":6549,"power":6550,".E":6551,"volume":6552,"Ġnoise":6553,"Ġrecommend":6554,"Ġ$):":6555,"iring":6556,"ĠYes":6557,"orean":6558,"Ġplanning":6559,"CM":6560,"rev":6561,"Ġpul":6562,"\\sigma":6563,"abol":6564,"(file":6565,"Ġconsumption":6566,"Ġcups":6567,".R":6568,"iber":6569,"Ġearn":6570,"Ġsufficient":6571,"ĠWhy":6572,"å·":6573,"ĠFore":6574,"ĠĊĊ":6575,"ui":6576,".info":6577,".simplify":6578,"lean":6579,"Ġduration":6580,"Ġchemical":6581,"åīį":6582,"edia":6583,"appy":6584,"Ġprove":6585,"opulation":6586,"Ġ#########":6587,"æĶ":6588,"=self":6589,"Ġpup":6590,"des":6591,"ara":6592,"Ġatm":6593,"Ġmonitor":6594,"defined":6595,"Ġconcern":6596,"}|":6597,"Ġdjango":6598,"lying":6599,"ĠBC":6600,"Ġcurrently":6601,"req":6602,"Ð°Ð»":6603,"Ġhor":6604,"ĠÂ£":6605,"Ġanswers":6606,"Â°C":6607,"Ġwest":6608,"čĊčĊčĊ":6609,"Te":6610,"ĠAugust":6611,"Ġhex":6612,"_log":6613,"_output":6614,"Image":6615,"well":6616,"_den":6617,"Ġtheoretical":6618,"Ġtrade":6619,"riculum":6620,"Number":6621,"Ġeg":6622,"field":6623,"Ġled":6624,"Ġqual":6625,"%,":6626,"Ġmixed":6627,"duction":6628,"_user":6629,"_samples":6630,"Ġmapping":6631,"Ġefficient":6632,"Ġbinomial":6633,"):ĊĊ":6634,"Ġworth":6635,"'}":6636,"enter":6637,"ERS":6638,"annels":6639,"open":6640,"Enter":6641,".txt":6642,"Ġcarbon":6643,"Ġdivided":6644,"enge":6645,"Cre":6646,"Ġborn":6647,"ĠSE":6648,"ĠPark":6649,"idge":6650,"rection":6651,"_divis":6652,"ĠBase":6653,"\"L":6654,"iers":6655,"Ġcorrectly":6656,"ĠTwo":6657,"Ġcache":6658,"ivation":6659,"Ø§":6660,"Ġsphere":6661,"ç¤º":6662,"onth":6663,"RU":6664,"à¦":6665,"Ġdigital":6666,"PM":6667,"Ġsong":6668,"Ġdivisor":6669,"Hel":6670,")/(":6671,"Ġprobabilities":6672,"365":6673,"'''":6674,"Ġdefine":6675,"Ġpool":6676,"Ġdepends":6677,"Ġ(Ċ":6678,"Ġeasily":6679,"number":6680,"ĠHer":6681,"Ġsuit":6682,"Ġbehavi":6683,"Ġlocated":6684,"issing":6685,"Ġfa":6686,"Ġ$=":6687,"Ġgoals":6688,"|----":6689,"(object":6690,"ĠNa":6691,"Ġcube":6692,"Ġ-------Ċ":6693,"cdots":6694,"ĠLoad":6695,"-time":6696,"++":6697,"but":6698,"Ġtoler":6699,"Ð¸Ñı":6700,"Ġcash":6701,"Ġresource":6702,"itud":6703,"_names":6704,"Ġcauses":6705,"ĠDevelopment":6706,"Ġstd":6707,"ĠProcess":6708,">>>":6709,"ĠFormula":6710,"(nums":6711,"Ġprices":6712,"Ġvar":6713,"iful":6714,"Ġlands":6715,"Ġprote":6716,"rew":6717,"Ġsche":6718,"2007":6719,"inner":6720,"Ġsend":6721,"Ġthread":6722,"uclide":6723,"overed":6724,"-B":6725,"Ġdot":6726,"ested":6727,"Ġnamed":6728,"-term":6729,"ĠRequ":6730,"Ġblank":6731,"model":6732,"umulative":6733,"radius":6734,"iques":6735,"ashington":6736,"(q":6737,"è§":6738,"_row":6739,"Ġcards":6740,"Ð¾Ðº":6741,"Ġalt":6742,"ĠOff":6743,"ç¨":6744,"ĠUser":6745,"ĠSeptember":6746,"Ġdecom":6747,"Ġmolar":6748,"Ġhelps":6749,"ien":6750,"-up":6751,"Ġwild":6752,"aker":6753,"gence":6754,"legend":6755,"Ġstyle":6756,"ocol":6757,"ĠBook":6758,"Ġeye":6759,"related":6760,"Ġoffset":6761,"Ġoffice":6762,"(df":6763,"åıĤ":6764,"_current":6765,"Ġod":6766,"run":6767,"odd":6768,"Ġhash":6769,"Ġsimplifies":6770,"older":6771,"Ġestablished":6772,"Ġpicture":6773,"Ġworked":6774,"ãģĻ":6775,"ateral":6776,"oded":6777,"ĠMaximum":6778,"Ġtool":6779,"Ġcompre":6780,"Ġkids":6781,"ĠÎĶ":6782,"ç»Ħ":6783,"Ġproviding":6784,"(row":6785,"Ġwide":6786,"Ġtypically":6787,"Ġhon":6788,"_expr":6789,"Ġcomplexity":6790,"rep":6791,"ĠPower":6792,"Ġsurvey":6793,"Ġbillion":6794,"cor":6795,"mitted":6796,"Ġchance":6797,"Ġconvers":6798,"Ġgrowing":6799,"iforn":6800,"Ġhyper":6801,"ycle":6802,"Ġrac":6803,"ocab":6804,"Ġimportance":6805,"Why":6806,"ê°Ģ":6807,"Ġexperiences":6808,"220":6809,"Ġbur":6810,"ĠCS":6811,"comp":6812,"Ġquickly":6813,"uilt":6814,"Ġìł":6815,"results":6816,"String":6817,"ĠDefault":6818,"ĠRoad":6819,"File":6820,"ĠPress":6821,"}^{-":6822,"ermed":6823,"non":6824,"(root":6825,"asc":6826,"Ġfreedom":6827,"atically":6828,"Ġintervals":6829,"igr":6830,"_Y":6831,"Ġ$).":6832,"Ġsympt":6833,"ĠDav":6834,"Ġspect":6835,"ĠOh":6836,"Ġelectron":6837,"frame":6838,"hent":6839,"Ġburn":6840,"uclidean":6841,"Ġkill":6842,"attery":6843,"Ġidx":6844,"vered":6845,"Ġconcer":6846,"Check":6847,"{min":6848,"ĠÑĩ":6849,"inf":6850,"ĠBro":6851,"emy":6852,"tk":6853,"Ġrelevant":6854,"ĠTree":6855,"ç½®":6856,"Î©":6857,"Ġrational":6858,"_acc":6859,"ĠÐ·":6860,"ĠBar":6861,"probability":6862,"Ġparty":6863,"Ġnuc":6864,"^-":6865,"imensional":6866,"Ġgcd":6867,"Ġexpressed":6868,"Ġkernel":6869,"agr":6870,"(V":6871,"Ġíķ":6872,"ography":6873,"player":6874,"only":6875,"ĠDecember":6876,"cient":6877,"Ġpolic":6878,"\\omega":6879,"Ġice":6880,"Ġsea":6881,"ĠOctober":6882,"ratic":6883,"Ġadvant":6884,"Ġbab":6885,"icate":6886,"ulf":6887,"Ġ[]ĊĊ":6888,"Ġmanufact":6889,"Ġstandards":6890,"Ġpatterns":6891,"Ġlogic":6892,"âĶ":6893,"oto":6894,"_squared":6895,"-point":6896,"Ġrho":6897,"âĢĻve":6898,"ĠMean":6899,"rick":6900,"ought":6901,"Inter":6902,"ĠOnly":6903,"ncy":6904,"ĠJapan":6905,"Ġspirit":6906,"éĿ":6907,"AND":6908,"ĠJesus":6909,"\"V":6910,"_km":6911,"vis":6912,"Ġprefer":6913,"appa":6914,"ĠWater":6915,"_start":6916,"Ġfigures":6917,"Ġgirls":6918,"ifying":6919,"Ġfinite":6920,"ĠCons":6921,"bi":6922,"Ġutil":6923,"ĠTypeError":6924,"rd":6925,"Ġpatients":6926,"\"Pro":6927,"Ġstrategies":6928,"\"The":6929,"Ġdoor":6930,"\"B":6931,"_order":6932,"ida":6933,"Ġacid":6934,"Ġcalls":6935,"]])Ċ":6936,"å¤§":6937,"ĠBritish":6938,"(arr":6939,"oting":6940,"Ġaw":6941,"2021":6942,"Ġbrought":6943,"TE":6944,"dr":6945,"Ġ........":6946,"Ġplayers":6947,"ĠCap":6948,"ĠNOT":6949,"imeters":6950,"Ġanimal":6951,"ĠProbability":6952,"Ġpeak":6953,"à¤¿":6954,"ĠMethod":6955,"Ġlengths":6956,"map":6957,"Ġpretty":6958,"My":6959,"Up":6960,"éĻ":6961,"Ġgave":6962,"Ġshared":6963,"Ġobj":6964,"MA":6965,"Ġrele":6966,"Ġmeasured":6967,"ĠAssoci":6968,"Ġlegal":6969,"ections":6970,"second":6971,"ĠImport":6972,"Ġgold":6973,"108":6974,"ells":6975,"acity":6976,"enses":6977,"Des":6978,"Ġpip":6979,"Ġhydro":6980,"iar":6981,"111":6982,"ĠPresident":6983,"dfrac":6984,"_change":6985,"month":6986,".B":6987,"required":6988,",'":6989,"oted":6990,"ĠAv":6991,"Ġjoin":6992,"Ġfinally":6993,"Ġreve":6994,"Ġcold":6995,"ifornia":6996,"ests":6997,"ĠOur":6998,"ircle":6999,"iately":7000,"Ġcancer":7001,"Ġprev":7002,"{i":7003,"ĠPost":7004,"Ġplease":7005,"_final":7006,".find":7007,"ste":7008,"_code":7009,"Ġrecords":7010,"Ġguid":7011,"Ġmilitary":7012,"Ġacqu":7013,"plete":7014,"_ad":7015,"ĠWrite":7016,"AME":7017,"ĠConfig":7018,"Ġchoices":7019,".ar":7020,"ĠRet":7021,"GB":7022,"ĠâĪļ":7023,"ibly":7024,"esh":7025,"IZ":7026,"Here":7027,"vention":7028,"_check":7029,"ĠĠĠĠĠĠĠĠĠĠĠĠĊ":7030,"Ġidentified":7031,"{mol":7032,"Ġsaying":7033,"ĠInternational":7034,"*.":7035,"rary":7036,"Ġconsecutive":7037,"men":7038,"ygen":7039,"Ġswe":7040,"Ġtraditional":7041,"Ġinstall":7042,"Ġdie":7043,"Ġexpert":7044,"_hours":7045,"ĠÂł":7046,"ivalence":7047,"inks":7048,"Ġheard":7049,".join":7050,"ĠÐ½Ð°":7051,"Reg":7052,"Ġparticipants":7053,"rtype":7054,"Ġspaces":7055,"ql":7056,"Ġrepl":7057,"Ġdecrease":7058,"_function":7059,"objects":7060,"Ġkinetic":7061,"Ġfinding":7062,"å¼ı":7063,"_integ":7064,"Ġ{}Ċ":7065,"**Ċ":7066,"lege":7067,".a":7068,"_all":7069,"Ġencoding":7070,"ech":7071,"Ġmovie":7072,"ico":7073,"ingu":7074,"ĠPM":7075,"Ġinstitution":7076,"ĠEven":7077,"ĠMus":7078,"ayers":7079,"Ġbenefit":7080,"Found":7081,"lict":7082,"agram":7083,"375":7084,"Ġhappen":7085,"irus":7086,"Ġvill":7087,"ĠCall":7088,"Ġanyone":7089,"aussian":7090,"Ġsouth":7091,"Ġlaws":7092,"Ġcyl":7093,"Ġcool":7094,"Ġslight":7095,"Ġcultural":7096,"char":7097,"############":7098,"=-":7099,"ĠService":7100,"ony":7101,"ĠIS":7102,"phas":7103,"Ġsquared":7104,"Ġrain":7105,"orge":7106,"hole":7107,"Ġseparate":7108,"Ġpsych":7109,"Ġdrink":7110,"Ġsuggests":7111,"api":7112,"-a":7113,"Ġâľ":7114,"works":7115,"adata":7116,"atetime":7117,"_fraction":7118,"Ġreci":7119,"Ġdeliver":7120,"taint":7121,"Ġfunc":7122,"Ġwonder":7123,"Ġharmon":7124,"Ġdiscriminant":7125,"Ġmut":7126,"Ġdemonstrates":7127,"Ġstored":7128,"Ġtend":7129,"Ġsoftware":7130,"email":7131,"lat":7132,"Ġhighly":7133,"Ġwat":7134,"Ġdeveloping":7135,"Ġassume":7136,"135":7137,"Ġur":7138,"ĳÎ":7139,"Ġreasons":7140,"Ġprofessional":7141,"_u":7142,"Ġwavelength":7143,"Ġattribute":7144,"ygon":7145,"Ġfriction":7146,"ĠNovember":7147,"/or":7148,"Ġexercise":7149,"pand":7150,"ĠDistance":7151,"week":7152,"RA":7153,"etric":7154,"-bit":7155,"Ġinterpretation":7156,"ĠManagement":7157,"Ġneighbor":7158,"Ġsom":7159,"itect":7160,"ador":7161,"Ġdiss":7162,"erscript":7163,"ĠÐ±":7164,"rig":7165,"Ġmaxim":7166,"osure":7167,"Ġapproaches":7168,"Ġselection":7169,"normal":7170,"Ġsubstitution":7171,"ëĵ":7172,"uce":7173,"(angle":7174,"rowth":7175,"Ġcredit":7176,"-th":7177,"Ġlogarithm":7178,"-A":7179,"User":7180,"Ġinfluence":7181,"Ġinj":7182,"ĠBas":7183,"Ġmagnetic":7184,"Ġinteresting":7185,"à¥ĩ":7186,"_amount":7187,"Ġsummer":7188,"Ġalternative":7189,"QL":7190,"Ġpaths":7191,"ä¾ĭ":7192,"Original":7193,".max":7194,"should":7195,"Ġpieces":7196,"(con":7197,".)ĊĊ":7198,"Ġpredicted":7199,"}%\")":7200,"]*":7201,"xx":7202,"-k":7203,"ĠMany":7204,"Ġbudget":7205,"Ġsubtract":7206,"Two":7207,"Ġtwice":7208,"Ġgravity":7209,"Ġeth":7210,"¦¬":7211,"arant":7212,"è¿Ľ":7213,"ĠLearning":7214,"Ġcore":7215,"ĠMod":7216,"Ġwire":7217,"'].":7218,"uits":7219,"**,":7220,"pective":7221,"Ġcaused":7222,")))Ċ":7223,",ĊĊ":7224,"erivative":7225,"Ġuns":7226,"Ġmatching":7227,"Ġpaid":7228,"Ġsymmetry":7229,"}}\\":7230,"possible":7231,"Ġresearc":7232,"location":7233,"999":7234,"Ġjoint":7235,"_func":7236,"nabla":7237,"_power":7238,".legend":7239,"Ġefforts":7240,"rition":7241,"Ġclock":7242,"ĠKe":7243,"Ġsupported":7244,"å¦Ĥ":7245,"static":7246,"(j":7247,"Ġ}Ċ":7248,".*":7249,"Ġfear":7250,"ĠmL":7251,":,.":7252,"Ġrepeated":7253,"Ġhear":7254,"Ġpal":7255,"ĉĉĉĉ":7256,"Ġsolar":7257,"roid":7258,"Ġhabit":7259,"ĠPo":7260,"Ġorganization":7261,"ĠHel":7262,"CL":7263,"ä½ľ":7264,"Ġassessment":7265,"Ġtag":7266,"Ġpublished":7267,"Ġdp":7268,"holds":7269,"ĠRev":7270,"Ġ\\),":7271,"Ġdiet":7272,"Ġ'.":7273,"**(":7274,"superscript":7275,"Ġrounded":7276,"reet":7277,"Ġgeneration":7278,"Ð¾Ð³ÑĢÐ°Ð¼Ð¼":7279,",-":7280,"Ð½ÑĭÐ¹":7281,"/p":7282,"Ġsignificantly":7283,"osen":7284,"_bar":7285,"Ġrap":7286,"pmod":7287,"Ġblocks":7288,"elihood":7289,"Ġcitiz":7290,"ermediate":7291,"-ta":7292,"_map":7293,"Ġrise":7294,"ĠRatio":7295,"ì§Ģ":7296,"Ġbelong":7297,")-":7298,"Ġassist":7299,"Ġimmediately":7300,"Ġgovern":7301,"ĠHuman":7302,"Ġscalar":7303,"ris":7304,"udents":7305,"Ġpurposes":7306,"Ġsites":7307,"ctors":7308,"ĠWashington":7309,"(math":7310,"osis":7311,"rops":7312,"ĠIns":7313,"ĠPerform":7314,"HT":7315,"mm":7316,"_left":7317,"rief":7318,"Ġda":7319,".value":7320,"ademic":7321,"enty":7322,"Ġpoll":7323,"Ġrequests":7324,"Ġready":7325,"oz":7326,"Ġliters":7327,"_le":7328,"ĠFebruary":7329,"SC":7330,"arse":7331,"ĠRiver":7332,"ĠChurch":7333,"ygame":7334,"ouble":7335,"Ġdrive":7336,"-like":7337,"ĠChristian":7338,"Ġillust":7339,"Ð¾Ð¹":7340,"ãģ«":7341,"(E":7342,"_force":7343,"utf":7344,"Ġapplications":7345,"Ġarrange":7346,"(ex":7347,"Ġtangent":7348,"ford":7349,"percentage":7350,".dot":7351,"Ġwarm":7352,".im":7353,"ĠÐ¿ÑĢ":7354,"_features":7355,")=":7356,"Ġcoding":7357,"omor":7358,"rawn":7359,"ĠChina":7360,"ĠChildren":7361,"Ġconfirm":7362,"Ġprefix":7363,"eed":7364,"Ġfunctional":7365,"Ġmount":7366,"Ã§Ã£o":7367,"Ġestimated":7368,"Ġsetup":7369,".strip":7370,"amily":7371,"_G":7372,"Ġcivil":7373,"Ġresponsible":7374,"ĠImage":7375,"ĠRate":7376,"_eq":7377,"Ġleaves":7378,"Ġolder":7379,"inity":7380,"%)Ċ":7381,"Of":7382,"ç¨ĭ":7383,"emplate":7384,"\\%$":7385,"Ġadults":7386,"ordinate":7387,"uous":7388,"Ġrespond":7389,"æīĢ":7390,"triangle":7391,"dir":7392,"èĢ":7393,"ĠCouncil":7394,"Ġplatform":7395,"Ġdifferential":7396,"itter":7397,"These":7398,"ä¸Ĭ":7399,"åİ":7400,"idend":7401,"ĠEuler":7402,"udent":7403,"Ġfelt":7404,"ĠIndex":7405,"Ġ________":7406,"Ġresist":7407,"OUR":7408,"umin":7409,"Ġcovered":7410,"Ġcolors":7411,"-zero":7412,"Ġprinciples":7413,"Ġsigns":7414,"_dist":7415,"ca":7416,"Ġfails":7417,"-----------":7418,"itions":7419,"arginal":7420,"Ġsymptoms":7421,"_end":7422,"istent":7423,",j":7424,"uracy":7425,"thag":7426,"ç¬¬":7427,"_base":7428,"ĠSan":7429,"Ġcomprehens":7430,"TER":7431,"Ġund":7432,"Ġprotection":7433,"Ġsaved":7434,"Ġstrict":7435,"struction":7436,"Ġearlier":7437,"Ġstorage":7438,"Ġhypothesis":7439,"210":7440,"lob":7441,"seconds":7442,"ĠStudents":7443,"Ġtables":7444,"decimal":7445,"Ġequipment":7446,".str":7447,"That":7448,"Ġhidden":7449,"Ġqueue":7450,"case":7451,"Ð»Ñı":7452,"åŃĺ":7453,"host":7454,"Ġalthough":7455,"Ġliqu":7456,"Ġoverl":7457,"äºĨ":7458,"ĠOf":7459,"Ġoun":7460,"Ġbon":7461,"Ġoccurred":7462,"åı¯ä»¥":7463,"Ġbackground":7464,"state":7465,"_position":7466,"Ġexternal":7467,"ĠCalifornia":7468,"ç®Ĺ":7469,"Ġsynt":7470,"åŃĹç¬¦":7471,".val":7472,"Ġded":7473,"Ġplans":7474,"\"):Ċ":7475,"ellig":7476,"oday":7477,"Ġspent":7478,".norm":7479,"Ġtu":7480,"Ġobservations":7481,"èĥ½":7482,"However":7483,"ç´ł":7484,"Ġoperating":7485,"ĠEnvironment":7486,"ĠFunction":7487,"==========":7488,"ĠWhe":7489,"Ġmoved":7490,"ĠSimplify":7491,"FA":7492,"âĢĻll":7493,"ancing":7494,"Ġcircular":7495,"Output":7496,"_sp":7497,"color":7498,"KE":7499,"Ġintegr":7500,"\\int":7501,"standing":7502,"\\sum":7503,"Ġdemonstrate":7504,"Ġinvent":7505,"Ġstar":7506,"Ġsector":7507,"Ġbag":7508,"hline":7509,"Ġmob":7510,"Ġseek":7511,"Ġgarden":7512,"inn":7513,"ĠMary":7514,"Ġrecurrence":7515,"Ġgreatest":7516,"Ġmedic":7517,"Ġdivide":7518,"Ġcorner":7519,"urban":7520,"ĠAustral":7521,"Determine":7522,"_target":7523,"etween":7524,".models":7525,"Ġdistances":7526,"DP":7527,"Ġing":7528,"porting":7529,"ĠAre":7530,"Ĥ¬":7531,"Ġyouth":7532,"arian":7533,"ologies":7534,"_V":7535,"\\lambda":7536,"Ġproof":7537,"_var":7538,"numerator":7539,"ĠEns":7540,"ĠBuild":7541,"Ġtrust":7542,"Ġlimits":7543,"-C":7544,"Ġfib":7545,"Ġsugar":7546,"Ġruns":7547,"3000":7548,"Ġpartners":7549,"osing":7550,"Ġweather":7551,"-of":7552,"Ġmotor":7553,"Ġregist":7554,"ĠMake":7555,"oses":7556,"Ġgravitational":7557,"Ġboys":7558,"à¤¿à¤":7559,"aven":7560,"Ġresistor":7561,"hips":7562,"-L":7563,"uity":7564,"match":7565,"Ð³ÑĢÐ°Ð¼Ð¼":7566,"ĠAssume":7567,"umerical":7568,"Ġcreates":7569,"property":7570,"ercial":7571,"{w":7572,".db":7573,"Ġcollege":7574,"Index":7575,"atial":7576,"Ġpolicies":7577,"Ġminor":7578,"2024":7579,"Ġcalculations":7580,"Ġfailure":7581,"mi":7582,"Ġvirt":7583,"\\alpha":7584,"ctan":7585,"åĬł":7586,"115":7587,"Config":7588,"icity":7589,"Ġquotient":7590,"parent":7591,"ĠRuss":7592,"~~~~":7593,"Div":7594,"Ġrender":7595,"Ġupdated":7596,"real":7597,"ĠEnergy":7598,"iscriminant":7599,"rot":7600,"stances":7601,"ê¸°":7602,"Ġtopic":7603,"ourses":7604,".ax":7605,"}$)":7606,"Ġdetermin":7607,"caled":7608,"Ġexperiment":7609,"æľ¬":7610,"hu":7611,"ĠCommunity":7612,"ifferent":7613,"2002":7614,"ĠPaul":7615,"&=":7616,"MP":7617,"Ġderivatives":7618,"Ġpages":7619,"-order":7620,"mand":7621,"ĠGreen":7622,"Ġrepresented":7623,"ĠCode":7624,"Ġtransl":7625,"Ġcast":7626,"Ġserve":7627,"neg":7628,"Ġexpressions":7629,"Ġcontinued":7630,"ĠFY":7631,"Ð»Ð¸":7632,"Ġcouple":7633,"Ġult":7634,"ĠDjango":7635,"Ġmessages":7636,"ĠCD":7637,".index":7638,"112":7639,"Ġexchange":7640,"onal":7641,"Ġconflict":7642,"åıĤæķ°":7643,"ĠÐ³":7644,"Ġchurch":7645,"Ġagricult":7646,"ĠStart":7647,"{dy":7648,"æĸ¹æ³ķ":7649,"Ð°Ñģ":7650,"Ġpark":7651,"Ġrestrict":7652,"Ġenable":7653,"ĠEuropean":7654,"rum":7655,"oration":7656,"Ġsecret":7657,"Ġcommercial":7658,"_al":7659,".close":7660,"cluded":7661,"ĠPlease":7662,"Ob":7663,"pring":7664,"\"),":7665,"Ġsand":7666,"ĠFund":7667,"vin":7668,"Ġpygame":7669,"Ġflag":7670,"Ġinterview":7671,"initely":7672,"Īëĭ¤":7673,"urface":7674,"estamp":7675,"_right":7676,"åŀ":7677,"Ġgallons":7678,"_percentage":7679,"ĠSun":7680,"Id":7681,"_color":7682,"band":7683,"Ġdanger":7684,"Ġarrays":7685,"Ġsuccessfully":7686,"Sup":7687,"certaint":7688,"ĠPrice":7689,"Ġaccounts":7690,"Ġhappens":7691,"'),Ċ":7692,"ĠResult":7693,"ĠAnt":7694,"ights":7695,"}/{":7696,"âĢĻm":7697,"pet":7698,"Ġrounding":7699,"2003":7700,"Ġpractical":7701,"BA":7702,"MM":7703,")^{-":7704,"assword":7705,"Ġexecution":7706,"ìľ":7707,"ky":7708,"Ġturns":7709,"Ġchannel":7710,"Ġlooks":7711,"Ġscenario":7712,"gu":7713,"En":7714,"Ġunivers":7715,"Ġcategories":7716,"Ġpredictions":7717,"ĠIdent":7718,"la":7719,"Ġequality":7720,"Ġnotes":7721,"ä½į":7722,"ĠCollege":7723,"words":7724,"illed":7725,"wood":7726,"Ġtrip":7727,"isation":7728,"Ġtechniques":7729,"Ãº":7730,"ĠBi":7731,"Ġproportional":7732,"},Ċ":7733,"Ġintensity":7734,".subs":7735,"stract":7736,"ĠUN":7737,"Ġmatrices":7738,"Ġlayers":7739,"Ġnation":7740,".un":7741,".arg":7742,"amil":7743,"-intercept":7744,"ãĥ¼":7745,"Ġfresh":7746,"PV":7747,"Ġresolution":7748,"Ġviews":7749,"Ġcele":7750,".as":7751,"Ġadjacent":7752,"Ġsignificance":7753,"Ġassuming":7754,"poch":7755,"ĠMor":7756,"Ġcomments":7757,"Initial":7758,"_energy":7759,"Ġfaces":7760,"ĠVis":7761,"_inv":7762,"Ġreports":7763,"-de":7764,"rees":7765,"Ġbias":7766,"oup":7767,"ĠWeb":7768,"Ġeconomy":7769,"Ġshap":7770,"\")ĊĊĊ":7771,"Ġparse":7772,")$$Ċ":7773,"}\")ĊĊĊ":7774,"ÒĽ":7775,"Ġ##":7776,"æ¨":7777,"Ġconj":7778,"Ġ$\\{":7779,"_labels":7780,"102":7781,"emperature":7782,"025":7783,"Ġfaster":7784,"reek":7785,"CF":7786,"Ġple":7787,"ĠUnder":7788,"Ġfluid":7789,"\"W":7790,"ospital":7791,"005":7792,"Us":7793,"estic":7794,"Ġ===":7795,"iders":7796,".G":7797,"Ġtemper":7798,"Ġrevers":7799,"âĶĢ":7800,"thagorean":7801,"æĸĩä»¶":7802,"Ġlibrary":7803,"Ð¾Ð½":7804,"ĠFrench":7805,"ãģ¨":7806,"_array":7807,"Ġexperim":7808,"cover":7809,"´ë":7810,"}.":7811,"ycl":7812,"ĠNormal":7813,"ilateral":7814,"Verify":7815,"Ġcreation":7816,"phone":7817,"Ġformer":7818,"ĠBay":7819,"Ġpet":7820,"Ġclassification":7821,"Ġmajority":7822,"Ġalgebraic":7823,"elsius":7824,"reak":7825,"ya":7826,"ret":7827,"çŃ":7828,"Ġ$ĊĊ":7829,"Ġcov":7830,"Ġiteration":7831,"çł":7832,"$$=":7833,"lines":7834,"é¢":7835,"Ġdescribe":7836,"Ġturned":7837,"æłĩ":7838,"Co":7839,"_he":7840,"ride":7841,"---ĊĊ":7842,"pecific":7843,"Ġmorning":7844,"Ġell":7845,"ĠLand":7846,"Ġopin":7847,"2001":7848,"Ġdied":7849,"ĠSort":7850,"eler":7851,"Ġlearned":7852,"ney":7853,"Ġfine":7854,"Ġsklearn":7855,"ursor":7856,"Ġ*=":7857,"cohol":7858,"Ġweighted":7859,"atistic":7860,"Ġnearly":7861,"@example":7862,"phis":7863,"Ġpatient":7864,"arity":7865,"rim":7866,"Please":7867,"iance":7868,"å»":7869,"ĠAverage":7870,"Ġprediction":7871,"Ġmentioned":7872,"Ġobtained":7873,"2500":7874,"creen":7875,"Ġraised":7876,"Invalid":7877,"ĠTable":7878,"Ġlooked":7879,"åŀĭ":7880,"_group":7881,"Ġlb":7882,"Ġamplitude":7883,"^{(":7884,"Ġdelay":7885,"urrency":7886,"\\}$":7887,"ĠVolume":7888,"[k":7889,"åĿ":7890,"(__":7891,"ymmet":7892,"å°ı":7893,"Ġbrother":7894,"sl":7895,"ESS":7896,"_rec":7897,"Ġclearly":7898,"-P":7899,"enance":7900,"vice":7901,"Ġproperly":7902,"Ġ},Ċ":7903,"pons":7904,"Ġfruit":7905,")),":7906,"ĠSubstitute":7907,"orch":7908,"ita":7909,"Ġmiss":7910,"ĠWhite":7911,"åĮĸ":7912,"ÐºÐ¸Ð»":7913,"ATH":7914,"ographic":7915,"ulas":7916,"Ġcompl":7917,"acci":7918,"Date":7919,"Ġcans":7920,"ondon":7921,"Ġsentence":7922,"Ġë°":7923,"_vert":7924,"onom":7925,"ayment":7926,"_dt":7927,"Ġregions":7928,"åıĺ":7929,"stream":7930,"ki":7931,"'))Ċ":7932,"ĠAM":7933,"Both":7934,"utral":7935,"Ġeigenvalues":7936,"Ġfractional":7937,"ĠGovernment":7938,"Ġrace":7939,"ĠAut":7940,"Ġexcess":7941,"_kg":7942,"TTP":7943,".integ":7944,"Ġmaybe":7945,"raz":7946,"éĹ´":7947,"Ġweak":7948,"speed":7949,"è¾ĵåħ¥":7950,"Ġsequences":7951,"Ġglass":7952,"Valid":7953,"ishes":7954,"Ġarm":7955,"Example":7956,"ĠPeople":7957,"Add":7958,"ĠSal":7959,"itudes":7960,"ĠElect":7961,"Ġplaying":7962,"%)":7963,"Ġstick":7964,"Ġrecently":7965,"_table":7966,"inese":7967,"erver":7968,"ìĬ¤":7969,"ĠExamples":7970,"Ġdivers":7971,"(in":7972,"OH":7973,"Ġnn":7974,"Ġfoods":7975,"Ġorient":7976,"Ġdom":7977,"Any":7978,"Ġfloating":7979,"eds":7980,"æ¬":7981,"Ġer":7982,"ĠEvery":7983,"_len":7984,"Ġknew":7985,"Ġestablish":7986,"isplay":7987,"ç»ĵ":7988,"/A":7989,"Ġconstants":7990,"Ġring":7991,"NotFound":7992,"Ġtriangles":7993,"`Ċ":7994,"ota":7995,"Ġstories":7996,"Ġradio":7997,"Ġcollabor":7998,"posal":7999,"Ġcurriculum":8000,"attern":8001,"Ġbott":8002,"iny":8003,"oking":8004,"Ġfacilities":8005,"eles":8006,"Ġcomplement":8007,"reshape":8008,"high":8009,"Ġ[]":8010,"Ġmph":8011,"Ġhistorical":8012,").\"\"\"Ċ":8013,"_ent":8014,"ĠSocial":8015,"Ġkept":8016,"{array":8017,"username":8018,"ĠOper":8019,"CR":8020,"gener":8021,"END":8022,"CharField":8023,"ffective":8024,"ĠDistrict":8025,"remove":8026,"deed":8027,"],[":8028,"ĠRs":8029,"Ġeight":8030,"ĠEvaluate":8031,"alled":8032,"ĠInst":8033,"Ġvote":8034,"Ġdividing":8035,"Ġabsor":8036,"Table":8037,"bert":8038,"anned":8039,"çº":8040,"Ġbuff":8041,"Ġguide":8042,"å§":8043,"onacci":8044,"ĠAfrica":8045,"{if":8046,"2022":8047,"=f":8048,"ÑģÑı":8049,"Ġelev":8050,"_hat":8051,"iable":8052,"argets":8053,"ĠEngine":8054,"ĠFood":8055,"ĠPort":8056,"Ġcollections":8057,"Ġsitu":8058,"ĠBecause":8059,"ĠReport":8060,"Ġdespite":8061,"Ġexplan":8062,"Ġsurpr":8063,"{I":8064,"Ð¸Ð¼":8065,"ĠAir":8066,"ĠGood":8067,"Ġpolice":8068,"ĠCase":8069,"Ġfemale":8070,"Ġshad":8071,"Âłthe":8072,"aling":8073,"Ġriver":8074,"Ġshoot":8075,"isms":8076,"Ġdownload":8077,"Ł¥":8078,"ĠJSON":8079,".count":8080,"Ġresidual":8081,"ĠâĤ¹":8082,"Ġperiods":8083,"Ġconvergence":8084,"_arg":8085,"(text":8086,"zeta":8087,"Response":8088,"1024":8089,"Ġsatisfying":8090,".time":8091,"irror":8092,"Ġminimal":8093,"(G":8094,"ka":8095,"Ed":8096,"Ġchallenges":8097,")(-":8098,"Ġperhaps":8099,"Ġemployees":8100,",s":8101,"Ġconsists":8102,"denominator":8103,"itivity":8104,"Ġfunding":8105,"justed":8106,"project":8107,"Ġodds":8108,"ĠCong":8109,"ĠSec":8110,"Ġentries":8111,"ĠMultiply":8112,"Ġadopt":8113,"ett":8114,"Ġsmooth":8115,".CharField":8116,"_detail":8117,"Ġrespectively":8118,"elines":8119,"_days":8120,"Starting":8121,"title":8122,"Ġfeeling":8123,"Ġminimize":8124,"last":8125,"æµ":8126,"Ġisol":8127,"that":8128,"positive":8129,"ingle":8130,"ads":8131,"Ġpresented":8132,"ometers":8133,"Ġcities":8134,"eting":8135,".integrate":8136,"åŃĲ":8137,"Ġactivation":8138,"Ġiterations":8139,"Ġstatistics":8140,"/min":8141,"Ġclassroom":8142,"esian":8143,"ĠAL":8144,"Ġtolerance":8145,"Ġreplace":8146,"Ġ\".":8147,"othing":8148,"odies":8149,"obs":8150,"Ġcustomers":8151,"Ġiniti":8152,"ÐŁ":8153,"rior":8154,"(Y":8155,"Ġvoice":8156,"Â°Ċ":8157,"Ġperformed":8158,"ba":8159,"IA":8160,"Ġinterface":8161,"ART":8162,"Ġinstruction":8163,"Ġ'__":8164,"Ġattributes":8165,"Ġsatisfied":8166,"Ġtalking":8167,"cean":8168,"Ġvic":8169,"_reg":8170,"Ġtail":8171,"alls":8172,"ĠProblem":8173,".v":8174,"OG":8175,"Ġstatistic":8176,"Ġbounds":8177,"Ġzeros":8178,"check":8179,"gin":8180,"ĠOpen":8181,".cl":8182,":\\":8183,"Ġmale":8184,"##Ċ":8185,"Ġreligious":8186,"Ġsupports":8187,"ķÎ":8188,"Ġparticle":8189,"Ġcrit":8190,"FT":8191,"Ġpeace":8192,"cious":8193,"âī":8194,"Ġbond":8195,"ture":8196,"ĠWell":8197,"atever":8198,"Ġequivalence":8199,"-dimensional":8200,"subset":8201,"rote":8202,"Ġlinestyle":8203,".k":8204,"Ġanti":8205,"Ġmilk":8206,"Ġblog":8207,"280":8208,"NotFoundError":8209,"ĠTH":8210,"Ġmultiplying":8211,"Ġquarter":8212,"Ġoffers":8213,"Ġchanging":8214,"amm":8215,"ael":8216,"_label":8217,".values":8218,"elif":8219,"\\rangle":8220,".save":8221,"Ġnor":8222,",čĊ":8223,"ĠEv":8224,"ILE":8225,"ĠPhil":8226,"ìĭ":8227,"ĠInstitute":8228,"post":8229,"dim":8230,"_head":8231,"ĠCalcul":8232,"ĠConstants":8233,"!}":8234,"fol":8235,"adict":8236,"{Area":8237,"Ġhappened":8238,"ercentage":8239,"Ġatmosp":8240,"{z":8241,"175":8242,"Ġrequirement":8243,"_no":8244,"igned":8245,"Ġcourt":8246,"Ġ|\\":8247,"Ġexhib":8248,"prime":8249,"cher":8250,"Ġconsistency":8251,"Ġindicating":8252,"âĤģ":8253,"?\"":8254,"Ġonto":8255,"ãģĹ":8256,"ogram":8257,"Ġdecided":8258,"Ġharm":8259,"aled":8260,"Ġmanage":8261,"Ġdistributed":8262,"Ġln":8263,"*t":8264,"\\).":8265,"Min":8266,"nel":8267,"127":8268,"letter":8269,"Ġdiagn":8270,"Ġreached":8271,"lig":8272,"Ġ'-":8273,"atted":8274,"ĠAlthough":8275,"Ġordered":8276,"percent":8277,"}}(":8278,"ĉprint":8279,"itness":8280,"Ġflat":8281,"-form":8282,"house":8283,"Ġmaps":8284,"ĠNon":8285,"Ġforeign":8286,"216":8287,"ãĢĤĊĊ":8288,"Ġdevices":8289,"æİ¥":8290,"step":8291,"asion":8292,"Ġbutton":8293,"Ġfaith":8294,"icense":8295,"ĠĠĠĠčĊ":8296,"Ġpandas":8297,"parse":8298,"Ġna":8299,"...\")Ċ":8300,"rian":8301,"ĠÎ¸":8302,"Ġdiscussion":8303,":-":8304,"())ĊĊ":8305,"Ġtons":8306,"Rear":8307,"_on":8308,"ava":8309,"Ġcharacteristic":8310,"_an":8311,"tons":8312,"iant":8313,"ãģ§":8314,"Ġbuck":8315,"ĠMinimum":8316,"ìĦľ":8317,"care":8318,"irections":8319,"Ġpresident":8320,"_ft":8321,"Ġ\")Ċ":8322,"ipedia":8323,"å»º":8324,"Ġvisited":8325,"Ġparser":8326,"Ġplanet":8327,"Ġwasn":8328,"Ġends":8329,"è±":8330,"erves":8331,"ĠDel":8332,"Ġdebt":8333,"Ġrare":8334,"Ġstructures":8335,"Ġcustomer":8336,"hand":8337,"They":8338,"-level":8339,"iÃ³n":8340,"Ġstrugg":8341,"ĠLat":8342,"Ġunknown":8343,"Ġintercept":8344,"Ġ]Ċ":8345,"unctions":8346,"porary":8347,"semb":8348,"Ġvalidate":8349,".lower":8350,"(new":8351,"Ġwants":8352,"ÐµÐ½Ð¸Ðµ":8353,"ĠUpdate":8354,"Ġreality":8355,"Ġcars":8356,"Ġrectangular":8357,"çłģ":8358,"_velocity":8359,"ĠAssociation":8360,"Ġfix":8361,"Ġinvestig":8362,"Ġmol":8363,"ĠBal":8364,"iveness":8365,"pers":8366,".arange":8367,"bug":8368,"Ġmeasurement":8369,"æĢ§":8370,"nn":8371,"Ġoz":8372,"/C":8373,"Ġcontrad":8374,"days":8375,")}\")Ċ":8376,"ĠCanada":8377,"éĽ":8378,"ĠFound":8379,"Ġinstructions":8380,"(key":8381,"_level":8382,"ĠDuring":8383,"_profit":8384,"-se":8385,"mt":8386,"Ġtrace":8387,"Ġboy":8388,"Ġpun":8389,"ffffffff":8390,"Ġ',":8391,"Ġrapid":8392,"Ð¾Ð»ÑĮ":8393,"Ġjobs":8394,"final":8395,"\"],":8396,"Ġinfinite":8397,"ĠUK":8398,"DA":8399,"Ġpresence":8400,"_coeff":8401,"Ġtemplate":8402,"åĲĪ":8403,"Ġthr":8404,"Ġxy":8405,"ĠPythagorean":8406,"Ġaccurate":8407,"Ġfilled":8408,"ĠIP":8409,"Ġhousing":8410,"ĠSafety":8411,"Ġê²":8412,"orpor":8413,"Ġeasier":8414,"Ġrelease":8415,"olic":8416,"Def":8417,"pg":8418,"ĠPal":8419,"Ġinterpol":8420,"è®¡":8421,"Ġgender":8422,"Ġounces":8423,"Dr":8424,"_W":8425,"life":8426,"->":8427,"Ġtan":8428,"Ġdim":8429,"Ġâľĵ":8430,"Ä±":8431,"ructure":8432,"orrow":8433,"win":8434,"Ġregarding":8435,".abs":8436,"Net":8437,"oard":8438,"ĠMich":8439,"Ġobvious":8440,"Ġschedu":8441,"Ġdecisions":8442,"Ġbelief":8443,"QU":8444,"ĠAfrican":8445,"Text":8446,"](":8447,"ĠTO":8448,"ãģĦ":8449,"Ġnormalized":8450,"ldots":8451,"atches":8452,"Ġbright":8453,"Ġreleased":8454,"ìĸ":8455,"ura":8456,"iki":8457,"std":8458,"=t":8459,"^{-\\":8460,"Ġstuff":8461,"holder":8462,"_iter":8463,"-negative":8464,"Requ":8465,"Ġthickness":8466,"Where":8467,"Ġproposed":8468,".âĢĿĊ":8469,"Ġsecondary":8470,"Ġton":8471,"unday":8472,"Ġexception":8473,".copy":8474,"Ġfederal":8475,"ĠDisplay":8476,"Ġped":8477,"ĠSy":8478,"çĲ":8479,"enominator":8480,"PP":8481,"_approx":8482,"zen":8483,"uns":8484,"Ġinterested":8485,"Ġvehicle":8486,"Ġdesired":8487,"ŁÎ":8488,"edges":8489,"Ġimpossible":8490,"Ġliquid":8491,"Ġadvantage":8492,"ĠBel":8493,"_direct":8494,"Ġeating":8495,"berg":8496,"Ġinterior":8497,"_factors":8498,"Ġ::":8499,"Ġapplying":8500,"Ġextremely":8501,"certainty":8502,"-H":8503,"Ġpoly":8504,"////":8505,"Ġpassing":8506,"Ġcart":8507,"employ":8508,"Ġintended":8509,"Ġyards":8510,"ĠTheir":8511,"ĠHaw":8512,"Ġunless":8513,"Ġemphas":8514,"Ġshowed":8515,"this":8516,"Read":8517,"ague":8518,"Ġpixels":8519,"ĠĠĠĠĠĠĠĠčĊ":8520,"abc":8521,"Ġconverted":8522,"cost":8523,"ĠStudent":8524,"Ġobtain":8525,"Path":8526,"iced":8527,"igration":8528,"ago":8529,"ä»£":8530,"ĠLeft":8531,"Ġdrawn":8532,"Ġmathematically":8533,"antic":8534,"Ġ=>":8535,"Ġhighlight":8536,"Next":8537,"Ġ:Ċ":8538,"db":8539,")+":8540,"Ġprepar":8541,"iscount":8542,".objects":8543,"Ġinvolve":8544,"otion":8545,"íķľ":8546,"orders":8547,"è¿ĩ":8548,"Ġsymmetric":8549,"Ġdistrict":8550,"omas":8551,"Ġhypotenuse":8552,"rase":8553,"utor":8554,"Ġdecreases":8555,"Gr":8556,"Ġrecursive":8557,"EX":8558,"èĬ":8559,"vals":8560,"Ġtherm":8561,"ĠEuclidean":8562,"Ġpurchase":8563,"192":8564,"Ġ-*-":8565,"159":8566,"Ġcandidate":8567,"åħĥç´ł":8568,"lop":8569,"_shape":8570,"=s":8571,"stack":8572,"Ġguarant":8573,"cill":8574,"Ġvan":8575,"Ġapproximate":8576,"Ġhappy":8577,"ĠGreat":8578,"ĠCentral":8579,"\\t":8580,"ints":8581,"Ġreduces":8582,"Ġleaving":8583,"try":8584,"ĠArch":8585,"]))Ċ":8586,"yset":8587,"ÑĢÑĥ":8588,"_indices":8589,".sort":8590,"Ġdecay":8591,")']":8592,"ĠJames":8593,"Ġextension":8594,"(test":8595,"104":8596,"ville":8597,"_seconds":8598,"Ġaffected":8599,"ĠMa":8600,"è±¡":8601,"ĠCH":8602,"ä¸²":8603,"Ġdriver":8604,"Ġboxes":8605,"/t":8606,"åĻ":8607,"Ġ[],":8608,"Ġcomposition":8609,"AA":8610,"Ġmo":8611,".text":8612,"Ġtouch":8613,"bsp":8614,"asets":8615,"Ġembed":8616,"Sim":8617,"car":8618,"ĠHistory":8619,"Ġsums":8620,"æĸ°":8621,"han":8622,"ativity":8623,"CS":8624,"Ġexit":8625,"Ġplus":8626,"outube":8627,"ĠConf":8628,"Ġbattery":8629,"ĠRich":8630,"OU":8631,"Ġdrawing":8632,".head":8633,"jective":8634,"Ġadjusted":8635,"Your":8636,"Ġexplore":8637,".size":8638,"icon":8639,"ĠMiss":8640,"-con":8641,"Ġemb":8642,"/b":8643,"Fe":8644,"eal":8645,"Ġmodified":8646,"inding":8647,"Ġoffic":8648,"Ġorganizations":8649,"(path":8650,"efficients":8651,"(current":8652,"Ġtorque":8653,"riage":8654,".all":8655,"Rounded":8656,"Ġinvolves":8657,"Ġprofile":8658,"Ġattend":8659,"Ġtried":8660,",t":8661,"Ġserial":8662,"åĪĹè¡¨":8663,".čĊčĊ":8664,"Ġoxygen":8665,"Ġwrote":8666,"icated":8667,"ĠFin":8668,"============":8669,"ĠHttp":8670,"Equal":8671,"ulner":8672,"unte":8673,"Ġplayed":8674,"Ġthousands":8675,"Ġshop":8676,"âĶĢâĶĢ":8677,"/cm":8678,"Ġpull":8679,"metadict":8680,"ĠSmith":8681,"Ġimplemented":8682,"Ġtraffic":8683,"reed":8684,"Ġpure":8685,"_di":8686,"Ġmort":8687,"å°Ĩ":8688,"Use":8689,"Ġnom":8690,"prove":8691,"ĠString":8692,"ÐµÐ´":8693,"ĠCON":8694,"orthern":8695,"antity":8696,",x":8697,"}^\\":8698,"Ġaxes":8699,"ĠCommission":8700,"straint":8701,"iverse":8702,"æĭ":8703,"Ġfrequencies":8704,"Ġseven":8705,"Ġchosen":8706,"_true":8707,"ĠChild":8708,"Ġstatist":8709,"ĠDataFrame":8710,"170":8711,"(word":8712,".;":8713,".solve":8714,"ums":8715,"Ġsampling":8716,"Ġrecon":8717,"ĠBen":8718,"Ġexceeds":8719,"QR":8720,"wide":8721,"_op":8722,"ls":8723,"Ġwife":8724,"oints":8725,"Ġchallenge":8726,"Ġprotein":8727,"Ġframework":8728,"Ġcitizens":8729,"Ġproceed":8730,"ÐµÑģ":8731,"Ġwinter":8732,"\\cdot":8733,"Ġenemy":8734,"Ġpowerful":8735,"afe":8736,"ĠDavid":8737,"Ġcumulative":8738,"[List":8739,"Ġreducing":8740,"Ġintermediate":8741,"bt":8742,"_terms":8743,"--',":8744,"Ġmistake":8745,"erse":8746,"Ġmyself":8747,"Ġindicate":8748,"Ġcircumference":8749,"endar":8750,"_tr":8751,"Ġpowers":8752,"Ġasympt":8753,"Ġteach":8754,"Ġleads":8755,"Ġexponents":8756,"outhern":8757,"NN":8758,"Ġurban":8759,"itance":8760,"nection":8761,"_dx":8762,"Ġstatements":8763,"Ġconcepts":8764,"ULT":8765,"Ġschem":8766,"Part":8767,"oma":8768,"Ġtypical":8769,"512":8770,"Link":8771,"320":8772,"Ġclick":8773,"option":8774,",n":8775,"ĠServices":8776,"Ġsess":8777,"Ġhair":8778,"æ¨¡":8779,"Ġcomfort":8780,"ignal":8781,"_avg":8782,"ĠVol":8783,"usiness":8784,"åĻ¨":8785,"Ġpolygon":8786,"posit":8787,"ìŀĲ":8788,"Ġlose":8789,"Ġwinning":8790,"(cl":8791,"|^":8792,"usr":8793,".exit":8794,"éĶ":8795,"ainder":8796,"Ġaren":8797,"cribe":8798,"fill":8799,"Ġformal":8800,"Ġcorrection":8801,"clusive":8802,"å¿":8803,"æĬ":8804,"aughter":8805,"show":8806,"Ġdut":8807,"Ġcomputing":8808,"_red":8809,"ĠOR":8810,"ĠDC":8811,"Do":8812,"Ġgro":8813,"Ġvary":8814,"_over":8815,"_probability":8816,"amps":8817,"verty":8818,"Ġoutputs":8819,"%.":8820,"'],Ċ":8821,"While":8822,"Ġmission":8823,"ĠPat":8824,"ĠEconom":8825,"elcome":8826,"Ġdestroy":8827,"DS":8828,"Man":8829,"3333":8830,"$\\":8831,"å®ŀ":8832,"ĠLondon":8833,"ĠNum":8834,"(de":8835,"Ġtour":8836,"cope":8837,"arp":8838,"uts":8839,"Ġresponsibility":8840,"Ġsch":8841,"ä¼ļ":8842,"ĠEnd":8843,"Ġapparent":8844,"Ġiron":8845,"sequence":8846,"ĠWhich":8847,"Ġlock":8848,"ĠJewish":8849,"\"))Ċ":8850,"Ġsolving":8851,"Get":8852,"Ġsell":8853,"write":8854,"ĠChinese":8855,"indows":8856,"ĠMax":8857,"_words":8858,"720":8859,"Ġnotice":8860,"long":8861,"ĠLong":8862,"Ġpor":8863,"Ġusername":8864,"ĠInformation":8865,"Ġmaster":8866,"Ġhuge":8867,"imation":8868,"Ġspend":8869,"ĠAccording":8870,"ĠCommit":8871,"æ¬¡":8872,"ials":8873,"{j":8874,"Ġconclusion":8875,"Ġacademic":8876,"etal":8877,"Ġlinked":8878,"Ġlas":8879,"[(":8880,"ĠRuntime":8881,"GR":8882,"View":8883,"Ġrich":8884,".run":8885,"OK":8886,"Ġoutcome":8887,"Ġpromote":8888,"):\",":8889,"Ġgrand":8890,"Ġobjective":8891,"eless":8892,"Ġplate":8893,"éĿ¢":8894,"Ġslightly":8895,"igm":8896,"Ġcarried":8897,"Ġavg":8898,"According":8899,"\\):":8900,"Ġapplies":8901,"---------------":8902,"Ġinnov":8903,"ĠNode":8904,"Model":8905,"Ġformulas":8906,"{\"":8907,"ĠGrad":8908,"ĠProf":8909,"alty":8910,"(img":8911,"ÎĳÎ":8912,"ĠPosition":8913,"{Hz":8914,"Ġcamera":8915,"Ġpolar":8916,"Ġ$(-":8917,"ifts":8918,"Ġinfo":8919,"Ġlowest":8920,"Ġswitch":8921,"you":8922,"è·":8923,"Ġpadding":8924,"Ġprem":8925,"Ġobservation":8926,"Ġanalyze":8927,"Ġmarried":8928,"#!":8929,"ini":8930,"Ġrecommended":8931,"[T":8932,"ĠSen":8933,"_star":8934,"-R":8935,"ying":8936,"Ġouter":8937,"_cap":8938,"Ġowners":8939,"Ġturtle":8940,"ĠPhys":8941,"olutions":8942,"ordinates":8943,"peak":8944,"oves":8945,"/x":8946,"plane":8947,"ĠGeorge":8948,"Bl":8949,"Ġextended":8950,"Ġlinks":8951,"Î±":8952,"_norm":8953,"except":8954,"ĠOffice":8955,"å§ĭ":8956,"ĠPercentage":8957,",z":8958,"ĠMem":8959,"Ġattract":8960,"Ġpackage":8961,"va":8962,"'''ĊĊ":8963,"\"Failed":8964,"æı":8965,"Ġcycl":8966,"ĠMulti":8967,"ĠChange":8968,"itz":8969,"ĠProduct":8970,"Ġdriving":8971,"Ġconcerns":8972,"ailing":8973,"åĲĮ":8974,"ban":8975,"1999":8976,"/bin":8977,"Ġparams":8978,"Ġadjustment":8979,"info":8980,"uries":8981,"ourney":8982,"ĠAR":8983,"ĠRepublic":8984,"(lambda":8985,"Ġviolence":8986,"Ġbranch":8987,"Some":8988,"ĠCare":8989,"Ġfourth":8990,"Ġappoint":8991,"Ġprepared":8992,"Ġcriteria":8993,"Ġcrop":8994,"Ġrhs":8995,"Ġhumans":8996,"Ġlie":8997,"ĠHT":8998,"how":8999,"Ġchart":9000,".load":9001,"ogene":9002,"Ġbirds":9003,"ĠLeg":9004,"ĠPerson":9005,"Ġshell":9006,"_given":9007,"Ġheavy":9008,"Ġkeeping":9009,"*:":9010,"ĠTop":9011,"isons":9012,"Ġdoctor":9013,"Ġobser":9014,"dependence":9015,"CTION":9016,"annual":9017,"anguages":9018,"ĠAnnual":9019,"Ġopt":9020,"pload":9021,"oplus":9022,"imension":9023,"Ġduplic":9024,"-co":9025,"Can":9026,"/g":9027,"[t":9028,"ĠUses":9029,"ras":9030,"repr":9031,"ĠSociety":9032,"åĽ¾":9033,"Ġwww":9034,"142":9035,"ëĭĪëĭ¤":9036,"fract":9037,"ĠDictionary":9038,"Ġsubset":9039,"ĠTensor":9040,"ĠLord":9041,"çĲĨ":9042,"ĠABC":9043,"Ġpixel":9044,"Ġflood":9045,"Ġweap":9046,"å°±":9047,"273":9048,"Hand":9049,"Ġgap":9050,"ĠExact":9051,"weights":9052,"imated":9053,"Ġshot":9054,".last":9055,"Evaluate":9056,"draw":9057,"even":9058,"230":9059,"INE":9060,"Ġscaled":9061,"hetic":9062,"rastructure":9063,"Ġcampaign":9064,"loop":9065,"-x":9066,"Ġshares":9067,"query":9068,"Ġdepending":9069,"Ġsegments":9070,"_first":9071,"tail":9072,".csv":9073,"_stat":9074,"Ġsavings":9075,"Ġincorpor":9076,"Ġarchitect":9077,"atabase":9078,"Ġhop":9079,"Calcul":9080,"_one":9081,"Ġportion":9082,"Ġcircles":9083,"Ġconducted":9084,"Ġbaby":9085,"Ġcoast":9086,"Ġresearchers":9087,"td":9088,"Ġwish":9089,"{rad":9090,"uced":9091,"æĿ¥":9092,"Wait":9093,"riend":9094,"Ġsizes":9095,"Ġepoch":9096,"Ġmanner":9097,"ĠWilliam":9098,"ĠProt":9099,"Ġserved":9100,"Ġhouseholds":9101,"exas":9102,"EP":9103,"éģ":9104,"cell":9105,"Ġmedium":9106,"Ġprecise":9107,"ÐµÐº":9108,"à¥Ģ":9109,"ados":9110,"ĠIsra":9111,"_numbers":9112,"Ġresponses":9113,"WS":9114,"herical":9115,"ando":9116,"ĠReview":9117,"Ġcolon":9118,"ĠControl":9119,")\"\"\"Ċ":9120,"ĠEngland":9121,"ato":9122,"ibilities":9123,".O":9124,"(image":9125,"168":9126,"(node":9127,"Ġtreated":9128,"alytical":9129,"_decimal":9130,"aria":9131,"ç©":9132,"270":9133,"ria":9134,"_trans":9135,"Author":9136,"enu":9137,"ALL":9138,"Ġtal":9139,"_temp":9140,"Ġmetal":9141,"Ġking":9142,"]),":9143,"Go":9144,")$Ċ":9145,"Ġasking":9146,"Ġratios":9147,"Ġharmonic":9148,"ĠTV":9149,"riz":9150,"illing":9151,"Ġlatitude":9152,"ancis":9153,"ĠVert":9154,"Ġrelatively":9155,"Ġdecomposition":9156,"Ġsustainable":9157,"ĠGoogle":9158,"Ġchi":9159,"\"I":9160,"_load":9161,"æĦ":9162,"Ġvision":9163,"æĮĩ":9164,"aneous":9165,"Ġris":9166,"Ġcollected":9167,"ĠNewton":9168,"ĠLife":9169,"Ġlon":9170,"ocation":9171,"Ġretrie":9172,"-line":9173,"apers":9174,"-day":9175,".float":9176,"Ġloan":9177,"Ġgrant":9178,"ĠCorrect":9179,"Ref":9180,"ette":9181,"gment":9182,"èĬĤ":9183,"si":9184,"-digit":9185,"pare":9186,"ĠWil":9187,"Ġuna":9188,"_word":9189,"Py":9190,"VER":9191,"ithms":9192,"_minutes":9193,"ĠdB":9194,"cipl":9195,"Result":9196,"ĠMathemat":9197,"ĠIII":9198,"Ġeffectively":9199,"Ġscr":9200,"including":9201,"Rec":9202,"ston":9203,"itan":9204,"Ġec":9205,"Ġsimulation":9206,"ĠExt":9207,"è´":9208,"Ġmetrics":9209,"price":9210,"121":9211,"Ġconsult":9212,"mation":9213,"Ġcareer":9214,"phism":9215,"Option":9216,"ialog":9217,"103":9218,"Ġexposure":9219,"Ġyellow":9220,"redicted":9221,"Ġimproved":9222,"ĠStreet":9223,"ĠEnsure":9224,"Ġsevere":9225,"(start":9226,"Log":9227,"RI":9228,"Ġselling":9229,"]ĊĊĊ":9230,"aked":9231,"Ġfirm":9232,"unic":9233,"^+":9234,"Ġimprovement":9235,"\"],Ċ":9236,"TC":9237,"Ġlogical":9238,"ĠTw":9239,"_dev":9240,"cribed":9241,"child":9242,"Ġspot":9243,"bined":9244,"Ġappreci":9245,"0001":9246,"ĠJournal":9247,"åı·":9248,"Ġlocations":9249,"}\"Ċ":9250,"Ġsemi":9251,"ĠRow":9252,"ĠSample":9253,"Ġdetect":9254,"Ġpupils":9255,"(alpha":9256,"480":9257,"dist":9258,"ourier":9259,"Ġalcohol":9260,"ĠLength":9261,"Ġintegrand":9262,"ÐµÑģÑĤ":9263,"green":9264,"ĠWord":9265,"circle":9266,"çĶŁ":9267,"åĨħ":9268,"bor":9269,"ĠDet":9270,"kappa":9271,"umps":9272,"ceived":9273,".update":9274,"atan":9275,"acts":9276,"ĠOnce":9277,"(filename":9278,"Ġderivation":9279,"Ġorb":9280,"ridge":9281,"_counts":9282,"Ġaspects":9283,"pa":9284,"Ġcontrast":9285,"actorial":9286,"Ġrh":9287,"Ġmidpoint":9288,"(range":9289,"\\x":9290,"Ġfeedback":9291,"åįķ":9292,"Ġinert":9293,"ĠText":9294,"Ġprogramming":9295,"Ġdil":9296,"ĠRober":9297,"Ġexplained":9298,"(min":9299,"quares":9300,"Ġaccepted":9301,"Ġencourage":9302,"(Q":9303,"onstr":9304,"ourse":9305,"-r":9306,"Ġreflection":9307,"Em":9308,"Ġsomew":9309,"Ġvac":9310,"ĠDesign":9311,"Ġawareness":9312,"Ġwhom":9313,"sii":9314,"1990":9315,"Ġbehaviour":9316,"Num":9317,"Ġ###":9318,"ĠRo":9319,"ipt":9320,"Ġmarginal":9321,"abb":9322,"Ġlegs":9323,"[b":9324,"ĠAN":9325,"#-":9326,"irgin":9327,"4000":9328,"func":9329,"Ġtank":9330,"ĠMac":9331,"ĠCommon":9332,"-sh":9333,"ups":9334,"ë¦¬":9335,"asticity":9336,"Ġlisted":9337,"_multi":9338,"Ġcollision":9339,"isher":9340,"Ġcatch":9341,"Ġutility":9342,"èĩ":9343,"Ġapples":9344,"Ġcontribute":9345,"ulary":9346,"ĠMal":9347,"heit":9348,"quality":9349,"Ġinteraction":9350,".keys":9351,"(mass":9352,"ĠUnit":9353,"two":9354,"Ġunion":9355,"Ġcandidates":9356,"Ġclin":9357,"Simplifying":9358,"Ġperspective":9359,"Ġtip":9360,"ĠTake":9361,"Ġgoods":9362,"Ġconsequ":9363,"ĠHome":9364,"bine":9365,"prec":9366,"Ġcelebr":9367,"Ġtaught":9368,"Ġreb":9369,"ĠOrgan":9370,"Ġlegis":9371,"Ġemissions":9372,"Ġsexual":9373,"_correct":9374,"Hello":9375,"Ab":9376,"âĨĴ":9377,"_frame":9378,"Ġsupplement":9379,"Ġyes":9380,"Ġmirror":9381,"ASE":9382,"_step":9383,"Ġbeautiful":9384,"Ġstatic":9385,"Ġpermutations":9386,"Ġhaz":9387,"aming":9388,"Ġarbit":9389,"Ġhomes":9390,"Figure":9391,"Ġwins":9392,"Ġhelped":9393,"IO":9394,"Ġà¤ķ":9395,"Ġphil":9396,"ëł¥":9397,"_vector":9398,"ĠDate":9399,"\\(":9400,"ĠAmericans":9401,"Ġ...Ċ":9402,"standard":9403,"Ġgenerator":9404,"_exp":9405,"Ġtrav":9406,"('\\":9407,"å½ĵ":9408,"Sp":9409,"Str":9410,"ĠSection":9411,"pto":9412,"ĠElement":9413,"Ġevolution":9414,"Ġrecorded":9415,"ĠRuntimeError":9416,"_att":9417,"Ġenhance":9418,"Ġsud":9419,"ĠLake":9420,"Group":9421,"epoch":9422,"Ġdefic":9423,"ĠCompany":9424,"ODO":9425,"ĠProvide":9426,"Ġnd":9427,"AGE":9428,"/f":9429,"(H":9430,"ĠInf":9431,"\"])Ċ":9432,".id":9433,"{q":9434,"Ġverified":9435,"Ġmultiplier":9436,"_title":9437,"Ġcert":9438,"arctan":9439,"Ġnone":9440,"Ġappend":9441,"Ġupd":9442,"models":9443,"ivate":9444,"_day":9445,"ĠDoes":9446,"Ġensuring":9447,"Ġphen":9448,"ocabulary":9449,"_mm":9450,"ĠClub":9451,"SA":9452,"direct":9453,"ĠLo":9454,"Ġclaims":9455,"Ġmonitoring":9456,"ë©":9457,"edian":9458,"ograms":9459,"eding":9460,"Ġnav":9461,"ãģŁ":9462,".stats":9463,"Ð¾Ñģ":9464,"Ġproduces":9465,"Ġignore":9466,"145":9467,"bsolute":9468,"Ġsurround":9469,"same":9470,"Ġ-(":9471,"Ġstability":9472,"ĠStrateg":9473,"mo":9474,"ĠTraining":9475,"Ġfunds":9476,"147":9477,"true":9478,"{(-":9479,"orical":9480,"ivot":9481,"Ġtemperatures":9482,"_digits":9483,"Ð²Ð°":9484,"Ġbuildings":9485,"ĠJoh":9486,"ffee":9487,"Our":9488,"cf":9489,"enth":9490,"æ±":9491,"ĠHon":9492,"Ġmenu":9493,"Ġvacc":9494,"charge":9495,"ĠMA":9496,"{new":9497,"lers":9498,"Ġprojection":9499,"Ġmanager":9500,"_work":9501,"Derive":9502,"Ã¶":9503,"-F":9504,"LA":9505,"_args":9506,"vature":9507,".N":9508,"crep":9509,"çľ":9510,"Exception":9511,"Ġcausing":9512,"Ġheader":9513,"changed":9514,"404":9515,"{}":9516,"å¯¹è±¡":9517,"ĠCustom":9518,"ĠDan":9519,")}\")":9520,"_original":9521,"ĠColumn":9522,"Ġdetailed":9523,"Ġwet":9524,"...Ċ":9525,"Ġmeant":9526,"ahren":9527,"ĠEar":9528,"224":9529,"]+":9530,"Ġteams":9531,"Ġcurr":9532,"(Z":9533,"Ġoffered":9534,"Ġsummary":9535,"#!/":9536,"ĠÂ°":9537,"Ġlinewidth":9538,"Ġfro":9539,"propto":9540,"_params":9541,"ĠPract":9542,"Ġintellig":9543,"ĠÃ©":9544,"Ġpray":9545,"ĠEquation":9546,".to":9547,"van":9548,"Ġpp":9549,"ĠBack":9550,"))ĊĊĊ":9551,"Ġ$?ĊĊ":9552,"URL":9553,".contrib":9554,"Ġinsurance":9555,"Ġpersons":9556,"Ġnormalization":9557,"ĠWhether":9558,"*c":9559,"Ġadapt":9560,"165":9561,"creasing":9562,"Ġvictim":9563,"Ġ[#":9564,"(target":9565,"heet":9566,"ĠLanguage":9567,"ĠInc":9568,"Ġflight":9569,"Ġ$:Ċ":9570,"Ġcruc":9571,"IZE":9572,"Ġstable":9573,"Ġvariation":9574,"ĠAddition":9575,"/R":9576,"Ġcertainly":9577,"ĠHTML":9578,"unit":9579,"Ġrout":9580,"°ĥ":9581,"ĠPRO":9582,"Ġaf":9583,"Ġsen":9584,"Ġwhatever":9585,"Ġspatial":9586,"ĠLevel":9587,"Ġ...,":9588,"Ġassigned":9589,"Ġstim":9590,"å¤ļ":9591,"Ġseparation":9592,"$?ĊĊ":9593,"UP":9594,"190":9595,"ê²":9596,"Ġdates":9597,"_sim":9598,"_like":9599,"going":9600,"ĠJack":9601,"operator":9602,"Ġsubtraction":9603,"Tr":9604,"Ġinstant":9605,"Ġmarks":9606,",c":9607,"Ġmsg":9608,"9999":9609,"\"].":9610,"ãģ¯":9611,"Over":9612,"aten":9613,"_csv":9614,"_param":9615,"ahrenheit":9616,"Year":9617,"Ġapplic":9618,"Ġequally":9619,"_results":9620,"processing":9621,"ensus":9622,"Ġsalt":9623,"Ġintroduced":9624,"Ġspecifically":9625,"arsh":9626,".min":9627,"]):":9628,"uble":9629,"Ġlosses":9630,"GE":9631,"\"H":9632,"uan":9633,"12345":9634,"folio":9635,"ji":9636,"ICE":9637,"next":9638,"uls":9639,"à¤°":9640,"Ġallowing":9641,"Ġhole":9642,"LED":9643,"}$:Ċ":9644,"ĠCourt":9645,"\\$":9646,"negative":9647,"ded":9648,"ÎŁÎ":9649,"ĠSpecial":9650,"__,":9651,"Ġassets":9652,"118":9653,"ĠIts":9654,"prod":9655,"trans":9656,"Ġha":9657,"Ġdefines":9658,"hbar":9659,"bles":9660,"Ġdynamic":9661,"Ġru":9662,"Base":9663,"Ġlived":9664,"_field":9665,"Ġtrac":9666,"ÐµÐ»ÑĮ":9667,"Ġvirus":9668,"ocks":9669,".fields":9670,"Ġtransformed":9671,"ĠQue":9672,"ogen":9673,"nowledge":9674,"Ġstreet":9675,"Ġmeasurements":9676,"116":9677,"atal":9678,"Ġatoms":9679,"fall":9680,"grams":9681,"Ġnoted":9682,"ĠIter":9683,"gcd":9684,"Ġvit":9685,"Ġchecking":9686,"èµ":9687,"Ġages":9688,"ĠForce":9689,"Ġìķ":9690,"Ġautomatically":9691,"\"Verification":9692,")]ĊĊ":9693,"Ð¸Ð½":9694,"/watch":9695,"/kg":9696,"Ġlista":9697,":]":9698,"ĠGaussian":9699,"Ġcontainer":9700,"_water":9701,"ĠInteger":9702,"'):Ċ":9703,"assum":9704,".randint":9705,"?v":9706,"324":9707,"uate":9708,"Ġequity":9709,"Ġspin":9710,"Ġtranslation":9711,"Ġprepare":9712,"å¹¶":9713,"_ap":9714,"mut":9715,"Ġbrief":9716,"cosystem":9717,"ĠIsland":9718,"'čĊ":9719,"íĦ":9720,"Ġpsi":9721,"Ð¾Ð·":9722,"Ġpreviously":9723,"Ġcylinder":9724,"]{":9725,"Ġcsv":9726,"Ġfalls":9727,"uy":9728,"Ġhun":9729,"Ġsubsequ":9730,"Ġban":9731,".sleep":9732,"IGHT":9733,"ĠParent":9734,"Ġcommonly":9735,"Ñĳ":9736,"(base":9737,"ikipedia":9738,"ĠGerman":9739,"ITY":9740,"ĠTechnology":9741,"Tree":9742,"forward":9743,"ĉreturn":9744,"Ġterminal":9745,"-pro":9746,"Ġdelete":9747,"Ġclub":9748,"_not":9749,"ĠCSV":9750,"acob":9751,"Ġextent":9752,"Ġdescending":9753,"Ġeventually":9754,"Ġkilled":9755,"heses":9756,"Ġknows":9757,"Ġdirections":9758,"Ġintegrate":9759,"Ð°ÑĤÑĮ":9760,"Ãª":9761,"useum":9762,"?âĢĿ":9763,"ĠTeacher":9764,"ja":9765,"Ġquart":9766,"_box":9767,"ĠConversion":9768,"ĠÎ»":9769,"CON":9770,"_config":9771,"ĠCa":9772,"Which":9773,"Python":9774,"_off":9775,"Ġnovel":9776,"Ġvisible":9777,"Ġauthent":9778,"ĠLinear":9779,"ORT":9780,"Dec":9781,"_fl":9782,"hav":9783,"(count":9784,"Ġsac":9785,"Ġnative":9786,"-free":9787,"_ac":9788,"Ġmouth":9789,"Ġgone":9790,"ĠBr":9791,"Applying":9792,"Ġpropag":9793,"Ġmom":9794,"Ġstrip":9795,"ĠLine":9796,"ifications":9797,"enger":9798,"Ġutf":9799,"'{":9800,"_units":9801,"ĠÑĦ":9802,"Ġtrigon":9803,"Ġmel":9804,"ĠPerm":9805,"_us":9806,"ĉĉĉ":9807,"Ġcourses":9808,"riting":9809,"è¾ĵåĩº":9810,"VA":9811,"content":9812,"Ġdeterminant":9813,"isson":9814,"Ġadvice":9815,"batch":9816,"Ġmostly":9817,"ĠSpeed":9818,"ĠÑģÑĤ":9819,"coeff":9820,"Ġskip":9821,"blue":9822,"constant":9823,"_mod":9824,"âĢ¦âĢ¦âĢ¦âĢ¦":9825,"ĠHandle":9826,"road":9827,"Ġintersect":9828,"idget":9829,"illion":9830,"Ġprimes":9831,"Ġthousand":9832,"aversine":9833,"pack":9834,"Ġsounds":9835,"Ġlad":9836,"Ġsalary":9837,"_ext":9838,"ĠRetrie":9839,"Ġbodies":9840,"mas":9841,"Ġrating":9842,"Ġclim":9843,"itors":9844,"Ġdrugs":9845,"éĢļ":9846,"ĠRoman":9847,"Ġtrials":9848,"\"Probability":9849,"Ġfing":9850,"Ġkid":9851,"Ġopening":9852,"ÏĨ":9853,"imately":9854,"EE":9855,"Ġshut":9856,"pat":9857,"overy":9858,"Ġorth":9859,"Ġsymbolic":9860,"Ġextreme":9861,"Ġvalor":9862,"Ġflux":9863,"[index":9864,"Ġauth":9865,"Ð¾Ð¶":9866,"Ð¡":9867,"ĠCommittee":9868,"cy":9869,"ĠRob":9870,"Ġancient":9871,"ĠìĹ":9872,"(map":9873,"ĠÐ·Ð°":9874,"\"x":9875,"(I":9876,"Ġapart":9877,"éĩį":9878,"illa":9879,"ĠOrder":9880,"-statistic":9881,"unately":9882,"ĠFactor":9883,"[float":9884,"Ġfrequently":9885,"ANT":9886,"*np":9887,"_char":9888,"/M":9889,"ĠChe":9890,"Ġwriter":9891,"Ġdiseases":9892,"message":9893,"_object":9894,"Ġflex":9895,"ĠTexas":9896,"ummy":9897,"ĠDNA":9898,"ressed":9899,"âĸł":9900,"_sl":9901,"olf":9902,"Each":9903,".\"\"\"ĊĊ":9904,"diff":9905,"config":9906,"ognitive":9907,"Ġspan":9908,"{Var":9909,"-the":9910,"Ġcontinues":9911,"İ·":9912,"Ġresidents":9913,"rich":9914,"Ġhundreds":9915,"(log":9916,"Ð½Ð°Ñı":9917,"109":9918,"Ġoscill":9919,"Ġwaiting":9920,"ÛĮ":9921,"Left":9922,"Multiply":9923,"¬¸":9924,"Ġleadership":9925,"Ġtechnical":9926,"_lines":9927,"Ġreplacement":9928,"function":9929,"Ġsheet":9930,"(phi":9931,"_me":9932,"Ġwilling":9933,"_arr":9934,"equal":9935,"SP":9936,"\"Expected":9937,"_divisors":9938,"ìľ¼":9939,"loss":9940,"arry":9941,"ivial":9942,"ĠSam":9943,"atts":9944,"ĠBank":9945,"Ġfactorial":9946,"Ġexistence":9947,"Ġtmp":9948,"Ġnutrition":9949,"abetes":9950,"call":9951,"Ġinch":9952,"Ġmodulus":9953,"_ids":9954,"Ġcas":9955,"ĠMex":9956,"Ġcls":9957,"oules":9958,"Ġkwargs":9959,"Ġcalling":9960,"Ġstake":9961,"Ġexperienced":9962,"åŃĹç¬¦ä¸²":9963,"ĠCath":9964,"107":9965,"Ġachieved":9966,"ĠFormat":9967,"ĠPs":9968,"atisf":9969,"eren":9970,"Array":9971,"Ġsuitable":9972,"Case":9973,"Ġuncertainty":9974,"Ġacts":9975,"ĠAdminist":9976,"-com":9977,"Ġmile":9978,"Ġrent":9979,"ĠCur":9980,"Ġzone":9981,"-score":9982,"acteria":9983,".std":9984,"Ġjourney":9985,"Ġseeing":9986,"Ġnuclear":9987,"PU":9988,"procal":9989,"Ġentirely":9990,"west":9991,"NE":9992,"irth":9993,"ĠWH":9994,"Ġworst":9995,"ĠValidate":9996,"phabet":9997,"Ġcorpor":9998,"_element":9999,"ë³":10000,"(initial":10001,"ľĢ":10002,"Ġdocuments":10003,"Ġinstances":10004,"ãģ¦":10005,"ĠÑĥ":10006,"aved":10007,"Ġamounts":10008,"-section":10009,"Ġsan":10010,"ednes":10011,"Ġkeyword":10012,"Ġvillage":10013,"),čĊ":10014,"Ġindustrial":10015,"contin":10016,"km":10017,"ander":10018,"Be":10019,"Ġtherap":10020,"ĠWhere":10021,"estions":10022,"æķ´":10023,"'$":10024,".exists":10025,"Ġpush":10026,"Ġbow":10027,"-ex":10028,"ua":10029,"åħ¶":10030,"Ġbegins":10031,"Ġemotional":10032,"Ġtrial":10033,"Ġmasses":10034,"ĠÑĢÐ°":10035,"Ġleader":10036,")**:":10037,"Ġexplicitly":10038,"Col":10039,"Dep":10040,"iture":10041,"Ġjo":10042,"ãģĮ":10043,"Ġtechnologies":10044,"-tailed":10045,"cho":10046,"years":10047,"æ¯ı":10048,"çĽ¸":10049,"126":10050,"Ġconsidering":10051,"Ð½ÑĭÐµ":10052,"Ġleaf":10053,"Ġfacilit":10054,"ĠFrancis":10055,"âģ»":10056,"ĠColor":10057,"Ġborder":10058,"Ġreward":10059,"_plus":10060,"ĠLou":10061,"'])Ċ":10062,"Ġelectricity":10063,"015":10064,"Ġbread":10065,"ĠSpace":10066,"Ġroute":10067,"_mask":10068,"åĪĻ":10069,"Ġstret":10070,"=lambda":10071,"aws":10072,"Ġlatest":10073,"167":10074,"Ġopened":10075,"Ġarises":10076,"cot":10077,"izz":10078,"Ġsupposed":10079,"Ġpurs":10080,"Ġreact":10081,"ĠSl":10082,"Ġbeam":10083,"names":10084,"sample":10085,"Ġhus":10086,"aylor":10087,"ĠMAG":10088,"ĠCritical":10089,"ĉif":10090,".config":10091,"ĠCompare":10092,"pu":10093,"Ġcry":10094,"Ġexplanation":10095,"racy":10096,"viation":10097,"Ġadvance":10098,"Ġtension":10099,"entions":10100,"ĠTerm":10101,"_normal":10102,"Ġspeech":10103,"ronic":10104,"ç¼":10105,"Ġsubstitute":10106,"ĠTarget":10107,"ERE":10108,"ĠFrance":10109,"æĪ·":10110,"Ġsports":10111,"ĠImplement":10112,"Ġtok":10113,"Ġsituations":10114,"ĠHen":10115,"Ġbackward":10116,"Ġentered":10117,"fs":10118,"Ġnumeric":10119,"`.ĊĊ":10120,"Ġsubjects":10121,"Ġexcell":10122,"éĺ":10123,"Ġstars":10124,")x":10125,"UE":10126,"ounce":10127,"ìĸ´":10128,"#-#-":10129,"Ġbreath":10130,"ido":10131,")s":10132,"Ge":10133,"Ġcluster":10134,"Ġopinion":10135,"ĠJun":10136,"_increase":10137,"Ġdepartment":10138,"Ġ\\).":10139,"asket":10140,"Ġhousehold":10141,"Ġaid":10142,"{aligned":10143,"Ġ$Ċ":10144,"Ġil":10145,"_radius":10146,"Ġcorrespond":10147,"queue":10148,"SL":10149,"_files":10150,"Ġscene":10151,"}{-":10152,"Ġchecks":10153,"encing":10154,"_period":10155,"âĪĤ":10156,"(K":10157,"acion":10158,"ĠWho":10159,"Ġagent":10160,"cur":10161,"dp":10162,"åĳ":10163,"Ġstead":10164,"ĠGame":10165,"ĠSte":10166,"ĠRemove":10167,"osoph":10168,"Ġprofession":10169,"Ġsecure":10170,"Ġ$?":10171,"ĠTreeNode":10172,"Ġwrap":10173,".gov":10174,"}%\")Ċ":10175,"ĠGrade":10176,"1997":10177,"Ġcoin":10178,"ĠLast":10179,"_DIR":10180,"Ġconcrete":10181,"=np":10182,"Ġinvert":10183,"ê³ł":10184,"Ġfol":10185,"edy":10186,"Ġdecide":10187,"_O":10188,"tuple":10189,"Ġtargets":10190,"inimum":10191,"106":10192,"Ġheads":10193,"ìĿĢ":10194,"Pr":10195,"cv":10196,".png":10197,".assertEqual":10198,"_pl":10199,"[m":10200,"Ġsigned":10201,"Ø±":10202,"Ġ=\",":10203,"Ġtopics":10204,"Äģ":10205,"Ġbecoming":10206,"Returns":10207,"Ġcooper":10208,"åĲ¦":10209,"})$":10210,"vectors":10211,"ĠHTTP":10212,"(W":10213,"Ġfem":10214,"Ġdiversity":10215,"æĽ":10216,"ASS":10217,"Ġorbit":10218,"_hand":10219,"Ġinfrastructure":10220,"Ġliterature":10221,"_ear":10222,"ï¬":10223,"ĠÎ±":10224,"ĠLead":10225,"Ġeggs":10226,"Ġwheel":10227,"Ġvegetables":10228,"169":10229,"âĸ¡":10230,"(sum":10231,"uesday":10232,"Ġdetection":10233,"Ġpartner":10234,"\\\\":10235,"Ġcharges":10236,"Ð»Ð°":10237,"002":10238,"ĠTODO":10239,"Ġinitially":10240,"\").":10241,"uto":10242,"Ġagencies":10243,"(res":10244,"Ġcrucial":10245,"Îµ":10246,"-related":10247,"Ġeq":10248,".user":10249,"mes":10250,".fit":10251,"ĠSafe":10252,"ME":10253,"ĠConstruct":10254,"ĠCross":10255,"numpy":10256,"ano":10257,"Ġtriangular":10258,"perties":10259,"Sigma":10260,"Ġast":10261,"Ġaligns":10262,"Ġhelping":10263,"Ġholding":10264,"137":10265,"Ġorders":10266,"Ġgeometry":10267,"usive":10268,"Ġmaintenance":10269,"FS":10270,")*(":10271,"\\beta":10272,"Ġpros":10273,"erged":10274,"idential":10275,".num":10276,"Ġassumption":10277,"rfloor":10278,"istan":10279,"Ġcontained":10280,".draw":10281,"Ġregardless":10282,"quate":10283,"/B":10284,"ositive":10285,"'),čĊ":10286,"]],":10287,"ned":10288,"Ġ^":10289,"Ġshel":10290,"_return":10291,"Ġtau":10292,"Ġthoughts":10293,"Ġtun":10294,"Ġlots":10295,"ĠAgricult":10296,"(board":10297,"_transform":10298,"Ġtuples":10299,"Ġnice":10300,"Ġspl":10301,"ednesday":10302,"_grad":10303,"Ġâī¥":10304,"Ġsuc":10305,"Standard":10306,"ÐµÐ¹":10307,"Ġcalories":10308,"ĠSupport":10309,"Ġcentimeters":10310,"Ġtechnique":10311,"Ġfarmers":10312,"Ġdetail":10313,"è®¾":10314,"Ġassignment":10315,"ync":10316,"_interval":10317,"Ġafford":10318,"ĠForest":10319,"Ġthermal":10320,"-E":10321,"night":10322,"Expand":10323,"Ġcomprehensive":10324,"isor":10325,"Ġengineering":10326,".local":10327,"Ġprompt":10328,"UC":10329,"Ġ--------Ċ":10330,"ìļ©":10331,"otential":10332,"íĬ":10333,"Ġcounty":10334,"Ġfocused":10335,"aud":10336,"ARE":10337,"$$(":10338,"çĽ®":10339,"_root":10340,"ĠConsider":10341,"Ġinventory":10342,"hex":10343,"-y":10344,"Ġbuffer":10345,"gets":10346,"113":10347,"Ġcycles":10348,"ĠEX":10349,"Ġcoins":10350,"Ġpregn":10351,"\"Maximum":10352,"ĠIsrael":10353,"').":10354,"ãĢĤ',Ċ":10355,"crepancy":10356,"Ġsignals":10357,"ĠMount":10358,"\"}":10359,"ĠItal":10360,"ĠAuthor":10361,"akers":10362,"Red":10363,"Ġscales":10364,"Ġacceler":10365,"Integer":10366,"ĠHawai":10367,"uses":10368,"Ġseq":10369,"_des":10370,"åºĶ":10371,"_unit":10372,"norm":10373,"Ġflows":10374,"Ġcents":10375,"Ġsyn":10376,"(number":10377,"Ġchrom":10378,"Ġskill":10379,"Ġvolunte":10380,"Ġneighborhood":10381,"John":10382,"Rem":10383,"Ġlift":10384,"ĠBrown":10385,"ĠRights":10386,"ĠGen":10387,"Ġmodular":10388,"Ã¼":10389,"ĠCL":10390,"Ġassumes":10391,"sembly":10392,"agers":10393,"Ġcouldn":10394,"Ġadvanced":10395,"ĠOption":10396,"Ġkilometers":10397,"éĥ":10398,".ro":10399,"_prev":10400,"ĠAnalysis":10401,"ACK":10402,"1998":10403,"Ġinterests":10404,"Ġinstitutions":10405,"Ġcand":10406,"Ġassistance":10407,"_freq":10408,"Ġpasses":10409,".replace":10410,"gg":10411,"Ġtow":10412,"abil":10413,"ĠBur":10414,"_net":10415,"She":10416,"ĠMAGIC":10417,"-re":10418,"SD":10419,"Ġindeed":10420,"Ġdiscovered":10421,"æķ°ç»Ħ":10422,"Ġimpacts":10423,"ACT":10424,".create":10425,"ĠHol":10426,"Ġincrement":10427,"Ġpermutation":10428,"Ġsharing":10429,"oster":10430,"Ġdependent":10431,"Ġtrigonometric":10432,"-T":10433,"observ":10434,"_sequence":10435,"Ġdiscussed":10436,"Ġcovers":10437,"ora":10438,"196":10439,"_half":10440,"Ġfamiliar":10441,"Ġdiffer":10442,"UD":10443,"agger":10444,"_up":10445,"ypy":10446,"______":10447,"white":10448,"Ġneighbors":10449,"$).ĊĊ":10450,"Ġtall":10451,"114":10452,"Ġbalanced":10453,"Ġadministr":10454,"HA":10455,"udd":10456,"äºĮ":10457,"Ġparticipate":10458,"\\hat":10459,"_ph":10460,"achine":10461,"hop":10462,"Ġachie":10463,"`.Ċ":10464,"portion":10465,"Ġdaughter":10466,"Ġprocessed":10467,"atten":10468,"isp":10469,"ĠProfit":10470,"Ġparticles":10471,"Ġneither":10472,"***":10473,"(integ":10474,"_block":10475,"Ġmetadata":10476,"Ġnecessarily":10477,"PUT":10478,"Â¹":10479,"Ġscientists":10480,"Ġwouldn":10481,"utils":10482,"_limit":10483,"_income":10484,"Ġending":10485,"stein":10486,"ĠHead":10487,"Ġencount":10488,"Ġmodulo":10489,"ibonacci":10490,".V":10491,"_flow":10492,"Ġpil":10493,"lets":10494,"soft":10495,"è°ĥ":10496,"ĠLocal":10497,"Ġ_,":10498,"Ġphoto":10499,".':":10500,"637":10501,"Ġhelpful":10502,"ranging":10503,"Ġcloser":10504,"arnings":10505,"è¯·":10506,"arks":10507,"ÂŃ":10508,"essment":10509,"Ġstone":10510,"ĠìĪĺ":10511,"Ġseemed":10512,".ext":10513,"Ġcontroll":10514,"ĠArg":10515,";ĊĊ":10516,"_ass":10517,"Ġerr":10518,"ĠNetwork":10519,"-and":10520,"IE":10521,"aturday":10522,"ĠBudget":10523,"åĲĳ":10524,"ena":10525,"holders":10526,"Ð¾Ð³Ð¾":10527,"ira":10528,"Ġaffects":10529,".insert":10530,"Ġcarefully":10531,"ĠPolicy":10532,"çİ°":10533,"(original":10534,"--|Ċ":10535,"Ġlisten":10536,"Ġseparated":10537,"bel":10538,"Ġbroken":10539,"_grid":10540,"1800":10541,"Ġlesson":10542,"Ġparam":10543,"Ġecosystem":10544,"1995":10545,"Ġbusinesses":10546,"Ġrein":10547,"ĠMill":10548,"_month":10549,"ĠTim":10550,"ĠThomas":10551,"1996":10552,"Ġparabol":10553,"Ġsingular":10554,"Ġsuggested":10555,"ĠDemonstr":10556,"nected":10557,"ipse":10558,"phase":10559,"Ġtriple":10560,"Ġirr":10561,"åĪĽ":10562,"åĬ¨":10563,"Ġforced":10564,"(item":10565,"pp":10566,"Ġrepro":10567,"Ġreplaced":10568,"-ch":10569,"_rounded":10570,"node":10571,"eper":10572,"Ġrisks":10573,"ĠĠĠĊ":10574,"Ġthrow":10575,"Ġplastic":10576,"!\")Ċ":10577,"]_":10578,"ĠAP":10579,"Ġsteel":10580,"ĠAge":10581,"ÑĦ":10582,"ĠÂ±":10583,"ç©º":10584,"Ġconditional":10585,"æīĢæľī":10586,"ĠWeight":10587,"Ġgrass":10588,"subseteq":10589,"Ġtrend":10590,"ÑĨÐ¸":10591,"Ġchapter":10592,"irty":10593,"-index":10594,"ĠCho":10595,"ATA":10596,"Ãºmer":10597,"kin":10598,"ifth":10599,"ĠDisc":10600,"_depth":10601,"Ġlessons":10602,"[key":10603,"COL":10604,"Ġchannels":10605,"optim":10606,"abled":10607,"_formula":10608,"ĠAustralia":10609,"Ġade":10610,"Ġaggreg":10611,"rupt":10612,"slope":10613,"ĠPlace":10614,"has":10615,"small":10616,"redit":10617,"ĠMo":10618,"............":10619,"ÎĶ":10620,"_difference":10621,"(url":10622,"_obj":10623,"Ġms":10624,"ĠFamily":10625,"Ġreligion":10626,"pc":10627,")))":10628,"ternatively":10629,"Ġtrib":10630,"Ġsnow":10631,"ĠMatrix":10632,"117":10633,"Ġprison":10634,"_equal":10635,"Ġspiritual":10636,"ĠConserv":10637,"apez":10638,"Ġfavorite":10639,"Ġwaters":10640,"ë©´":10641,"Ġtk":10642,"utton":10643,"Ġlanguages":10644,"rowser":10645,"Ġarticles":10646,"éĽĨ":10647,"Comput":10648,"Ġwalking":10649,"]]:Ċ":10650,"ĠSQL":10651,"ĠWood":10652,"after":10653,"ĠAI":10654,"ĠWall":10655,"âĢĻd":10656,"Ġpoverty":10657,"gression":10658,"Ġsections":10659,"Ġren":10660,"asy":10661,"owns":10662,"Ġscope":10663,"Â·s":10664,"ogeneous":10665,"DR":10666,"ĠTrain":10667,"outs":10668,"raise":10669,"ä»İ":10670,"Ġdescribes":10671,"ĠWestern":10672,"Ġspecify":10673,".remove":10674,"Ġju":10675,"ĠSubtract":10676,"Ġingred":10677,"314":10678,"Ġpipeline":10679,"nson":10680,"Ġorganic":10681,"Ġlst":10682,"éĥ¨":10683,"derr":10684,"-v":10685,"Ġahead":10686,"Ġunf":10687,"ometimes":10688,"Ġmillions":10689,"Ġestimates":10690,"ye":10691,"ĠFOR":10692,"Assum":10693,"=Ċ":10694,"Ġtells":10695,"/Ċ":10696,"]):Ċ":10697,"_required":10698,"uent":10699,"Ne":10700,"Factor":10701,"íĻ":10702,"levision":10703,"íĬ¸":10704,"_batch":10705,"_minus":10706,"Ġeliminate":10707,"faces":10708,"lfloor":10709,"_std":10710,"Floor":10711,"eness":10712,"lik":10713,"Ġparticipation":10714,"ĠVirgin":10715,"ĠTre":10716,"ĠMiddle":10717,"Ġentropy":10718,"uffle":10719,"ĠActual":10720,"Ġlbs":10721,"132":10722,"Ġreader":10723,"ĠResponse":10724,"Ġfacility":10725,"ĠDirector":10726,"Second":10727,"ÐĴ":10728,"ĠPen":10729,"oreign":10730,"Ġdecor":10731,"''(":10732,"Ġmanip":10733,"uiltins":10734,"(line":10735,"Max":10736,"ursday":10737,"ĠArray":10738,"Ġfinished":10739,"åĪĽå»º":10740,"}\"":10741,"Ġspeaking":10742,"ĠÐ¾ÑĤ":10743,"ĠMont":10744,"-|Ċ":10745,".sc":10746,"Ġcompat":10747,"ĠÐ²Ñĭ":10748,"Ġprocedure":10749,"_argument":10750,"ÙĨ":10751,"ĠCamp":10752,"Ġtrained":10753,"forcement":10754,"ĠSolving":10755,"Ġwealth":10756,"izza":10757,"_sample":10758,"allow":10759,"éľĢ":10760,"100000":10761,"ogs":10762,"Ġabuse":10763,"avy":10764,"162":10765,")$:Ċ":10766,"Show":10767,"875":10768,"iat":10769,"imary":10770,"_scores":10771,"_rows":10772,"ĠTown":10773,"_square":10774,"UG":10775,"èĬĤçĤ¹":10776,"Mat":10777,"Ġ]":10778,"ĠObject":10779,"Ġinterpolation":10780,"_edge":10781,"oving":10782,"ona":10783,"ĠMart":10784,"ĠGl":10785,"íĦ°":10786,"vestment":10787,".')Ċ":10788,"ĠConfiguration":10789,"_gener":10790,"oseph":10791,"atern":10792,"(output":10793,"Ġvess":10794,"\"\"\"čĊ":10795,"âĢĿ,":10796,"ãģª":10797,"Ġâīł":10798,"look":10799,"Ġcounting":10800,"Ġpopulations":10801,"Ġinfection":10802,"[:-":10803,"Ġdangerous":10804,"119":10805,"Ġpin":10806,"Ġhorse":10807,"Ġvulner":10808,"ariant":10809,"_layout":10810,"gypt":10811,"Ġvehicles":10812,"Ġtit":10813,"Ġfacts":10814,"Ġsmart":10815,"Map":10816,"PT":10817,"bb":10818,"Ġdir":10819,"ĠHistor":10820,"ĠMet":10821,"ĠKel":10822,"Ð¾Ð¿":10823,"Ġacres":10824,"Ġboundaries":10825,"Ġinternet":10826,"ether":10827,"]$.":10828,"Ġranges":10829,"ĠTor":10830,"_par":10831,"(my":10832,"/day":10833,"Ġelectrons":10834,"ĠÏĥ":10835,"pire":10836,"Ġgal":10837,"ĠExcel":10838,"|------------":10839,"uing":10840,"Ġadds":10841,"Ġfindings":10842,"6667":10843,"éĻ¤":10844,"burg":10845,"Ã¤":10846,"Ġrural":10847,"ĠLight":10848,"Ġconnections":10849,"275":10850,"Size":10851,"ĠBig":10852,"staticmethod":10853,"rat":10854,"1980":10855,"igmoid":10856,"ãģĻãĤĭ":10857,"rates":10858,"Ġexecute":10859,"Ġsumming":10860,"uffer":10861,"ĠNov":10862,"Ġinterpre":10863,")$$":10864,"_series":10865,"Ġworse":10866,"Start":10867,"Ġbroadcast":10868,"Ġpreced":10869,"Ġspherical":10870,"appe":10871,"ocument":10872,"parison":10873,"ìķ":10874,"_derivative":10875,"Ġfruits":10876,"Ġcorrected":10877,"Ġquantum":10878,"Ġ----":10879,"Ġcoffee":10880,"Ġaudio":10881,"Ġsudden":10882,"MENT":10883,"Ġhospital":10884,")?":10885,".W":10886,"Ġoh":10887,"1111":10888,"VID":10889,"XX":10890,"iger":10891,"Ġredirect":10892,"Ġaccompl":10893,")\")":10894,"acific":10895,"ĠOld":10896,"ariables":10897,"ĠTeam":10898,"{out":10899,"empl":10900,"ventory":10901,"Ġclosest":10902,"mal":10903,"ĠSave":10904,"Ġfee":10905,"ĠCongress":10906,"Me":10907,"ĠAction":10908,"Ġatomic":10909,"ĠStudy":10910,"erge":10911,"ĠMicro":10912,"()],Ċ":10913,"icken":10914,"Ġnetworks":10915,"^(-":10916,"_est":10917,"FO":10918,"_as":10919,"erry":10920,"verify":10921,"duced":10922,"Ð¾ÑģÑĤ":10923,"136":10924,"Ġtruly":10925,"_response":10926,"ĠCharles":10927,"ĉField":10928,"Ġfold":10929,"Ġspending":10930,"ĠGermany":10931,"Ġbacteria":10932,"Ġhref":10933,"ĠHIV":10934,"']ĊĊ":10935,"Ġdogs":10936,"Ġ'_":10937,"expression":10938,"Ġimped":10939,"Ġmerge":10940,"{and":10941,"ìĥ":10942,"ĠField":10943,"Expected":10944,"ĠGal":10945,"_ref":10946,"Ġpossibly":10947,"155":10948,"Ġagreement":10949,"ipher":10950,"_next":10951,"000000":10952,"Ġìĭ":10953,"\\mu":10954,"ulse":10955,"ĠFurther":10956,"__':Ċ":10957,"265":10958,"ï¼ļĊ":10959,"Ġrevolution":10960,"ĠRobert":10961,"Ġbx":10962,"Ġfeelings":10963,"Ġmarked":10964,"PC":10965,"ç«":10966,"Ġgar":10967,"Ġdoubt":10968,"ĠCart":10969,"Ġlogin":10970,"ĠInternet":10971,"ufficient":10972,"textsuperscript":10973,"ĠLow":10974,"Ġauthority":10975,"Ġdocumentation":10976,"score":10977,"ĠMrs":10978,"gl":10979,"Ġnan":10980,"_column":10981,"Ġmixture":10982,"ressure":10983,"Ġnumerous":10984,"Many":10985,"Ġmechanical":10986,"[idx":10987,"Ġpictures":10988,"equence":10989,"Ġcenters":10990,"8000":10991,"onym":10992,"Ġcapture":10993,"random":10994,"ĠAS":10995,"ĠMS":10996,"ĠOS":10997,"Ġmultiplic":10998,"Ġnutri":10999,"Ġcovariance":11000,"astype":11001,"Ð´Ð°":11002,"roduction":11003,"pirical":11004,"$?":11005,"uzzle":11006,"122":11007,"ĠFoundation":11008,"Ġlens":11009,"):\")Ċ":11010,"(tf":11011,"_two":11012,"ĠThird":11013,"MI":11014,"Ġassumed":11015,"LS":11016,"Cor":11017,"Ġliber":11018,"(sp":11019,"124":11020,"Ġë§":11021,"Ġfontsize":11022,"TR":11023,"Ġcoverage":11024,".subplot":11025,"Ġvotes":11026,"ĠObs":11027,"Ġtruck":11028,"Ġparties":11029,"Ġinertia":11030,"$:ĊĊ":11031,"rations":11032,"ĠGold":11033,"ipping":11034,"ĠApproxim":11035,"ĠPage":11036,"ĠYoung":11037,"oton":11038,"ĠGlobal":11039,"Ġphenomen":11040,"See":11041,"ĠRandom":11042,"Ġstorm":11043,"Ġmarriage":11044,"uess":11045,"Ġsale":11046,"Ġsitting":11047,"Ġlearners":11048,"ĠDivision":11049,"Source":11050,"Ġillness":11051,"units":11052,"Ġdisk":11053,"ä¹ī":11054,"Ġdiscover":11055,"yr":11056,"inking":11057,"Ġdiverg":11058,"omentum":11059,"æł¼":11060,"Ġmere":11061,"```Ċ":11062,"Ġbird":11063,"ugs":11064,"*b":11065,".start":11066,"books":11067,"status":11068,"Ġprocedures":11069,"Ġconcerned":11070,"Ġpus":11071,"Ġhal":11072,"Ġmeter":11073,"Ġstrictly":11074,"260":11075,"ĠTur":11076,"Ġstores":11077,"ownload":11078,"_message":11079,"Ġsupporting":11080,"Ġdemonstration":11081,"del":11082,"_split":11083,"_classes":11084,"Ġschedule":11085,"Ġflour":11086,"lhs":11087,"hello":11088,"_density":11089,"ĠIslam":11090,"Ġballs":11091,"bow":11092,"har":11093,"Ġcreative":11094,"ollowing":11095,"Ġbattle":11096,"Ġpipe":11097,"ald":11098,"Ġquadrant":11099,"remaining":11100,"Ð¸ÑĢ":11101,"Point":11102,"ili":11103,"Ġgram":11104,"ola":11105,"ubic":11106,"176":11107,"å½ķ":11108,"ĠSeries":11109,"Mon":11110,"ÎķÎ":11111,".res":11112,"Ġadvert":11113,"Ġattempts":11114,"ĠÑį":11115,"ĠFederal":11116,"ignific":11117,"Ġcontinuity":11118,"Ġca":11119,"Ġvent":11120,"ĠInstead":11121,"gb":11122,"à¤Ĥ":11123,"Ġbelieved":11124,"Ġcentered":11125,"Ġfav":11126,"ĠkJ":11127,"Ġmeat":11128,"ä¸¤":11129,"refix":11130,"Ġä":11131,"Ġmi":11132,"GS":11133,"Ġowner":11134,"ĠTra":11135,"Ð¸Ñĩ":11136,"arsed":11137,".Model":11138,"Ġmac":11139,"Ġbrown":11140,"Ġhouses":11141,"Ġevaluated":11142,"ĠRule":11143,"ĠBusiness":11144,"_tri":11145,"Ġteeth":11146,"Ġemployee":11147,"eled":11148,"(train":11149,"_inches":11150,"igenvalues":11151,"åĵ":11152,"Ġtiss":11153,"ĠReal":11154,"Ġbridge":11155,".H":11156,"Att":11157,"ĠJud":11158,"(),Ċ":11159,"ĠRequired":11160,"ĠPeter":11161,"Ġhearing":11162,"Ġmobile":11163,"Ġvirtual":11164,"éķ":11165,"ĠMonth":11166,"ĠSunday":11167,"ĠNews":11168,"ĠÐ´Ð»Ñı":11169,"relu":11170,"page":11171,"pact":11172,"Trans":11173,"(os":11174,"ĠContin":11175,"å¼ķ":11176,"xiety":11177,"(length":11178,"war":11179,"Ġplays":11180,"184":11181,"tu":11182,"Ġsq":11183,"ĠMag":11184,"([Ċ":11185,"Ġmaintaining":11186,"bur":11187,"ĠNatural":11188,"Ġheap":11189,"íķ´":11190,"Ġemployment":11191,"Ġbis":11192,"ipped":11193,"åĪ¶":11194,"Ġdollar":11195,"185":11196,"period":11197,"ĠDraw":11198,"Ġperman":11199,"erving":11200,"Ġguy":11201,"_low":11202,"Ġack":11203,"ounced":11204,"Ġtransportation":11205,"FC":11206,"emory":11207,"ĠBlue":11208,"Ġconstructed":11209,"lections":11210,"ĠRO":11211,"/env":11212,"Fr":11213,"Ġama":11214,"Ġoct":11215,"jection":11216,"Ġdirected":11217,"ĠâĢ¦":11218,"Ġexpensive":11219,"Ġexplains":11220,"æĪĸ":11221,"è®¡ç®Ĺ":11222,"*ĊĊ":11223,"BS":11224,"Ġprimarily":11225,"Ġexpanded":11226,"average":11227,"Ðļ":11228,"ĠFace":11229,"ugate":11230,"_even":11231,"æĪĳ":11232,"Ġgun":11233,"Ġsubstant":11234,"Ġdecades":11235,"ursive":11236,"><":11237,"ician":11238,"Ġthank":11239,"agnetic":11240,"[s":11241,"rating":11242,"Weight":11243,"Ġduty":11244,"LO":11245,"Ġkinds":11246,"tings":11247,"ullying":11248,"\\tau":11249,"each":11250,"ersion":11251,"calar":11252,"eties":11253,"Ġbear":11254,"Ġcontents":11255,"è½¬":11256,"Ġstanding":11257,"identity":11258,"Ġcurvature":11259,"Create":11260,"Ġmal":11261,"apor":11262,"Ġvalu":11263,"Other":11264,"Ġrefers":11265,"Ġengage":11266,"Ġoverlap":11267,"Âłand":11268,"Ġexposed":11269,"Ġdirector":11270,"icians":11271,"Ġgene":11272,"Ġemergency":11273,"Ġdispl":11274,"Ġshapes":11275,"person":11276,"_upper":11277,"ĠWomen":11278,"(time":11279,"ĠPDF":11280,"orse":11281,"phic":11282,"Ġwitness":11283,"elen":11284,"ĠMove":11285,"Ġloading":11286,"456":11287,"Î¼":11288,"Ġcompos":11289,"_ab":11290,"Ġforg":11291,"Ġdiscrete":11292,"ĠIran":11293,"`.":11294,"Ġbyte":11295,"ĠAnother":11296,"Ġdomestic":11297,"_lower":11298,"ĠFigure":11299,"Ġuniverse":11300,"_method":11301,"avity":11302,"stood":11303,"cules":11304,"Ġpriority":11305,"_threshold":11306,"icing":11307,"_fit":11308,"Ġapproved":11309,"adian":11310,"Ġepis":11311,"olars":11312,"ĠGre":11313,"ework":11314,"Ġdistrib":11315,"Ġtexts":11316,"Ġdiagram":11317,"kl":11318,"perial":11319,"Ġinstalled":11320,"VE":11321,"ĠSmall":11322,"Ġcond":11323,"Explain":11324,"Ġelectrical":11325,"Ag":11326,"_tree":11327,"Ġnormally":11328,"bool":11329,"ĠLook":11330,"axes":11331,"Ġincident":11332,"Ġcrim":11333,"Function":11334,"ulus":11335,"\"Res":11336,"health":11337,"Ġwear":11338,".addLink":11339,"Ġrecognize":11340,"_weights":11341,"Ġgross":11342,"INT":11343,"Ġ'\\":11344,"Ġrecall":11345,"Ġforecast":11346,"Mr":11347,"ĠEgypt":11348,"weet":11349,"åŁ":11350,"rooms":11351,"Color":11352,"_shots":11353,"ãģ¾":11354,"Ġconvention":11355,"Ġaudience":11356,"Ġfert":11357,"Ġmur":11358,"Ġdividend":11359,"ĠPass":11360,"Ġunderlying":11361,"_status":11362,"Request":11363,"Ġbrand":11364,"ĠUSD":11365,"operatorname":11366,"Ġsucceed":11367,"\\vec":11368,"dem":11369,"Pre":11370,"iem":11371,"black":11372,"{lb":11373,"/a":11374,"[[":11375,"Ġgear":11376,"Ġinteract":11377,"Ġsuperv":11378,"Ġatmosphere":11379,"âĸłâĸł":11380,"Ġexcellent":11381,"ima":11382,"156":11383,"SO":11384,"hal":11385,"isis":11386,"ĠFull":11387,"Ġmanif":11388,"_images":11389,"optimal":11390,"Ġtele":11391,"ĠAngle":11392,".argv":11393,"Ġboolean":11394,"Ġdefinitions":11395,"_K":11396,"ĠHave":11397,"valuation":11398,"åĨĻ":11399,"Ġhydrogen":11400,"profit":11401,"Ġcommunic":11402,"elfare":11403,"âĤĢ":11404,"ORD":11405,"ican":11406,"ĠTry":11407,"awn":11408,"ĠHill":11409,"Ġrandomly":11410,"(equation":11411,"ymmetric":11412,"Î»":11413,"ĠStat":11414,".factorial":11415,"density":11416,"Ùħ":11417,"ĠEmploy":11418,"TP":11419,"Ġsine":11420,"!\"":11421,"Ġourselves":11422,"Ġtokens":11423,"Pol":11424,"ĠBill":11425,"ported":11426,"Ġposts":11427,"tz":11428,"olut":11429,"ĠRot":11430,"ubble":11431,"Ġcancel":11432,"Ġdefect":11433,"ĠMaybe":11434,"Ġë³":11435,"Ġreferred":11436,"Ġpreferred":11437,"stone":11438,"Ġrenew":11439,"_digit":11440,"Ġsentences":11441,"ĠDemoc":11442,"equired":11443,"ĠBehav":11444,"ocalization":11445,"Ġreaches":11446,"138":11447,"Ġbelie":11448,"Ġscheme":11449,"ni":11450,"Ġaver":11451,"Ġfilters":11452,"poons":11453,"ĠEngineering":11454,"(args":11455,"+b":11456,"both":11457,"iday":11458,"Ġpartition":11459,"usters":11460,"Ġbiological":11461,"Ġgenetic":11462,"Ġrail":11463,"ĠSimulate":11464,"Ġjump":11465,"tic":11466,"conf":11467,"Ġformation":11468,"Ġcurrency":11469,"Ġcloud":11470,"_PATH":11471,"alculated":11472,"ĠFlor":11473,"Ġfamous":11474,"ĠSpan":11475,"Ġagricultural":11476,"roke":11477,"ashion":11478,"_RE":11479,"Ġdeviations":11480,"Ġ×":11481,"Ġfort":11482,"_zero":11483,"Ġuniversal":11484,")))ĊĊ":11485,"iral":11486,"ritten":11487,"Ġfewer":11488,"mun":11489,"Ġascending":11490,"Ġguard":11491,"itative":11492,"ĠSing":11493,"people":11494,"Ġmanufacture":11495,"ship":11496,"Ġspacing":11497,"ĠPrime":11498,"Ġelection":11499,"ĠEnvironmental":11500,"å¥":11501,"ĠJapanese":11502,"(matrix":11503,"matic":11504,"ÑĤÐ¾":11505,"ĠCarol":11506,"break":11507,".degrees":11508,"ĠÂ·":11509,"Ġconvent":11510,"ĠLE":11511,"Ġabund":11512,".Tensor":11513,"ĠAlex":11514,"avings":11515,"_steps":11516,"(is":11517,"common":11518,"erate":11519,"Ġregional":11520,"Ġterrit":11521,"ativ":11522,"sk":11523,"ĠAccess":11524,"Ġarbitrary":11525,"Ġtested":11526,"Ġinflation":11527,"ĠFree":11528,"(discriminant":11529,"-wise":11530,"inition":11531,"Ġknock":11532,"Ġdecreasing":11533,"convert":11534,"Ġradiation":11535,"ĠAdditionally":11536,"Ġhusband":11537,"ĠJul":11538,"ĠÐ½Ðµ":11539,"Ġrecognized":11540,"İ·åıĸ":11541,"():čĊ":11542,"Ġrough":11543,"{Pa":11544,"CP":11545,"201":11546,"Ġdesire":11547,"Ġlongest":11548,"ilarly":11549,"Ġìĥ":11550,"Ġsatell":11551,"Ġorientation":11552,"iro":11553,"taff":11554,"Ġpotentially":11555,"Ġdeck":11556,"keep":11557,"parallel":11558,"Ġserving":11559,"Ġcongr":11560,"_db":11561,"=int":11562,"_img":11563,"Ġvast":11564,"anda":11565,"152":11566,"Ġpayments":11567,".en":11568,"|-------":11569,"åģ":11570,"ĠnÃºmer":11571,"ervice":11572,"Ġdemoc":11573,"Ġcircumstances":11574,"Ass":11575,"Oper":11576,"izers":11577,"Ġdurability":11578,"Ġaltitude":11579,"]])":11580,"_elements":11581,"\"Minimum":11582,"ulates":11583,"Ġrig":11584,"ĠNE":11585,"è¿Ľè¡Į":11586,"/l":11587,"leet":11588,"MR":11589,"Ïĥ":11590,"ìĿ¸":11591,".reporting":11592,"_SIZE":11593,"Ġdistingu":11594,".comb":11595,"Ġdifficulty":11596,"Ġ):Ċ":11597,"Ġstages":11598,"Ġacting":11599,"Ġquantities":11600,"itage":11601,"ĠNO":11602,"ĠJustify":11603,"odds":11604,"osa":11605,"ÐµÐ½ÑĤ":11606,"_age":11607,"kins":11608,"ĠFac":11609,"ë²":11610,"=\"\"":11611,"Ġregister":11612,"rediction":11613,"wa":11614,"Info":11615,"ĠCODE":11616,"-indexed":11617,"Ġfly":11618,"Ġordering":11619,"Ġescape":11620,"Ġannot":11621,"ĠìĤ¬":11622,"urabilities":11623,"plicated":11624,"cludes":11625,"%ĊĊ":11626,"_pct":11627,"theoretical":11628,"ĠSelect":11629,"Ġslice":11630,"å¼Ģ":11631,"Ġorbital":11632,"Ġmic":11633,"caling":11634,"Ġinvolving":11635,"æį¢":11636,"consistent":11637,"325":11638,"king":11639,"().__":11640,"Ġinstrument":11641,"forms":11642,"IDS":11643,"(stypy":11644,"Ġconsequences":11645,"ĠMath":11646,"ella":11647,"ĠDivide":11648,"yc":11649,"ĠCI":11650,"ĠWorks":11651,"ĠAppro":11652,"hours":11653,"urv":11654,"ĠValley":11655,"vironments":11656,"_sup":11657,".group":11658,"Ġpercentile":11659,"inate":11660,"sem":11661,"riers":11662,"apsed":11663,"Ġimmediate":11664,"gest":11665,"micro":11666,"fortunately":11667,"itable":11668,"_sales":11669,"ĠÏĨ":11670,"Ġndarray":11671,"Ġcomputational":11672,"Ġguidelines":11673,"Ġindependence":11674,".localization":11675,"oval":11676,"Ġupward":11677,".Localization":11678,"Rearranging":11679,"GG":11680,"replace":11681,"Ġnarr":11682,"zer":11683,"NO":11684,"Rel":11685,"Â·K":11686,"+=":11687,"irs":11688,"ĠVi":11689,"243":11690,"Ġendpoint":11691,"legal":11692,"problem":11693,"youtube":11694,"Ġnm":11695,"Ġcontributions":11696,"Ġalloc":11697,"\\mathbb":11698,"Ġ>>":11699,"Ġml":11700,"ĠLike":11701,"{kJ":11702,"Ġcombine":11703,"ĠAssuming":11704,"_mode":11705,"ë§":11706,"Ġtags":11707,"Ġmatters":11708,"_dataset":11709,"Ð°Ð²":11710,"Ġrelates":11711,"Ġwalls":11712,"kes":11713,"(model":11714,"Ġdrag":11715,"abin":11716,"ĠChapter":11717,"Ġcomputes":11718,"Ġvaluable":11719,"{Y":11720,"ÙĦ":11721,"_rect":11722,"ä»¬":11723,"planation":11724,"Ġmeetings":11725,"Ġappearance":11726,"åıĺéĩı":11727,"(ch":11728,".reshape":11729,"Ġexperimental":11730,"teen":11731,"Ġcontrolled":11732,"pd":11733,"ä¿Ŀ":11734,"-ma":11735,"Ġunchanged":11736,"_tax":11737,"Calculating":11738,"DB":11739,"[np":11740,"_top":11741,"Ġattached":11742,"Ġloaded":11743,"Ġì¶":11744,"docs":11745,"ĠIV":11746,"Ġcoeff":11747,"ĠpH":11748,"143":11749,"pired":11750,"Ġarms":11751,"ĠFrank":11752,"Ġdestination":11753,"Ġhero":11754,"Ġcommands":11755,".cdf":11756,"\\hline":11757,"ä¸ŃçļĦ":11758,"Ġseeds":11759,"!}{":11760,"aveled":11761,"asic":11762,"åĮħ":11763,"oreignKey":11764,"yes":11765,"Object":11766,"Ġsight":11767,"??":11768,"ĠMichael":11769,"Ġsocket":11770,"lectric":11771,"Ġofficials":11772,"uid":11773,"Ġaqu":11774,"ĠIr":11775,"ĠOffic":11776,"Ð°Ð¼":11777,"Ġmanaged":11778,"Ġmit":11779,"è¨":11780,"Ġvocabulary":11781,"Ġtransmission":11782,"Ġlongitude":11783,"Ġpossess":11784,"ĠDecimal":11785,"ìłķ":11786,".ed":11787,"ĠIdentify":11788,"âīĪ":11789,"Ġforget":11790,"reme":11791,"Ġrobot":11792,"Ġpossibility":11793,"ĠIT":11794,"_cols":11795,"ĠFlask":11796,"Ġconversation":11797,"Ġguidance":11798,"ĠCr":11799,"critical":11800,"Order":11801,"author":11802,"Ġocean":11803,"Ġinsect":11804,"Ġgather":11805,"äºº":11806,"Ġjournal":11807,"Ġdiscrepancy":11808,"Ġdataframe":11809,"_voltage":11810,"Ø¯":11811,"ivered":11812,"\"An":11813,"Top":11814,"(sorted":11815,"Ġnumerically":11816,"650":11817,"alks":11818,"Ġblow":11819,"ëĲ":11820,"ĠPlayer":11821,"ĠSpecifically":11822,"(user":11823,"Î£":11824,"ĠTask":11825,"ĠNext":11826,"_equation":11827,"ogether":11828,"_stack":11829,"Ġsurvival":11830,"Ġreciprocal":11831,"ĠCult":11832,"cr":11833,"Ġrearr":11834,"ĠReading":11835,"ycling":11836,"Ġsteady":11837,"<=":11838,"pf":11839,"Ġve":11840,"Ġremoving":11841,"ĠHenry":11842,"(val":11843,".filter":11844,"Car":11845,"eing":11846,"_rem":11847,"Ġhabitat":11848,"nan":11849,"ĠExec":11850,"Ġflash":11851,"åħ³":11852,")$ĊĊ":11853,"/S":11854,"ĠKeep":11855,"zy":11856,"_back":11857,"ademy":11858,"550":11859,"Ġmine":11860,"(\"/":11861,"Ġdatasets":11862,"roots":11863,"irms":11864,"Ġ||":11865,"Ġstride":11866,"è§£":11867,"ificial":11868,"Ġsky":11869,"Ġclosely":11870,"Under":11871,"íĺ":11872,"asible":11873,"Ġkit":11874,"Ð¾Ð²Ð°Ð½":11875,"-W":11876,"Most":11877,"expr":11878,"_variance":11879,"_condition":11880,"#čĊ":11881,"LL":11882,"ulating":11883,"Ġindexing":11884,"\\Ċ":11885,"actory":11886,"filename":11887,"148":11888,"Ġlayout":11889,"ëĵľ":11890,"xic":11891,"Ġartist":11892,"istant":11893,"Ġseat":11894,"235":11895,"ĠHttpResponse":11896,"heast":11897,"ĠNotes":11898,"\\log":11899,"æĺ¯åĲ¦":11900,"ĠProfess":11901,"(\"-":11902,".model":11903,"ARD":11904,"cs":11905,"{or":11906,"ĠTom":11907,"chen":11908,"othes":11909,"ceptions":11910,"Ġanalytical":11911,"\".ĊĊ":11912,"004":11913,"Ġconverges":11914,"Ġcrow":11915,"aturally":11916,"éļ":11917,"limit":11918,"-%":11919,"perimeter":11920,"ìľ¼ë¡ľ":11921,"ker":11922,"Ġthin":11923,"Ġbins":11924,"ĠSquare":11925,"arios":11926,"Ġimproving":11927,"Ġincorrectly":11928,"]^":11929,"Ġ$(\\":11930,"Ġconven":11931,"ĠIncome":11932,"multi":11933,"ĠYOUR":11934,"remainder":11935,"ä½ł":11936,"ĠFour":11937,"åıª":11938,"Ġrepeat":11939,"\"]ĊĊ":11940,"ĠFort":11941,"iler":11942,"ãĥ³":11943,"General":11944,"ĠThrough":11945,"ĠMuslim":11946,"-old":11947,"tf":11948,"Ġ\\|":11949,"Ġrub":11950,"âĸ¡âĸ¡":11951,"_page":11952,"ĠJacob":11953,"Ġknowing":11954,"åĮº":11955,"Ġuniversity":11956,"ĠAtl":11957,"Ġsimilarity":11958,"UNT":11959,"420":11960,"Ġdiverse":11961,"More":11962,"orry":11963,"Ġsimult":11964,"rhs":11965,"_nodes":11966,"Ġauto":11967,"olutely":11968,"ĠThree":11969,"Ġappeared":11970,"ĠGard":11971,"cong":11972,"Ġcrisis":11973,"ħį":11974,"Ġcognitive":11975,"Ġputting":11976,"comput":11977,"Ġbounded":11978,"Ġadmin":11979,"288":11980,"Ġcompetition":11981,"Load":11982,"ĠFourier":11983,"Ġnormalize":11984,"ĠLibrary":11985,"Ġagency":11986,"Ġprogramme":11987,"Ġnine":11988,"Ġcommittee":11989,"330":11990,"}$),":11991,"-cent":11992,"PO":11993,"ĠSearch":11994,"()čĊčĊ":11995,"298":11996,"Ġstopped":11997,"\"G":11998,"ĠVisual":11999,"ĠVirginia":12000,"Am":12001,"itches":12002,"Ġnu":12003,"ç´¢":12004,"Ġtelevision":12005,"ĠAdv":12006,"Ġsensitive":12007,"å¦Ĥæŀľ":12008,"Ġcriterion":12009,"Ġsweet":12010,"minus":12011,"covery":12012,"ancer":12013,"hape":12014,"Ġsorting":12015,"Ġrecovery":12016,"_intercept":12017,"Ġadministration":12018,"ĠCatholic":12019,"ĠRest":12020,"ĠHall":12021,":',":12022,"Ġintervention":12023,"-even":12024,"ĠCoefficient":12025,"nic":12026,"ugment":12027,".ForeignKey":12028,"[Dict":12029,"bum":12030,"ĠLED":12031,"âĢĿ.":12032,"abric":12033,"ĠImportError":12034,"FAULT":12035,"_token":12036,"ĠCounter":12037,"\"Exact":12038,"ĠLos":12039,"Ġagreed":12040,"Ġremained":12041,"herent":12042,"alance":12043,"condition":12044,"_process":12045,"isible":12046,"Ġwaves":12047,"Ġlogarithmic":12048,"æĥ":12049,"Ġath":12050,"forall":12051,"Ġcontrols":12052,"link":12053,"oor":12054,"ĠRad":12055,"ĠEN":12056,"Optimal":12057,",k":12058,"Iter":12059,"Ġwindows":12060,"Ġcomparing":12061,"Ġdetected":12062,"Ġpitch":12063,"Ġdelivery":12064,"Ġsaving":12065,"Ġrid":12066,"Ġaccident":12067,"Ġfinish":12068,"Ġ**$":12069,"then":12070,"El":12071,"_high":12072,"Another":12073,".)Ċ":12074,"sm":12075,"Ġcrime":12076,"inomial":12077,"Ġheaders":12078,"Taking":12079,"Ĥĺ":12080,"Ġmainly":12081,"Ġrobust":12082,"atm":12083,"Ġarmy":12084,"_delete":12085,"apezoid":12086,"Box":12087,"ĠTurn":12088,"Ġgrades":12089,"Ġtravels":12090,".pdf":12091,"Ġticket":12092,"_item":12093,"ĠSci":12094,"Ġmoon":12095,"sole":12096,"ometer":12097,"ĠSecurity":12098,"Ġmodules":12099,"Ġoperators":12100,"ĠMonday":12101,"_em":12102,"_simplified":12103,"Ġ(\\(":12104,"Ġaward":12105,"678":12106,"Ġsoul":12107,"Finally":12108,"IAL":12109,"igher":12110,"Ġstations":12111,"è¯ķ":12112,"(left":12113,"Ġtwenty":12114,"(string":12115,"Ġreasonable":12116,"ynamic":12117,"æ±Ĥ":12118,"850":12119,"difference":12120,"closed":12121,"ÑģÐ¿":12122,"Ġcalculating":12123,"zed":12124,"Ġ\"-":12125,".predict":12126,"ĠFriday":12127,"aded":12128,"}},":12129,"Ð°Ð¹":12130,"Ġharvest":12131,"Ġmagic":12132,"Ġphilosoph":12133,"Ġthick":12134,"ĠFair":12135,"Lear":12136,"{|":12137,"195":12138,"-G":12139,"Ġfreq":12140,"Ġprotected":12141,"-right":12142,"':'":12143,"binations":12144,"Ġremote":12145,"ĠMatches":12146,"æµĭ":12147,"§è¡Į":12148,"_cal":12149,"Ġslowly":12150,"Ġsurrounding":12151,"ëı":12152,"Ġinduct":12153,"ĠSpring":12154,"ĠWild":12155,"Ġdesc":12156,"Ġorganized":12157,"Ġweekly":12158,"Ġrolling":12159,"Ġwast":12160,"Ġdelet":12161,".columns":12162,"(_":12163,"encode":12164,"(set":12165,"Ġdiabetes":12166,"215":12167,"Ġcere":12168,"Ġjudge":12169,"_xy":12170,"ĠInterest":12171,"fast":12172,"admin":12173,"Ġoperate":12174,"ĠThose":12175,"Dis":12176,"\"ĊĊĊ":12177,"[c":12178,"ullet":12179,"binary":12180,"ä¹ĭ":12181,"Ġuma":12182,"RT":12183,"ĠmA":12184,"Ġshr":12185,"æł·":12186,"/dt":12187,"_graph":12188,"fix":12189,"Ġcone":12190,"_ml":12191,"Ġindicated":12192,"ĠJohnson":12193,"Ġsensor":12194,"Ġ\\):":12195,"Ġdiscrimin":12196,"ĠGCD":12197,"ipe":12198,"Ġhaven":12199,".tan":12200,"Ġkilograms":12201,"Ġauthors":12202,"Ã±":12203,"åĥ":12204,"ĠPL":12205,"centration":12206,"ĠEarly":12207,"/N":12208,"Ħì":12209,"Ġfurn":12210,"ela":12211,"205":12212,"ircraft":12213,"ĠSize":12214,"Ġjustice":12215,"varphi":12216,"Ġgrown":12217,"Ġundefined":12218,"engers":12219,"unched":12220,"Ġcosine":12221,"Ġattacks":12222,"ä¿¡":12223,"ws":12224,"Ġrestaur":12225,"])čĊ":12226,"Ġtight":12227,"Ġproducing":12228,"Ġoptimization":12229,"ĠMedic":12230,"UB":12231,"Word":12232,"ĠClean":12233,"Ġweigh":12234,"1994":12235,"\"Time":12236,"Ġvolum":12237,"è¡¨ç¤º":12238,"FL":12239,"_ST":12240,"Ġment":12241,"ĠìĦ":12242,"Ġyielding":12243,"Ġupdates":12244,"éľĢè¦ģ":12245,"yan":12246,"#print":12247,"best":12248,"ĠDen":12249,"_oper":12250,"Ġmovements":12251,"idity":12252,"ĠÐŁ":12253,"440":12254,"ĠCondition":12255,"Back":12256,"UI":12257,"Ġ$|\\":12258,"nsel":12259,"Ġrequiring":12260,"_after":12261,"IX":12262,"166":12263,"Ġlaunch":12264,"chem":12265,"à¤¨":12266,"ARN":12267,"ramid":12268,"Ġê°Ģ":12269,"oa":12270,"Ġcompens":12271,"Button":12272,"riends":12273,"ĠBible":12274,"Ġatom":12275,"Subtract":12276,"Ġshooting":12277,"px":12278,"æģ":12279,"Ġfrequent":12280,"ĠMap":12281,"-specific":12282,"ĠSecret":12283,"views":12284,"ĠBox":12285,"ĠLouis":12286,"Ġpivot":12287,"Ġgate":12288,"ĠPsych":12289,"OUT":12290,"haust":12291,"ĠWeek":12292,"ãĤ¹":12293,"çĶ¨æĪ·":12294,"Ġregularly":12295,"Ġwidely":12296,"ĠTaylor":12297,"_ne":12298,"ousing":12299,"close":12300,"pile":12301,"Ġcursor":12302,"ucky":12303,"Ġpermission":12304,"-min":12305,"208":12306,"iao":12307,"Ġamb":12308,"Ġmeasuring":12309,"Ġreporting":12310,"Ġradical":12311,"ķĮ":12312,"Dist":12313,"ĠWindows":12314,".nn":12315,"+\\":12316,"/v":12317,"otimes":12318,"_last":12319,"\"Required":12320,"YY":12321,"ÙĪ":12322,"ĠON":12323,"Ġëĭ":12324,"_exact":12325,".J":12326,"ĠDO":12327,"ROM":12328,"alities":12329,"ĠAsia":12330,"\"For":12331,"ĠDeg":12332,"{mL":12333,"Ġempirical":12334,"Ġvolts":12335,"Ġphysics":12336,"sw":12337,"Ġok":12338,"web":12339,"_years":12340,"etrics":12341,"Ġsubsequent":12342,"æ²":12343,"Ġdepression":12344,"ÑĭÐ¹":12345,"ç»ĵæŀľ":12346,"indrome":12347,"6000":12348,"Ġpanel":12349,"Ġdrinking":12350,"Ġstatistical":12351,")).":12352,"May":12353,"_pairs":12354,"Ġextend":12355,"Ġmarkets":12356,"{Percentage":12357,"Item":12358,"During":12359,"actored":12360,"Ġrod":12361,"Ġneutral":12362,"ĠStore":12363,"interval":12364,"Ġbigger":12365,"\"Number":12366,"oi":12367,"ĠUSA":12368,"Ġyounger":12369,"ĠCA":12370,"ĠPV":12371,"='--',":12372,"integer":12373,"/ĊĊ":12374,"search":12375,"_lat":12376,"Ġenvironments":12377,"Ġcareful":12378,"Ġmock":12379,"ĠFire":12380,").__":12381,"Ġcoal":12382,"Ġlikelihood":12383,"133":12384,"Ġdecimals":12385,"Ġstands":12386,"-coordinate":12387,"_read":12388,"Ġdiscipl":12389,"Ġadvoc":12390,"Var":12391,"Ġlistening":12392,"Ġinclusion":12393,"arah":12394,"ĠCapt":12395,"Ð°Ðº":12396,"Unit":12397,"Line":12398,"Ġnested":12399,"ĠProm":12400,"Ġroles":12401,"')ĊĊĊ":12402,"_abs":12403,"Ġbot":12404,"_call":12405,"çī¹":12406,"129":12407,"Ġcommission":12408,"Ġmuscle":12409,"ĠPacific":12410,"ĠBob":12411,"Ġmanual":12412,"Ġlargely":12413,"Ġpa":12414,"Ġconverting":12415,"ĠEntry":12416,"ãģĭ":12417,"Ġisland":12418,"Ġvtk":12419,"ĠSil":12420,"Ġcapable":12421,"oices":12422,"itting":12423,"icode":12424,"Ġregulations":12425,"rogen":12426,"Ġtraveled":12427,"ercise":12428,"ULL":12429,"omorphism":12430,"Ġleap":12431,"å¤į":12432,"DC":12433,"orough":12434,"ĠGM":12435,"Ð¾Ñĩ":12436,"Ġdownward":12437,"digit":12438,"yper":12439,"Ġ),Ċ":12440,"Ġanxiety":12441,"Ġunderstood":12442,"Ġalphabet":12443,"*n":12444,"Post":12445,"oral":12446,"Ġasset":12447,"ierarch":12448,"ĠSem":12449,"Ġ[\\":12450,"shape":12451,"ĠExper":12452,"Ġrepet":12453,"Ġreceiving":12454,"ĠSurvey":12455,"Ġimpedance":12456,"nbsp":12457,"Ġfault":12458,"anches":12459,"Ġimply":12460,"Ġsimplification":12461,"ãĥĪ":12462,"Ġdefinite":12463,"Ġreceives":12464,"(cls":12465,"Ġcriminal":12466,"-off":12467,"_alpha":12468,"ume":12469,"Ġconstit":12470,"ä¸İ":12471,"Ġbrack":12472,"amer":12473,"Ġcanvas":12474,"ĠKE":12475,"Ðĺ":12476,"ĠSP":12477,"Ġrealize":12478,"aneously":12479,"Ġtimestamp":12480,"Ġmand":12481,"igital":12482,"ĠTreat":12483,"ĠIll":12484,"Ġclarity":12485,"Ġbutter":12486,"ternative":12487,"Ġcraft":12488,"una":12489,"angent":12490,"otted":12491,"ĠAccount":12492,"?\"ĊĊ":12493,"\\{":12494,"ĠBre":12495,"ifiers":12496,"ĠFeb":12497,"Ġvot":12498,"ropout":12499,"666":12500,"ĠCoefficients":12501,"Ġrequested":12502,"ĠGuide":12503,"alog":12504,"Ġlandscape":12505,"_slope":12506,"ĠListNode":12507,"emptyset":12508,"organ":12509,"images":12510,"ĠAnaly":12511,"Ġëª":12512,"674":12513,"ĠApple":12514,"Ġinstruct":12515,"Ġreasoning":12516,"_interest":12517,"_I":12518,"itis":12519,"Ġpig":12520,"appro":12521,"Ġended":12522,"Ġ\"\"Ċ":12523,"gers":12524,".layers":12525,"ĠResources":12526,"Ġmarketing":12527,"ĠEducational":12528,"-cont":12529,"Page":12530,"Ġã":12531,"ĠAdditional":12532,"ypotenuse":12533,"340":12534,"pus":12535,"199":12536,"iox":12537,"Ġcompact":12538,"ç»Ļ":12539,"oom":12540,"Ġcrops":12541,"èĢħ":12542,"éķ¿":12543,"Ġsubstantial":12544,"Age":12545,"fc":12546,"Ġtot":12547,"okes":12548,"cest":12549,"è¯¥":12550,"Ġloved":12551,"Ġimproper":12552,".root":12553,"Ðŀ":12554,"Ġcomparisons":12555,"alary":12556,"Ġdialog":12557,"Ġtypo":12558,"Ġpresentation":12559,"Ġreversed":12560,"ĠDifference":12561,"Ġfetch":12562,"gery":12563,"(numerator":12564,"===":12565,"Ġdefinitely":12566,"Ġanalog":12567,":%":12568,"Ð½Ð¸":12569,"imensions":12570,"_second":12571,"Ġeigenvalue":12572,"æŃ£":12573,"Ġspectrum":12574,"ĠLi":12575,"èĩª":12576,"Ġjoined":12577,"Ġpurchased":12578,"Ġfan":12579,"_opt":12580,"Ġarrangements":12581,"_sort":12582,"Ġds":12583,"GO":12584,"utable":12585,"Ġordinary":12586,"Med":12587,"Ġwarning":12588,"ailability":12589,"Ġsummation":12590,"foot":12591,"Ġpollution":12592,"\"f":12593,"Ġlic":12594,"ĠLower":12595,"Ġenv":12596,"Ġcolour":12597,"Ġhandles":12598,"ĠDescription":12599,"Ġgrows":12600,"ĠTrust":12601,"Ġworker":12602,"null":12603,"atorial":12604,"Ġinjury":12605,"ÐĿ":12606,"Ġtile":12607,"ĠNature":12608,"Ġlit":12609,"Ġadopted":12610,"Ġsoci":12611,"Ġcompletion":12612,"å±ŀ":12613,".rect":12614,"236":12615,"Ġcarrying":12616,"153":12617,"lockwise":12618,"aciÃ³n":12619,"osph":12620,"å¾Ĺ":12621,"Ġimaginary":12622,"}\"ĊĊ":12623,"âĿ":12624,"Ins":12625,"{'":12626,"hered":12627,"ilder":12628,"Ġran":12629,"ĠPers":12630,"Ġbreast":12631,"_times":12632,"ainer":12633,"inequality":12634,"acks":12635,"Ġìĺ":12636,"Ġframes":12637,"ocolate":12638,"Matrix":12639,"grade":12640,"Ġchief":12641,"Ġmovies":12642,"eah":12643,"Ġinher":12644,"KEY":12645,"_dot":12646,"Ġsod":12647,"Ġtransforms":12648,"Ġdisplayed":12649,"Pe":12650,"edelta":12651,"ĠGDP":12652,"Ġcodes":12653,"æĵ":12654,"icago":12655,"Ġmeal":12656,"Ġconsumer":12657,"ĠCategory":12658,"Ġdeploy":12659,"oved":12660,"åıĳ":12661,"ĠMexico":12662,"Ġbucket":12663,"_offset":12664,"_{-":12665,"Ġnarrow":12666,"_cor":12667,"ç±»åŀĭ":12668,"Ġsed":12669,"\"Sum":12670,"Ġtrouble":12671,"ĠâĶ":12672,"Element":12673,"_example":12674,"à¥ĭ":12675,"Ġexperts":12676,"Ġwa":12677,"ĠLee":12678,"rends":12679,"adding":12680,"onds":12681,"bolds":12682,".lastname":12683,"Ġfulf":12684,"ĠSS":12685,"idad":12686,"ĠMoon":12687,"Ġstudied":12688,"Ġmachines":12689,"Ġintelligence":12690,"AX":12691,"éĥ½":12692,"ĠChristmas":12693,"Ġconvex":12694,"Ġbought":12695,"icion":12696,"ĠHope":12697,"(type":12698,"ORE":12699,"boldsymbol":12700,"BER":12701,"Ġresid":12702,"Ġincreasingly":12703,"anes":12704,"Ġdream":12705,"ĠRoy":12706,"Ġswap":12707,"ĠSpanish":12708,"Ġthanks":12709,"Ġfoundation":12710,".isc":12711,"bing":12712,"_types":12713,"Ġcommunicate":12714,"Ġwatching":12715,"isters":12716,"account":12717,"umference":12718,"idal":12719,"ĠFather":12720,"]=":12721,"Ġwage":12722,"ìĭľ":12723,"ĠÐ¾Ð±":12724,"Ġtips":12725,"emporary":12726,"-test":12727,"ĠEquivalent":12728,"Ġdissip":12729,".K":12730,"``,":12731,"anta":12732,"Ġmeaningful":12733,"Ġformatted":12734,"Ġsensitivity":12735,"âķ":12736,"ĠJoseph":12737,"ounding":12738,"ĠÐ»":12739,"iodiversity":12740,"-state":12741,"Ġmedicine":12742,"}\".":12743,"_filename":12744,"Ġswim":12745,"incent":12746,"Ġ')Ċ":12747,"ĠIndust":12748,"Ġsick":12749,"isition":12750,"ĠHim":12751,"\\nu":12752,"Ġassociation":12753,"_integral":12754,"mg":12755,"icious":12756,"Ġobjectives":12757,"hab":12758,"Ġcontrib":12759,"Work":12760,"ÆĴ":12761,"ĠSep":12762,"Just":12763,"joint":12764,"Ġsrc":12765,"Ġcaught":12766,"chron":12767,"å¤Ħ":12768,"stable":12769,"ĠSand":12770,"Ġserves":12771,"Ġminimizes":12772,"mode":12773,"isely":12774,"_template":12775,"ideos":12776,"ãĤĮ":12777,"_vertex":12778,"380":12779,"Ġcot":12780,"234":12781,"RED":12782,"yles":12783,"ĠFibonacci":12784,"Ġinteractions":12785,"Ġrelate":12786,"ÐµÐ½Ð¸Ñı":12787,"Ġaccounting":12788,"})(":12789,"ĠGraph":12790,"ĠEnc":12791,"Ġvisualization":12792,"Graph":12793,"ĠUr":12794,"iot":12795,"sorted":12796,"/T":12797,"Ġforth":12798,"attice":12799,"çº¿":12800,".isclose":12801,"Ġeta":12802,"eye":12803,"Ġnucle":12804,")`":12805,"ĠFar":12806,"ĠLoss":12807,"Ġrecip":12808,"Ġgovernments":12809,"Ġfell":12810,"Ġholid":12811,"apply":12812,"ABLE":12813,"·¸":12814,"à½":12815,"Ġnit":12816,"245":12817,"_IN":12818,"Ġcalendar":12819,"Ġinclusive":12820,"Ġìłķ":12821,"ï¬ģ":12822,"Ġroads":12823,"Ġmoist":12824,"Ġsessions":12825,"/P":12826,"otor":12827,"Ġglob":12828,"_{-\\":12829,"ologist":12830,"Ġreaders":12831,"204":12832,"Ġrecognition":12833,"Ġexpectation":12834,"]},":12835,"ellect":12836,"Ġhur":12837,"ĠToday":12838,"oler":12839,"Ġ**\\$":12840,"Ġsubstit":12841,"222":12842,"_quad":12843,"{Number":12844,"Ġantib":12845,"ilation":12846,"Ġgray":12847,"Ġtimeout":12848,"preciation":12849,"ĠFlorida":12850,"-i":12851,"Ġsi":12852,"urations":12853,"-on":12854,"store":12855,"Alternatively":12856,"-N":12857,"ĠHom":12858,"()`":12859,"ĠBefore":12860,"_bytes":12861,"ĠStarting":12862,"[Tuple":12863,"dev":12864,"Ġsoldi":12865,"zone":12866,"Ġorthog":12867,"Ġfolder":12868,"Ġadm":12869,"ĠComplex":12870,"Ġgod":12871,"707":12872,"ĠPC":12873,"ĠMid":12874,"Ġcommitted":12875,"ĠâĪĪ":12876,"Ġphysically":12877,"ĠUsers":12878,"amos":12879,"197":12880,"Ġworry":12881,"Ġprovision":12882,"ĠArab":12883,"Ġbiggest":12884,"Oh":12885,"ovie":12886,"ĠBuilding":12887,"Ġsql":12888,"isting":12889,"ĠBlock":12890,"/r":12891,"ĠOx":12892,"Ġexecutive":12893,"Ġobserve":12894,"Ġhealthcare":12895,"Ġphotos":12896,"çŃī":12897,"Ġpenc":12898,"ĠSource":12899,"ĠStand":12900,"mann":12901,"ignment":12902,"))čĊčĊ":12903,"_window":12904,"find":12905,"ipp":12906,"ĠPeriod":12907,"=c":12908,"ĠColl":12909,"_post":12910,"(point":12911,"amping":12912,"å±Ĥ":12913,"Ġreflects":12914,"187":12915,"Ġversions":12916,"Ġhonest":12917,"ears":12918,"æĸŃ":12919,"ĠTransform":12920,"Ġtherapy":12921,"è°ĥçĶ¨":12922,"Ġmathematics":12923,"ĠHoly":12924,"ĠStar":12925,"ĠâĬ":12926,"Ġcooking":12927,"igate":12928,"131":12929,"Ġdelivered":12930,"square":12931,"Ġinitialize":12932,"Ġlosing":12933,"-sectional":12934,"GI":12935,"Ġlatter":12936,"ĠCore":12937,"Ġportfolio":12938,"ĠBet":12939,"upt":12940,"ĠView":12941,"{vmatrix":12942,"Ġturning":12943,"PH":12944,"Ġmechanism":12945,"pad":12946,"Ġturb":12947,"ĠCivil":12948,"_rel":12949,"ĠÂłĠÂł":12950,"Ġparabola":12951,"ois":12952,"Ġsubstance":12953,"éĤ":12954,"inction":12955,"...,":12956,"_linear":12957,".json":12958,"åħ¨":12959,"ĠChem":12960,"apse":12961,"186":12962,"Ġ<<":12963,"ertools":12964,"_bl":12965,"Ġcritic":12966,"ading":12967,"udio":12968,"Ġrounds":12969,"345":12970,"é¢ĺ":12971,"ĠOcc":12972,"solutions":12973,"ĠSales":12974,"Ġunable":12975,"yme":12976,"\"čĊ":12977,"*Note":12978,"Ġprinted":12979,"icted":12980,"20000":12981,"Ġpreparation":12982,"hyd":12983,"ĊĊĊĊĊĊĊĊ":12984,"1970":12985,"Ġtaxes":12986,"_non":12987,"ARY":12988,"CV":12989,"ders":12990,"pot":12991,"Ġrice":12992,"ĠWin":12993,"Ġdistributions":12994,"Ġnations":12995,"ĠPA":12996,"ĠWay":12997,".session":12998,"posing":12999,"IME":13000,"Ġdropped":13001,"Ġaccommod":13002,"[y":13003,"_edges":13004,"exponent":13005,"ĠObama":13006,"~~~~~~~~":13007,"ìĦ±":13008,"Ġmeets":13009,"setminus":13010,"Ġsoldiers":13011,"Every":13012,"unct":13013,"ĠExpl":13014,"ĠCreating":13015,"ĠSchools":13016,"ĠSuper":13017,".axhline":13018,"\\lim":13019,"ĠPan":13020,".from":13021,"rific":13022,"}}$$ĊĊ":13023,"Ġ$-\\":13024,"Implement":13025,"TA":13026,"ĠStudies":13027,"Ł©":13028,"Ġplanned":13029,"50000":13030,"ĠFilter":13031,"Ġarrest":13032,"ĠHeight":13033,")!":13034,"ĠFrame":13035,"Ġstem":13036,"æ¸":13037,"Ġprints":13038,"Ġfighting":13039,"Ġdram":13040,"Ġfrag":13041,".stderr":13042,"Ġhazard":13043,"Ġcharged":13044,"lopes":13045,"DD":13046,"Ġrand":13047,"obile":13048,"ĠÃ·":13049,"nums":13050,"Ġmoral":13051,"Ġperfectly":13052,"Ġcopper":13053,"Ġwine":13054,"Ġìľ":13055,"Ġabsolutely":13056,"[::-":13057,"agraph":13058,"IB":13059,"_axis":13060,"Ġvital":13061,"_cur":13062,"576":13063,"Ġ]ĊĊ":13064,"()[":13065,"limate":13066,"/wiki":13067,"(values":13068,"ĠVector":13069,"_real":13070,"allelo":13071,"Ġelectro":13072,"Ġessay":13073,"Ġmanufacturing":13074,"ashes":13075,"ĠLab":13076,"Ġdealing":13077,"table":13078,"ĠMad":13079,"integral":13080,".*ĊĊ":13081,"ĠAdministration":13082,"ishment":13083,"Ġachievement":13084,"-left":13085,"]])ĊĊ":13086,"Ġunexpected":13087,"_neg":13088,"Ġexpenses":13089,"Ġ---Ċ":13090,"Ġusual":13091,"Ġshock":13092,"eller":13093,"_instance":13094,"_layer":13095,"Ġoriginally":13096,"åħ¸":13097,"claim":13098,"Ġdress":13099,"_columns":13100,"raq":13101,"Ġevening":13102,"Prove":13103,"å®¹":13104,"auge":13105,"ĠLink":13106,"Ġimagine":13107,"Ġapplicable":13108,"{dx":13109,"Ġweapons":13110,"ĠPur":13111,"Ġbeat":13112,"1600":13113,"Ġcardinal":13114,"ala":13115,"ĠAssessment":13116,"_shift":13117,"ĠÐ³ÑĢÐ°Ð¼Ð¼":13118,"Ġclinical":13119,"¢«":13120,"Ġ;":13121,"ictor":13122,"Ġmassive":13123,"/hour":13124,"Ġstruggle":13125,"æŁ¥":13126,"Ġhyp":13127,"Ð¸ÑĤÑĮ":13128,"factor":13129,"Ġtrunc":13130,"ĠPopulation":13131,"Ġtickets":13132,")\\)":13133,"ulu":13134,"ighbors":13135,"ĠBE":13136,"ĠLittle":13137,"Ġcapacitor":13138,"å½¢":13139,"Ġtrail":13140,"Ġ{}\".":13141,"Ġmountain":13142,"æĦı":13143,"/j":13144,"223":13145,"ront":13146,"ithub":13147,"ĠPubl":13148,"154":13149,"Ġexpectations":13150,"ĠHawaii":13151,"Ġlake":13152,"ĠDifferent":13153,"Ġscan":13154,"ÑĢÐ¸":13155,"Ġoccasion":13156,"Ġinformed":13157,"Ġpert":13158,"module":13159,"212":13160,"_keys":13161,"ĠAx":13162,"Ġongoing":13163,"ĠÎ²":13164,"æĢģ":13165,".ceil":13166,"Ġtab":13167,"1960":13168,".co":13169,"ulty":13170,"gorithm":13171,"ĠCapital":13172,"[row":13173,"ĠSuch":13174,"Ġ''":13175,"ĠLess":13176,"ibration":13177,"Ġcomputers":13178,"è®¤":13179,"ruit":13180,"ĠVariable":13181,"Â°,":13182,"ĠWithout":13183,"Ġcutting":13184,"ĠAngeles":13185,"è·¯":13186,"Ġtelling":13187,"Ġposit":13188,"Ġengaged":13189,"Ġdemonstrating":13190,"Ïī":13191,"##########Ċ":13192,"Ġcompr":13193,"-hour":13194,"Ġà¤¸":13195,"å¸¸":13196,"^t":13197,"Ġdz":13198,"286":13199,"Ġrevealed":13200,"157":13201,"Ġsole":13202,"full":13203,"Ġcommut":13204,"Ġtheme":13205,"(numbers":13206,"åľ°":13207,"Ġsongs":13208,"ĠTax":13209,"ĠNations":13210,"æİĴ":13211,"Ġnaturally":13212,"Ġasks":13213,"LECT":13214,"ĠAttributes":13215,"Ġflowers":13216,"Ġhappening":13217,"Ġconsideration":13218,"Ġrecipe":13219,"Ġliv":13220,"Ġgenes":13221,"Ġidentifying":13222,"/{":13223,"learning":13224,"ccos":13225,"rene":13226,"Will":13227,"_is":13228,"esides":13229,"Ġgenerating":13230,"å¹´":13231,"\\ln":13232,"éħį":13233,"008":13234,"Ġpole":13235,"į°":13236,"Ġreturning":13237,"Ġsad":13238,".normal":13239,".debug":13240,"Ġamazing":13241,"iated":13242,"Ġrapidly":13243,"(other":13244,"ĠGreek":13245,"ÂłÂłÂł":13246,"Ġfinds":13247,"/E":13248,"LU":13249,"Ġ$).ĊĊ":13250,"Ġreferences":13251,"ï¼īĊ":13252,"Ġclients":13253,"valuating":13254,"/k":13255,"Ġbanks":13256,"Ġeps":13257,"ĠVariance":13258,"Ġmodify":13259,"Ġlights":13260,"æī§è¡Į":13261,"ĠLabel":13262,"è¿Ļä¸ª":13263,"Ġstretch":13264,"will":13265,"exists":13266,"avorable":13267,"adv":13268,"icked":13269,"Although":13270,"pretation":13271,".scatter":13272,"game":13273,"Ġgenerates":13274,"door":13275,");Ċ":13276,"GET":13277,"ĠSpirit":13278,"ĠConservation":13279,"rr":13280,"Ġabstract":13281,"Position":13282,"ĠRange":13283,"ĠED":13284,"Ġquiet":13285,"wered":13286,"ĠConnect":13287,"][\"":13288,"Ġpound":13289,"Ġdraft":13290,"Ġdepos":13291,"(delta":13292,"prise":13293,"ju":13294,"|c":13295,"ĠSC":13296,"(lat":13297,"Ġagriculture":13298,"Don":13299,"wd":13300,"Ã¢":13301,"_scale":13302,"earing":13303,"_board":13304,"Last":13305,"ODE":13306,"ĮĢ":13307,"Ġow":13308,"ĠTimes":13309,"Ġalter":13310,"640":13311,"Take":13312,"ĠBasic":13313,"demic":13314,"arding":13315,"/âĪĤ":13316,"=[\"":13317,"Ġdiam":13318,"ĠKeyError":13319,"Ġfavorable":13320,"ê³¼":13321,"Ġexperiments":13322,"Ġhits":13323,"Ġintr":13324,"_cent":13325,"entials":13326,"amped":13327,"Search":13328,"elled":13329,"Ġarrived":13330,"ĠParse":13331,"_rot":13332,"Ġdice":13333,"asured":13334,"Ġconsumers":13335,"'}\")Ċ":13336,"bf":13337,"ĠSpe":13338,"(com":13339,"Ġperiodic":13340,"Ã£ÆĴ":13341,"ĠUpper":13342,"ä½įç½®":13343,"emon":13344,"login":13345,"Ġtransaction":13346,"Ġå°":13347,"ĠðŁ":13348,"įä½ľ":13349,"ictionaries":13350,"Ġcleaned":13351,"ĠNaN":13352,"lee":13353,"essages":13354,"Ġstrain":13355,"ĠâĪł":13356,"Ġaccessible":13357,"Ġdominant":13358,"Ġdurabilities":13359,"_squares":13360,"okens":13361,"Ġnewsp":13362,"ipeline":13363,"ensions":13364,"}\\,\\":13365,"285":13366,"Ġreflected":13367,"Ġfacing":13368,"ila":13369,"agen":13370,"139":13371,"ĠSea":13372,"_seq":13373,"ĠCartesian":13374,"_magnitude":13375,"derivative":13376,"Ġlinearly":13377,"iddleware":13378,"uke":13379,".wikipedia":13380,"Ġemployed":13381,"pie":13382,"/K":13383,"sol":13384,"237":13385,"Ġencouraged":13386,"æģ¯":13387,"ĠEV":13388,"ĠBer":13389,"ĠCourse":13390,"iability":13391,"}'.":13392,"Ġparamet":13393,"Ġchair":13394,"adients":13395,"bound":13396,"ĠTer":13397,"éĩĮ":13398,"Ġterror":13399,"Ġcats":13400,"earson":13401,"_hour":13402,"éĢī":13403,"æĹ¶éĹ´":13404,"ĠYears":13405,"BN":13406,"ih":13407,"Ġbasket":13408,"Ġplots":13409,"oked":13410,"Ġoffering":13411,"Ġfellow":13412,"allons":13413,"Ġconfusion":13414,"ĠFeatures":13415,"ivo":13416,"ĠCDF":13417,"_constant":13418,"IES":13419,"Ġintegrated":13420,"Ġchildhood":13421,"]))":13422,".seed":13423,"æıĲ":13424,"():":13425,"343":13426,"entry":13427,"ĠSon":13428,"Ġdrivers":13429,"æĶ¹":13430,"âľ":13431,"ĠLiter":13432,"ĠAdjust":13433,"ĠPlay":13434,"Ġimplementing":13435,"Ġstones":13436,"ubs":13437,"ariate":13438,"ĠPoisson":13439,"_items":13440,"Ġlunch":13441,"Ġreson":13442,"Ġroof":13443,"149":13444,"Ġintroduction":13445,"Ġcontradiction":13446,"Ġpizza":13447,"textit":13448,"Ġdisorder":13449,"Program":13450,"Ð²Ð¾":13451,"liers":13452,"unique":13453,"ignificant":13454,"_json":13455,".url":13456,"perm":13457,"oston":13458,"Ġboost":13459,".train":13460,"åĲ«":13461,"andidate":13462,"ĠÐ¸Ð·":13463,"Ġdecline":13464,"Ð¾Ð»ÑĮÐ·":13465,"microtext":13466,"Solution":13467,"[Ċ":13468,"ytes":13469,"ĠIO":13470,"_mon":13471,"orses":13472,".I":13473,"£¼":13474,"_sorted":13475,"ĉdef":13476,"Ġ\"/":13477,"âĢĶâĢĶ":13478,"Ïģ":13479,"Ġfrac":13480,"Ġsister":13481,"rob":13482,"ĠScale":13483,"1992":13484,"Ð½ÑĭÑħ":13485,"Ġadequate":13486,"Ġvel":13487,"ĠPet":13488,"argest":13489,"Ġtermin":13490,"Ġmemo":13491,"Ġconsumed":13492,"Ġselecting":13493,"Ġchallenging":13494,"æ¯Ķ":13495,"ĠFinally":13496,"Ġacceptable":13497,"BD":13498,"ë¶":13499,"1993":13500,"ĠJava":13501,"Ġsequential":13502,"good":13503,"}m":13504,"ĠMPa":13505,"à¤ķ":13506,"_def":13507,"ĠCE":13508,"Ġremoval":13509,"_content":13510,"Ġcommitment":13511,",d":13512,"Ġconscious":13513,"ĠValues":13514,"aclass":13515,"Ġreset":13516,"ricts":13517,"_critical":13518,"_double":13519,"Suppose":13520,"164":13521,"Ġextensive":13522,"-z":13523,"utch":13524,"\"Un":13525,"æľº":13526,"Ġsig":13527,"entence":13528,"ĠStaff":13529,"ĠAbout":13530,"Ġcontradict":13531,"æī¾":13532,"Ġpm":13533,"Ġdual":13534,"Ġsupplies":13535,"1100":13536,"ingly":13537,"Ġgift":13538,"_win":13539,"Ġpassage":13540,"Ġ\"))Ċ":13541,".Date":13542,"æĹ¥":13543,"Ġalgorithms":13544,"Ġtowns":13545,"/D":13546,"ĠShort":13547,"Ð¿Ð¸Ñģ":13548,"Ġdedicated":13549,"Ġwildlife":13550,"asant":13551,".real":13552,"å¸Ĥ":13553,"(abs":13554,"Ġinsight":13555,"SI":13556,"Ġsoc":13557,"available":13558,"ĠArmy":13559,"Ġcubes":13560,"Ġofficers":13561,"Ġmoments":13562,".int":13563,"Ġchunk":13564,"Ġexpend":13565,"ĠAcademy":13566,"Ġelevation":13567,"ĠFre":13568,"134":13569,"Ġminds":13570,"_hash":13571,"Ġposterior":13572,"Ġcable":13573,"Ġpump":13574,"206":13575,"such":13576,"Ġendpoints":13577,"ÑħÐ¾Ð´":13578,".loc":13579,"864":13580,"uum":13581,"Ġrecre":13582,"ĠMel":13583,".gcd":13584,"Ġboat":13585,".\\(":13586,"Level":13587,"Ġshadow":13588,"onymous":13589,"agg":13590,"Ġcols":13591,"ĠCentre":13592,"note":13593,"ĠCOVID":13594,"Que":13595,"Ġphrase":13596,"ĠMuseum":13597,"Ġsenior":13598,"ĠAT":13599,"}\\|":13600,"Ġwhereas":13601,"Ġmembership":13602,"Ġsilver":13603,"Ġwestern":13604,"MSE":13605,"ĠSelf":13606,"rolled":13607,"ĠEll":13608,"Ġrepair":13609,"Ġscholars":13610,"ĠIraq":13611,"Week":13612,"Ġcleaning":13613,"Ġmolecules":13614,"_stats":13615,"Ġreads":13616,"Ġcapacitance":13617,"Ġ...ĊĊ":13618,"Ġpolitics":13619,"(index":13620,"Cost":13621,"bered":13622,"Ġexamine":13623,"Ġhtml":13624,"Ġgained":13625,"Ġissued":13626,"amilton":13627,"Ġcomfortable":13628,"tax":13629,"182":13630,"ĠPlant":13631,"Ġstronger":13632,"Ġtube":13633,"Ġaircraft":13634,"ented":13635,"Ġdep":13636,"ĠRock":13637,".Optional":13638,"\"Con":13639,"Ac":13640,"build":13641,"Ġrelax":13642,"Ġoptimizer":13643,"=['":13644,"End":13645,"Lambda":13646,"æ·":13647,"_channels":13648,"Ġconfirmed":13649,"Ġaddresses":13650,"Ġtrading":13651,"ĠMen":13652,"Ġinfinity":13653,"orial":13654,"Ġnorthern":13655,"-sided":13656,"criptions":13657,"heric":13658,"Ġradial":13659,"Ġconcaten":13660,"Ġprofessionals":13661,"_Q":13662,"ĠMaster":13663,"YPE":13664,"Ŀ¼":13665,"asis":13666,"ĠÏī":13667,"Ġcomposite":13668,"Art":13669,"RR":13670,"ĠHam":13671,"Process":13672,"ĠBased":13673,"je":13674,"ĠHind":13675,"redictions":13676,"ìĨ":13677,"isease":13678,"Ġdetermines":13679,"+y":13680,"217":13681,"(solution":13682,"cers":13683,"Ġip":13684,"Ġbone":13685,"ĠÐ¿ÐµÑĢ":13686,"pressed":13687,"ĠRadius":13688,"(['":13689,"ĠÑĩÐ¸Ñģ":13690,"Ġingredients":13691,"(area":13692,"ĠDid":13693,"Âłto":13694,"merican":13695,"Ġimprovements":13696,"Ġsuffering":13697,"ĠBehavior":13698,"Ġbars":13699,"003":13700,"ĠSplit":13701,"Ġupload":13702,"Ġstructural":13703,".'":13704,"Area":13705,"Product":13706,"Ġsouthern":13707,"158":13708,"Ġemotions":13709,"Direct":13710,"idade":13711,"Ġfeels":13712,"Ġprevention":13713,"ĠEnter":13714,"wan":13715,"_fields":13716,"Ġrotate":13717,"artswith":13718,"SW":13719,"198":13720,"Ġbath":13721,"ĠCard":13722,"âĢĺ":13723,"Ġfunctionality":13724,"Ġeverywhere":13725,"Ġevaluating":13726,"Ġexecuted":13727,"Ġreviews":13728,"Ġincred":13729,"income":13730,"010":13731,"Ġnumero":13732,"éĹ®":13733,"AE":13734,"ĠBern":13735,"Ġclothes":13736,"Ġpermanent":13737,"}\",":13738,"ady":13739,"Ġperforming":13740,"Ġinvestigation":13741,"Ġracial":13742,"Ġastr":13743,"Ġbranches":13744,"igenous":13745,".âĢĶ":13746,"aration":13747,"acle":13748,"angled":13749,"Ġbrings":13750,"Ġassumptions":13751,"Ġsubsets":13752,"Ġcopies":13753,"Ġwelcome":13754,"ĠYet":13755,"Ġarchitecture":13756,"è¢«":13757,"abits":13758,"Ġcovering":13759,"Ġwonderful":13760,"Ġsoup":13761,"Ġevil":13762,"Ð¸Ð²":13763,".fl":13764,"umping":13765,"angers":13766,"_eval":13767,"ĠNor":13768,"Ġauthorities":13769,"ĠìŀĪ":13770,"Ġearnings":13771,"Ġbonds":13772,"Ġstructured":13773,"timestamp":13774,"141":13775,"æĺİ":13776,"ĠSimple":13777,"Ġbullet":13778,"Ġelectronic":13779,"íĸ":13780,"verification":13781,"Ġvisitors":13782,".image":13783,"Ġhat":13784,"Ġmarker":13785,".compile":13786,"Ġartists":13787,"Ġconvolution":13788,"Ġbeauty":13789,"\"Original":13790,"PER":13791,"_sol":13792,"achment":13793,"Ġdeaths":13794,"Ġfeat":13795,"Ġshorter":13796,"allelogram":13797,"Vert":13798,"Ġdefining":13799,"positions":13800,"ĠBest":13801,"III":13802,"Ġlegislation":13803,"Ġcentre":13804,".core":13805,"Ġsomewhat":13806,".qu":13807,"Ġtaste":13808,"Ġther":13809,"Ġglo":13810,"ĠEss":13811,"146":13812,"Ġsubmit":13813,"ivities":13814,"card":13815,"00000":13816,"Ġhence":13817,"Ġsubgroup":13818,"Ġsupplied":13819,"Ġlaunched":13820,"Ġpreserve":13821,"IVE":13822,"ivated":13823,"ĠScore":13824,"Ġcomposed":13825,"Module":13826,"Ġdropout":13827,"ĠGovern":13828,"Ġohms":13829,"ä¼ł":13830,"URE":13831,"tm":13832,"tra":13833,"é»":13834,"ulo":13835,"Ġorange":13836,"Ġadoles":13837,"Ġrelief":13838,"Ġfalling":13839,"Ġsons":13840,"Ġbases":13841,"æŃ¤":13842,"ĠRichard":13843,".current":13844,"Ġannually":13845,"offset":13846,"Ġdebate":13847,"æ³¨":13848,"à°":13849,"ĠSI":13850,"Ġminus":13851,".display":13852,"ĠìĿ´":13853,"RC":13854,"Ġbat":13855,"ĠAgain":13856,"Ġaims":13857,"ĠMer":13858,"(obj":13859,"ĠMater":13860,"æĵįä½ľ":13861,"ĠCelsius":13862,"Ġcontributes":13863,"Ġexplo":13864,"ìĿ¼":13865,"å½ĵåīį":13866,"1991":13867,"Ġteen":13868,"arked":13869,"ĠCanadian":13870,"Eng":13871,"ĠLCM":13872,"agonals":13873,".route":13874,"Âłof":13875,"Ġmultiples":13876,"ĠApplication":13877,"_positive":13878,")\"Ċ":13879,"unning":13880,"Ġplain":13881,"Ġtemporary":13882,"ï¸":13883,"ĠEvent":13884,"Ġê³":13885,"(out":13886,"irds":13887,"Ġoverw":13888,"ččĊ":13889,"ĠÐĴ":13890,"cut":13891,"source":13892,"ĠZeal":13893,"âĤĥ":13894,"ĠStatement":13895,"jo":13896,"aped":13897,"Ġdefend":13898,"Ġarts":13899,"Ġnominal":13900,"raid":13901,"çĻ":13902,"Ġdos":13903,"ĠEND":13904,"189":13905,"Ġreliable":13906,"cii":13907,"æľŁ":13908,"Ġimmune":13909,"Ġsubtracting":13910,"ĠPE":13911,"_pr":13912,"interest":13913,"Ġtrapezoid":13914,"Ġcorners":13915,"median":13916,".choice":13917,"Ġalignment":13918,"icide":13919,"Ġshifts":13920,"Ġtea":13921,"olumb":13922,"ĠINV":13923,"mond":13924,"Ġstrongly":13925,"Ã¨":13926,"Ġwelfare":13927,"Ġgrew":13928,"within":13929,"Ġsatellite":13930,"_space":13931,"irement":13932,"numbers":13933,".axv":13934,"rio":13935,"ĠRGB":13936,"_phi":13937,"({\"":13938,"bury":13939,"isors":13940,"ĠEM":13941,"(lst":13942,"540":13943,"Ġexhaust":13944,"_cases":13945,"erman":13946,"{mA":13947,"Ġundert":13948,"WH":13949,"added":13950,"Ġfairly":13951,"_earth":13952,"RS":13953,"etry":13954,"apes":13955,"çİ¯":13956,"when":13957,"Ġles":13958,"anted":13959,"Ġimplicit":13960,"_frequency":13961,".edu":13962,"Call":13963,"ĠFlow":13964,"ĠFuture":13965,"ĠkW":13966,"Ġmarkers":13967,"Ġconverts":13968,"noon":13969,"æķ°åŃĹ":13970,"ĠRen":13971,"Ġdemonstrated":13972,"Ġestimator":13973,"Ġpreval":13974,"ATOR":13975,"Ġconnecting":13976,"_feet":13977,"ĠCircle":13978,"users":13979,"ĠFrequency":13980,"answer":13981,"_paths":13982,"Ġhyperbol":13983,"645":13984,"orce":13985,"Ġfashion":13986,"(simplified":13987,"Ġpercentages":13988,"IONS":13989,"frak":13990,"Ġregistered":13991,"Ġtiles":13992,"mathfrak":13993,"Ġagents":13994,"ĠMeta":13995,"Ġsmoking":13996,"Ġguys":13997,"ĠJews":13998,"Ġ-*-Ċ":13999,"çĬ":14000,"apple":14001,"\"New":14002,"ï¸ı":14003,"Ġcollaboration":14004,"ĠSn":14005,"Ġliteracy":14006,"=models":14007,"ancel":14008,"Ġcylind":14009,"Ġclassical":14010,"azine":14011,"Ġaddressed":14012,"ruption":14013,"}Â°\")":14014,"\">":14015,"sets":14016,"Øª":14017,"_average":14018,"temp":14019,"Ġtill":14020,"ĠkN":14021,"_dis":14022,"ELL":14023,"Ġmesh":14024,"stop":14025,"ĠJo":14026,"Ġ(-\\":14027,"ARNING":14028,"abeth":14029,"Ġstops":14030,"block":14031,"apy":14032,"Â°)":14033,"overrightarrow":14034,"brid":14035,".axvline":14036,"[self":14037,"Ġchicken":14038,"ucose":14039,"Ġelementary":14040,"_counter":14041,"Main":14042,"Ġdrain":14043,"password":14044,"çīĩ":14045,"ĠWal":14046,"Ġfiltered":14047,")}{(":14048,"ĠFrancisco":14049,"(array":14050,"ĠLabor":14051,"Ġsimplest":14052,".auth":14053,"heap":14054,"Ġversus":14055,"Ġlect":14056,"\":\"":14057,"Ð»Ð¾":14058,"Ġdriven":14059,"åĪĿ":14060,"Are":14061,"Ke":14062,"lie":14063,"etary":14064,"ĠSM":14065,"Ġconserv":14066,"Ġclassifier":14067,"ãĥ«":14068,"Even":14069,"Mod":14070,"ĠSV":14071,"ysical":14072,"Ġhistoric":14073,"enda":14074,"equivalent":14075,"\"In":14076,"'\\":14077,"ĠNY":14078,"14159":14079,"Ġrealized":14080,"Jan":14081,"cule":14082,"ĠSometimes":14083,"384":14084,"Ġborrow":14085,"Ġ\"%":14086,"_match":14087,"178":14088,".tight":14089,"Ġultimately":14090,"aka":14091,"ĠImprove":14092,"\"Percentage":14093,"åħĪ":14094,"Ġstrike":14095,"Ġbelongs":14096,"Ġtur":14097,"igo":14098,"Ġelasticity":14099,"ĠStation":14100,"Ġattr":14101,"_format":14102,"caten":14103,"æ¡":14104,"iti":14105,"Ġinduced":14106,"ĠLatin":14107,"-scale":14108,".extend":14109,"ĠZealand":14110,"ħëł¥":14111,"_small":14112,"_payment":14113,"Ġ\\((":14114,"(response":14115,"Write":14116,"river":14117,"}})":14118,"Ġpaying":14119,"íķĺëĬĶ":14120,"033":14121,"Fl":14122,"gage":14123,"(sample":14124,"ĠnÃºmero":14125,".atan":14126,"Gu":14127,"188":14128,"Ġmanaging":14129,"(models":14130,"(co":14131,"GM":14132,".example":14133,"being":14134,"Ġmouse":14135,"ĠStock":14136,"Ġsimultaneously":14137,"Ġcmath":14138,"ĠSaturday":14139,"Ġtotally":14140,"rible":14141,"Ġvalidity":14142,"\"Area":14143,">=":14144,"151":14145,"ĠDev":14146,"Ġwinner":14147,"*Ċ":14148,"960":14149,"_en":14150,"pts":14151,"vertex":14152,".\")ĊĊĊ":14153,"ĠStruct":14154,"ĠAvoid":14155,"(integrand":14156,"Ġregul":14157,"Ġherself":14158,"Ġabsence":14159,".list":14160,"Ġignored":14161,"oned":14162,"Ġspeeds":14163,"late":14164,"Ġneur":14165,"Ġattitude":14166,"balance":14167,"Ġstudying":14168,"Ġtracking":14169,"Classifier":14170,"ĠRussia":14171,"Ġreform":14172,"plots":14173,"ĠPay":14174,"Ġequilateral":14175,"ngle":14176,"Height":14177,"fish":14178,"Ġfifth":14179,"edit":14180,"////////":14181,"æĽ´":14182,"#--------":14183,")_":14184,"432":14185,"}-":14186,"blank":14187,"Ġvulnerable":14188,".\")":14189,".ones":14190,"éĸ":14191,"Ġtower":14192,"incorrect":14193,"BO":14194,"atility":14195,"Ġct":14196,"ani":14197,"Ġnest":14198,"Ġexcluded":14199,"Ġclosing":14200,"Ġ[{":14201,"insic":14202,"Ġtrigger":14203,"âķĲ":14204,"ifting":14205,"ĠDer":14206,"ĠDays":14207,"parts":14208,"Ġarrangement":14209,"ibraries":14210,"Rep":14211,"ĠSN":14212,"Ġinvolvement":14213,"ç³":14214,"Current":14215,"ĠCamb":14216,"_triangle":14217,"_man":14218,"Ġentering":14219,"_ev":14220,".ac":14221,".),":14222,"ACE":14223,"_URL":14224,"direction":14225,"returns":14226,"Ġroutine":14227,"Ġchord":14228,"_pol":14229,"1900":14230,"Ĥ¨":14231,"ashed":14232,"Ġeffectiveness":14233,"ugging":14234,"ä¹Ł":14235,"å±ŀæĢ§":14236,"ivid":14237,"ologists":14238,"ĠAsk":14239,"')(":14240,"ìĺ":14241,"minutes":14242,"Ġ%(":14243,"_newdoc":14244,"Ġengagement":14245,"çŁ¥":14246,"iscal":14247,"ĠBinary":14248,"Ġabilities":14249,"tery":14250,"urrences":14251,"fficiency":14252,"ĠScott":14253,"zon":14254,"åĪ¤":14255,"Ġhomogeneous":14256,"decode":14257,"OF":14258,"aÃ§Ã£o":14259,"orque":14260,"plicate":14261,"Ġneural":14262,"ali":14263,"uling":14264,"Ġrooms":14265,"ç»´":14266,"åĿĹ":14267,":]Ċ":14268,"ĠTher":14269,"accuracy":14270,"Ġtraject":14271,"Ġegg":14272,"amber":14273,"umeric":14274,"Ġbirthday":14275,"itanic":14276,"(Î¸":14277,"bc":14278,"Ġcentroid":14279,".trans":14280,"è¿Ĳ":14281,"ĠÏģ":14282,"_integer":14283,"Ġasymptotic":14284,"cp":14285,"Ùĩ":14286,"Ġfabric":14287,"Ġbicy":14288,"Ġcomplicated":14289,"Ġstationary":14290,"scale":14291,"Ġdrops":14292,"ĠMust":14293,"Cal":14294,"adjusted":14295,"_full":14296,"lux":14297,"ortion":14298,"ĠEs":14299,"_msg":14300,"ĠRevenue":14301,"Ġexplos":14302,"ä»»":14303,"Ġbottle":14304,"Ġdust":14305,"183":14306,"ÐµÐ³":14307,".color":14308,"Ġconstantly":14309,"ĠThanks":14310,".imshow":14311,"ĠChoose":14312,"Ġintellect":14313,"ILL":14314,"ranch":14315,"Ġvolumes":14316,".ĊĊĊĊ":14317,"embers":14318,"ãĤĬ":14319,"_FILE":14320,"Correct":14321,"anded":14322,"Ġunw":14323,"_delta":14324,"_pre":14325,"à¤¤":14326,"Ġgenerations":14327,"Ġeditor":14328,"Ġmaintained":14329,".parse":14330,"Ġlaugh":14331,"ĠAttribute":14332,"Ġincom":14333,"emo":14334,"978":14335,"gt":14336,"ifer":14337,"Ġsolved":14338,"Ġalleg":14339,"ìŀ¥":14340,"å®ļä¹ī":14341,"unicipal":14342,"mn":14343,"ati":14344,"âĢĻ,":14345,"655":14346,"regular":14347,"Ġdense":14348,"assuming":14349,"785":14350,"Ðĳ":14351,"pyright":14352,"Ġjur":14353,"ãĤī":14354,"ĠOhm":14355,"BE":14356,"_center":14357,"Ġflags":14358,"isa":14359,"Ġsharp":14360,"{mg":14361,"Ġedit":14362,"osh":14363,"1950":14364,"_bits":14365,"172":14366,"Ġoperates":14367,"help":14368,"(expr":14369,"rog":14370,"aska":14371,"Well":14372,"ĠODE":14373,"Ġdiffers":14374,"ĠMinister":14375,"erts":14376,"ç§į":14377,"Ġconcerning":14378,")\",":14379,"TO":14380,"Ġdummy":14381,"uma":14382,"hedron":14383,"è¯Ń":14384,"_resistance":14385,"ione":14386,"Ġ$**:":14387,"Ġanch":14388,"(sub":14389,"Ġacute":14390,"relative":14391,"ĠPractice":14392,"¨ìĪĺ":14393,"Ġconfident":14394,"_degrees":14395,"Ġbeliefs":14396,"\"[":14397,"^m":14398,"gar":14399,"ĠFunctions":14400,"Ġsurve":14401,"lings":14402,"ossible":14403,"_capacity":14404,"elay":14405,"Ġgallon":14406,"Ġancest":14407,"ĠRain":14408,"_scaled":14409,"ĠHa":14410,"prop":14411,"Ġreserv":14412,"_vol":14413,"Ġbench":14414,"Widget":14415,"_case":14416,"_students":14417,"(radius":14418,"irls":14419,"ĠAgency":14420,"-world":14421,"stall":14422,"ĠPhase":14423,"_Z":14424,"ĠTemperature":14425,"304":14426,"(size":14427,"Ġmaximize":14428,"asters":14429,"Ġhasattr":14430,".floor":14431,"Ġkeeps":14432,"Ġgreatly":14433,"Ġcircul":14434,"ĠSat":14435,"Ġride":14436,"ĠNumerical":14437,"ĠBritain":14438,"Ġchronic":14439,"(\"%":14440,"Ġsusp":14441,"ĠìĿ´ë":14442,"craft":14443,"Ġdisposal":14444,"Ġpron":14445,"Ġbless":14446,"Ġindicator":14447,"Pass":14448,"seud":14449,"Ġjack":14450,"iece":14451,"()))Ċ":14452,"ORM":14453,"'}),čĊ":14454,"Profit":14455,"çĽ´":14456,"]}\")Ċ":14457,"csc":14458,"endent":14459,"Ġdinner":14460,"engine":14461,"Student":14462,"Ġconjugate":14463,"Ġentr":14464,"ĠApplying":14465,"ĠMedical":14466,"ĠGradient":14467,"Ġtissue":14468,"/en":14469,"ĠVelocity":14470,"Ġeveryday":14471,"ampaign":14472,"-K":14473,"Ġtiny":14474,"crement":14475,"Arg":14476,"_pressure":14477,"Ġprism":14478,".net":14479,"Divide":14480,"ĠRisk":14481,"Ġbeneficial":14482,"datetime":14483,"een":14484,"Ġdefense":14485,"Ġchecked":14486,".status":14487,"ëŀ":14488,"hell":14489,"Ġcorn":14490,"Ġofficer":14491,"è®¾ç½®":14492,"Ġfocal":14493,"ĠIndians":14494,".keras":14495,"ses":14496,"Ġthresh":14497,
[...]
